5d
connector
perfusion
referenced
[unused708]
lecturer
sulfo
##的
alaska
gone
lengths
##aba
plush
allogeneic
vulnerabilities
##dur
##oduodenectomy
drg
##87
tang
pennant
##edo
##uez
analgesic
50
rationally
differenti
doping
[unused965]
creb
hemispheric
34th
district
jones
##osapenta
excellence
bacteriophage
colloids
montane
ひ
##infection
geor
arm
alexia
##agal
flow
##harat
partum
mot
pvr
deacon
1946
varsity
wallace
##ocystis
##e1
atr
longitudinal
rins
tendencies
breast
vg
containment
invari
sputum
winter
periplasm
cardiover
credited
##義
johor
⋙
𝒟
№
distress
zodiac
earle
dimorphism
apn
##¶
secretive
##pipe
uti
##bbs
putative
powered
lieu
accelerate
316
weighting
polymerized
guid
songwriters
modelled
vascularization
perturbed
pilot
streamed
##child
acronym
intr
##olyl
##isk
attire
cal
##alle
cinematography
categ
##oth
bruce
angiopoietin
evangelical
www
guidelines
deported
grandmother
desens
1928
chemot
disorder
nissan
gss
methotrexate
likeness
noah
throttle
##ycholic
##encia
mai
kobayashi
educate
##⇔
850
proficient
[unused236]
adj
sculpted
abuses
fries
parasympathetic
ℜ
incident
nonspecific
held
basketball
sigma
serogroup
beyonce
antisera
mmc
##ors
##kov
assembly
microflora
aqu
denervation
assassinate
inbreeding
##vres
surve
use
enormous
##ᵧ
motivation
##stock
acton
##obility
retail
finances
betaine
fever
284
crowned
##cht
cadiz
##yan
##endazole
aberr
α1
aspirates
##ɮ
##olesterol
##wat
##lb
nonster
##100
unbound
த
duoden
horace
roman
ヒ
caine
sticky
generator
supernumer
##ostatin
jerked
atoms
fitz
nonpolar
siding
august
furry
urea
nitropr
radiologically
checkpoint
bob
##sions
##ozoite
##ty
lastly
308
dungeon
brucei
##olv
ehrlich
tourists
angiotensin
compton
theo
jejuni
peasant
##isches
cutic
kinetic
busy
trick
mitigated
##ᵤ
vh
and
##lers
crystalline
bombs
laborator
recessive
anderson
designed
道
espana
bronchodil
##terol
announces
ා
##oremed
wireless
phasic
##istic
paxton
##chman
educated
##eptidase
cesarean
joyah
##scopic
meaningful
stiffened
wid
lenti
withst
allergies
kenyan
##ᅯ
[unused177]
124
photovol
paris
tryptic
fvi
plume
termini
passed
gladys
diuretics
##cratic
2020
lvef
landf
trembled
diarrhea
alber
beige
joe
maharaja
eagerly
##icative
knelt
toc
harm
•
surveying
detainees
##cula
##nesian
overexp
cecilia
no2
perist
focus
sadly
[unused545]
slain
##adex
##atement
glycolipid
##itol
suction
khalifa
｜
##know
##iples
##iment
interests
lesions
radically
glycos
pcos
benton
contractures
hydroxyp
conjugation
medically
##isin
##bs
aphid
transmissible
inte
homolog
cm
inviting
kicking
suspicions
sun
flicked
fulton
bitten
kinases
naring
conflic
propose
chorus
param
##aortic
genes
pluripotency
##ble
savoy
##uka
315
scarcely
##‭
##≡
massachusetts
try
##romed
##lessly
abbrevi
nope
atletico
##⊥
hek293
∏
hologr
aberration
granular
completed
peach
##rontal
symb
tangled
arth
election
eic
adenosyl
ires
samsung
ウ
disbanded
cheerfully
embroidered
##restr
archangel
clos
##wt
store
imatinib
decisive
##oxygenase
pml
nct0
mesophilic
farmer
##point
thrombosis
##mma
illuminating
colitis
##ectral
genitourinary
delilah
heparan
glas
##mi
flyer
##13
[unused955]
ധ
reasonably
piano
pri
matric
amplifier
canis
cumberland
throughout
maverick
##ectomies
##mates
brook
##গ
speculative
123
equilibria
latitude
##cology
##pyruvate
##ptothecin
wand
##ape
harassment
responses
181
##）
##∸
volume
trailed
imperfect
##flu
##par
##onuclear
##quisite
spreading
liposome
endo
hammond
cousins
accoun
چ
##rricular
[unused594]
summers
##oat
##otox
faced
##pf
wh
adenovirus
sar
coenzyme
sperm
gathers
rigged
roughness
shape
apomorphine
[PAD]
oi
a23
cadets
##uil
##odynia
carcasses
p15
benzo
inh
georg
vibe
162
choreography
vaccinations
pbc
reinforcing
captives
unauthorized
hooked
comrades
land
equivocal
width
southeastern
transmitting
softness
##ogether
azathioprine
tighter
hari
hook
##illance
##rowth
##olytica
corporation
dade
emblem
astrocytes
ultrafast
summit
toxic
identity
instance
richly
harlow
monomer
##agm
pedal
sicily
unemployment
./
groom
uno
[unused131]
interp
inflow
##electroly
##forth
dates
promp
mononucle
engagement
fibrinolytic
lvh
reggae
##〈
aberrant
limiting
##jk
der
musician
journals
clashes
##isic
reluct
cleaning
phl
hippocamp
moonlight
aggl
warmth
standalone
odor
elector
condemnation
retrieved
##ᆷ
##ttes
##flies
podocyte
appear
17a
distinc
intrig
hysterectomy
sarcasm
cultivars
clown
rama
hepatic
##ycle
##tert
rotation
sloop
##uri
##
delays
paroxysmal
environmentally
fam
spine
center
rbi
commissioner
casper
[unused471]
##tute
pills
##illon
transgene
hpa
kinematic
lysis
saponin
cupboard
cheekbones
decellular
we
femoris
tree
steamboat
incidents
pure
##⋆
##essive
##lke
monolithic
leukaemia
avoiding
s3
tub
wrongly
##akers
subsid
rapidly
flexibility
fourier
anterolateral
##lets
##ographical
backup
appellate
nsc
aggressive
144
microbi
recalcitr
strap
negro
turquoise
suppur
inferring
##asm
subdural
alec
chosen
autumn
hubert
richter
killings
autum
mf
##odopsin
cockpit
##erty
nanosheets
fron
##ysteroid
portugal
preseason
too
membranes
lasts
cassie
narrowing
ly
[unused64]
preschoolers
163
nitrite
##pped
situations
castrated
##g
postsurgical
##ompass
fears
batting
discarded
coats
ads
##ending
elected
heads
nephr
##atures
##oplastin
assumptions
##ogen
[unused144]
workplace
##ர
subsurface
denture
sensorineural
implementation
##ign
clostr
maldives
ht2
##iss
nobles
nanomaterial
topping
paths
pilgrimage
homogene
[unused484]
eluting
lecture
##ght
values
concurrently
##ങ
pae
haw
##ipping
theologians
417
kiev
wilde
asymm
shp
frankie
ios
composting
[unused741]
##土
curt
##eca
marquez
##ization
##en
##eptid
##承
##tish
z
glu
cereb
1777
statue
nucleolar
[unused653]
showtime
##olys
release
dismissal
##diagnosed
burke
coat
chiefly
hollywood
psychedelic
⪍
##eresis
shea
anaheim
thornton
##mx
گ
posth
ankara
vocalists
##onomy
phen
alters
pdt
wetting
intell
##ories
##elast
##electrophoresis
leicester
thighs
suppressing
zhang
adal
misunderstood
[unused765]
travels
foll
remind
ബ
cysts
##ª
寺
embracing
dodged
##ת
hypothal
##alesional
shadows
depolarized
address
sglt2
microm
jakob
pyrid
##uccessful
pws
fingerprint
cleopatra
epi
##lita
stewart
drummond
respectful
ounce
bw
frowning
##rge
##ypti
##trexone
maori
##ike
recombin
##bound
lon
put
570
friendship
ry
samoa
rocco
topical
engages
refrigerator
jugular
##pathic
incom
clenched
##ali
mobilization
fgf
connective
ꭓ
naga
canadians
hadley
unpopular
incoh
nearing
splinter
academie
yes
diabetic
##ela
histopathology
scout
##oxication
##ragm
sexy
ci
[unused874]
hymn
##ayan
tf
werner
glands
simeon
hinted
nigra
##ders
insular
dsc
##suit
sl
jett
popped
wounds
afb
##+)-
lamellae
hematoxylin
infectious
##estr
rigidity
grapevine
piercing
loosely
participation
lion
sacks
##107
dependency
bukit

lactis
successful
[unused768]
##atite
##lington
leyte
[unused453]
##ques
visitor
residue
dielectric
##obutyl
pharynx
revelations
nude
entrapment
moi
fp
jess
cytoskeletal
##erian
pancreatitis
ℂ
mpt
comics
making
shaping
biosens
##erythr
fungus
insisting
micronucleus
c3
endang
tcp
shepard
diminishes
dermatological
swept
nolan
honduras
gabled
##reshold
##02
##ea
erect
bav
fifa
potent
skinned
ee
orn
capsular
multiform
##enzymatic
numbering
planner
##ང
##oci
clin
valentin
##1b
coach
sting
impairing
##ploy
inoculated
##shot
skepticism
sally
phylum
##久
[unused291]
ν
italiana
##omycetes
##comb
antipar
drumming
lakeside
nippon
carcinoma
disposition
actu
tokyo
statues
beings
flo
##od
injury
methylphen
##atitis
militants
okinawa
ɑ
azide
##z
##imating
[unused474]
expelled
##udy
portuguese
##vre
voiced
erythroid
sins
coronaviruses
##ayo
bioequ
##ytic
cyprin
speckle
artistic
noir
oligomers
roe
emt
##produc
##opolymer
##
liability
##sel
rehab
##rana
^
dividing
dyslex
squadrons
deserts
mays
andreas
conserv
rps
maestro
disability
[unused293]
[unused601]
siberia
地
alloys
˫
reductions
胆
vincent
double
turnbull
千
hugely
sync
deafness
##rity
##rod
##alg
softly
clotting
2018
skills
affinity
eastwood
foodborne
somber
##97
explicit
processed
##eres
##gluc
##kk
##虎
stomatal
emil
glob
tenant
sphinx
interne
propylene
⁓
marine
allegiance
polyaden
##etom
[unused436]
hemisph
dre
acetylated
[unused73]
reviews
ibs
horrors
cyl
##aric
salic
##width
elbow
hepatobiliary
##orro
lunar
super
－
lake
##edia
divorced
##健
cobb
comforting
glutamate
npc
retreat
cystatin
##irectional
gideon
breathed
coli
drawings
cardio
##ural
##oys
bengali
ₓ
##ectively
pyrrole
raw264
я
islands
##osperm
single
##ogenous
gentleman
pads
guido
hardy
membr
proteomic
amos
buick
##maker
hydrocephalus
microsphere
transglutaminase
nps
streams
memoir
##offs
##thern
[unused393]
##xed
someone
rudolph
comt
²
rake
enj
##isure
mongolian
nematodes
##vant
##tee
##▽
alumin
bdnf
##ographically
##pod
sweetness
fruiting
lipopolysaccharides
anchored
1741
##istles
[unused370]

anywhere
##izations
cep
clamping
##arded
implants
occasionally
ェ
noses
bayes
eicosapentaenoic
publishes
veter
noncon
##otto
##olecular
victories
divide
1983
cicero
ernest
##sit
overestim
willebrand
afternoon
tingle
##otide
unilateral
homage
synuclein
regulate
##trick
manic
cape
foci
朝
hots
##aval
precipitation
glycosamin
zoster
##amid
romero
stricture
##ʁ
##go
twitch
##adone
##ineral
airlines
gro
hexa
bind
switches
##rial
##umann
recognize
medial
thailand
##apes
snps
rude
[unused285]
britannia
caledonia
intubation
suspension
dyads
inosine
menacing
parvovirus
##ocereb
esther
sultanate
kei
capec
again
pbl
pf
manufacturers
rattle
wb
limb
adriamycin
tissue
contralateral
fluttered
##apine
cytotoxicity
nicholas
centr
biochemical
competition
sleep
≻
##llus
stools
##sham
isomeric
coreg
aquatics
##riage
motorsports
desert
marc
cotrans
avoided
unfit
1903
saunders
seaman
gl
roi
bromide
violating
##k4
##rolases
##capac
##ø
##−
saves
polarization
desk
[unused662]
lyons
mathematician
##hand
bang
##butamol
##mium
57
mitch
chikungunya
ibr
306
edentulous
bowing
##kan
bromocriptine
[unused466]
primate
apheresis
vineyard
employers
nanowire
elsa
nosocomial
##oue
russia
##edema
taurine
[unused62]
stm
s100a
##𝒞
violated
[unused154]
skylar
proves
shay
##aine
freight
##oresistance
##nh
adapted
projected
[unused902]
##91
pres
rely
ߞ
outset
##村
decorative
narr

melan
cultured
##formed
[unused508]
dodge
cts
misfolding
amitr
yamaha
teased
##raf
canceled
posterior
##∪
letterman
hickory
splitting
##cina
##anced
synchronous
depending
4h
[unused268]
##
peace
caus
antit
nairobi
+)](
argentina
1887
regan
deities
refractive
assess
##博
[unused623]
eur
sudan
keeps
adequate
##arins
6a
[unused51]
such
centrally
piez
##astigotes
##tium
[unused316]
colle
mcguire
survivors
residency
trained
perpetr
[unused301]
760
portsmouth
##strom
ricin
moved
##ky
glycoproteins
stigm
underestimation
tal
shorter
##umatic
metabolizing
sophie
ᄅ
polycl
stau
monosacchar
ras
claremont
antiviral
repos
image
reh
metadata
smd
ahead
ʳ
cousin
stormy
boasts
decarbox
defects
hell
transactiv
protege
r1
##rut
discrim
imaginary
##smo
206
micr
##icans
lesley
reagan
##ouring
##appab
crane
##ictal
an
史
atresia
midbrain
133
blond
intersect
##bol
##rica
illic
springsteen
##rac
##vus
##tique
##endoth
regimes
yusuf
##ん
pheochromocytoma
##bon
pia
honourable
deoxyribonucle
matured
fasciitis
protein
##kor
##dus
irradi
contamination
glut1
indications
obstac
⨯
##-
diphosphate
neutralizing
[unused494]
##①
johan
kilobase
biomimetic
reorganized
arach
##ee
##text
ᅩ
systematic
##あ
##amb
autocrine
palsy
##ymm
sing
explicitly
⎺
virul
##uis
cherry
pbdes
dro
sierra
displaced
##∖
kary
##acent
theatrical
exact
antihyp
rihanna
##ntino
rbd
ravi
reviewers
##usor
immunohist
intracerebroventricular
heterozyg
partly
##endothelial
trunk
fis
slides
oviposition
realises
403
credibility
##ator
murmur
lumbar
##roy
submitted
##tock
rye
adds
eyed
inser
sto
cadher
isolate
hepatocarcinogenesis
##sk
##umarin
commuter
##music
elucidated
bolsheviks
dca
sunday
jenna
micropl
ihd
##making
ngos
hams
##mite
diuresis
##herence
bioc
armada
payton
##icking
ril
##ains
##ja
medium
##ssion
hypercalc
cbct
intend
bose
##4b
graveyard
carpet
fruits
brittle
##van
##hosh
outd
(-),
##ammon
cardiomyocytes
monol
##82
jens
lps
interlude
pi3
dimension
interpret
##azine
phenology
speedway
##水
##oparas
workers
>
##pps
branch
burst
consumed
##っ
仁
白
hac
atlantic
rece
eager
422
scholastic
tob
bellowed
deconv
hicks
rosewood
katrina
gyn
##king
mortar
##ussis
norton
##atil
agonists
daryl
sack
denise
cat
transporters
##yria
##zhi
ejected
[unused83]
johnny
helm
heaven
##arabine
nafld
wt
##erin
⬄
decision
upbringing
operated
[unused795]
##46
spotting
ice
##ol
getting
codon
##uga
peter
christchurch
taekwondo
enhanc
behaviors
interferences
securely
unequal
##transferase
administrator
havana
sprinter
##akary
admissions
deficient
jumper
retroper
preserv
pos
##᾿
##oviruses
nailed
##ude
minors
endeavors
bifidobacterium
chaperone
haunted
foul
ahl
221
##f
arrhythmogenic
##ohyd
nicotin
enjoyed
pericarditis
homemade
clark
##ச
##gie
sgc
reuse
crimean
##
keratoconus
swiss
s
vmax
##jhl
footpr
orchestral
aftermath
##uronium
barangay
amphib
sleek
discom
##was
phys
tracked
detrimental
##eki
highl
cheated
##沢
overshadowed
intu
contexts
alicia
𝚿
##rophic
mabel
surv
hypoxanthine
overlying
electroporation
##ographs
##uttered
devast
hemangiomas
[unused150]
crank
ᄏ
commonwealth
multicultural
plac
dimensionality
麦
stacey
##oidy
substantial
batter
sophia
##⪆
meath
preincubation
jubilee
schistosoma
ebook
147
logistical
moods
tributaries
ets
nfk
magic
rifles
pick
constructs
##uer
auf
##olia
##time
mbe
##eli
gunter
humour
##ilar
##fect
##uw
wigan
1909
docking
undeveloped
mdx
##ⅹ
astigmatism
[unused283]
##stems
স
##lating
##onym
countermeas
blaine
femor
dobson
[unused401]
dendrites
ferment
microch
elegans
##方
1632
##ponsive
salty
multifactor
₹
oz
##∙
micropartic
wilkes
fowler
##tance
colin
micellar
prein
sega
buckingham
slant
asymmetry
supernatural
punish
stuttgart
kissed
##nese
p50
dissatisfied
prediab
neighborhoods
shower
knocked
olympic
gonzalez
broadcasting
choral
##hora
##cier
inr
wd
flowing
vaulted
##tructural
pfas
##cek
##nche
##—
legendary
biop
humerus
sichuan
anthracycline
ken
plat
mcs
##sari
gasped
viruses
taught
infarc
」
risk
batman
##oxal
##3d
nfl
leveraging
##ent
veterinarians
文
gospel
james
separated
₆
say
##506
##ux
credible
analytic
gradi
janice
fraud
􀏐
成
jennie
hps
##writing
ironic
calp
synthesis
##ohyp
(+)
##ader
harp
##tise
##ze
anesthetized
fluorescein
structuring
poznan
sizes
cam
pounds
intrinsic
appl
খ
fsh
endonuclease
ʃ
active
hurdles
##ymic
[unused840]
##aggreg
106
r
##odes
hrp
')
foods
2019
fontana
flare
hapoel
##з
##ositi
ttp
welded
packaging
ɮ
incompatibility
seen
##nn
ferrari
surveyed
coop
creativity
rrna
[unused683]
sunshine
nex
readers
prolyl
##ski
kant
woken
army
##ふ
phthalate
coyote
emerald
bacteriological
aud
hypothesis
missy
lump
ovary
jace
coag
mer
∧
unmarked
popular
shrinking
honored
mood
fals
brows
corp
anniversary
secretly
widening
defend
novelty
##на
hormones
##irc
introg
rivalry
escorts
musicians
[unused678]
budes
##pore
sulfide
why
promotion
1d
anthropological
hero
at
##iface
##chia
∥
##otid
dash
bubble
##dro
##obs
foreword
##ا
শ
fredrik
wanting
1708
##wen
tonga
##quay
thp
clicks
efflux

##obr
87
hopeful
sis
lot
mn
##nig
fitzpatrick
orchestras
crabs
anch
##af
empowerment
∖
##electro
##riam
dyed
##xr
[unused578]
roll
haryana
##wood
blindness
swe
nk
airfields
constit
od
protection
pendleton
ecz
mildly
##urgent
gorgeous
responsive
tenofovir
outfielder
undergraduate
packed
##nical
tanker
divers
##uch
##ynchronization
sms
##ส
##尚
darkly
recurrence
toledo
suppress
solitary
grassroots
##liga
lang
hematoma
##othing
catheterization
##ogly
content
inequality
triglycerides
galactosidase
taxes
madrid
calculus
harvesting
quadrup
gabe
kosovo
dere
glassy
##children
thrombosp
contrib
##iatric
beads
hcv
singly
bearded
##fusion
##osomes
##keys
globus
additionally
aneuploidy
foreigners
narrowed
miniaturized
##ysaccharides
hudson
federer
##uncture
penis
flip
aminolev
##eka
borrow
polk
##⇓
radiation
perforated
27
savings
jp
victor
mptp
monster
laude
fibres
salmon
24th
##府
madras
craven
flash
jammed
shielded
routines
volunt
##rred
phenanthroline
##জ
provisional
senators
hints
emphys
®
grunt
ホ
pgr
bearing
haitian
barrister
##gas
multidetector
frog
recent
reigned
saturable
pollination
rubbed
neutron
synovitis
##birth
correctional
russ
genistein
##aginous
estim
digestib
nearer
hindlimb
granted
##ifn
sparing
##lovic
##ouse
threshold
trolley
stent
karin
wing
damages
masking
myoblasts
15n
##inflammatory
deliberately
##eps
intractable
##rating
unamb
fabian
##³
##bala
cooperatively
太
angiosperm
unbelievable
##elian
gentle
##ab
sanctuary
sensual
label
subway
haptic
##astic
##c2
ribosomes
[unused353]
hospitalization
neuroscience
157
saddam
##tted
##luor
vista
carts
##asth
hurrying
remarkably
彳
courthouse
sweatshirt
figured
tales
composers
##oxyl
##tress
##○
nemesis
atomistic
cisco
subscription
unansw
##oadjuvant
accomplished
##pressive
byzantine
antigenic
stx
catholic
finale
reacting
sativ
protonated
nsp
santo
relief
concerning
juven
##ハ
357
cdk5
##mous
conidia
diptera
ghent
bandits
machine
[unused81]
##iors
readmissions
courtship
##lav
atyp
kits
##lika
covered
supplementation
chitinase
bends
wooded
recanal
cir
##oons
perimeter
infrequently
uptown
adhesives
##arine
dissatisfaction
typically
河
pombe
cooks
##aluable
accel
veh
bromocr
metres
##cky
##ogastric
177
##ich
scavenger
##糹
intrath
inherited
hgf
262
ancient
antiplatelet
-
died
brachial
lobe
insist
minimally
ᴐ
employee
##grass
##yman
zhu
nat
howell
caller
660
comet
gon
stiff
guadalajara
[unused222]
pinyin
##church
##pon
kicks
ntp
bangladeshi
regimens
vera
glover
வ
bash
##vere
##amus
oct4
mercenaries
{
rectif
dendrimer
##dley
dynam
overseas
phyto
informatics
steward
##rup
barely
##chemical
hydrolases
⁠
ד
##np
pud
ﾀ
##2c
##ethanol
rectang
##𝐷
organizer
subsidiary
fst
chieftain
pouch
remembering
##yon
disturb
peek
stemmed
##apenem
athena
terrifying
##n1
dawn
u87
lunch
zo
ovulatory
##rella
viceroy
menstr
phenyl
##bourne
70th
unprot
##other
forehead
jamaican
##ron
hyperspectral
inhal
tri
commemorated
autoimmunity
icons
brady
humphrey
alum
excited
##missible
ug
##oscope
preserves
atax
zealand
artifact
lyn
##hep
clp
##ecutive
summarizing
256
harms
fights
cervix
mk
performs
amorph
prosocial
忠
正
ck
silenced
americans
##yam
##foot
alcoholism
advanc
glamorgan
stamp
gd
ige
##arsh
cynomol
luxury
##mora
campyl
presidents
animal
rasped
paa
##pyrrol
##ulmonary
##ocor
virg
mines
anticipating
massive
##asion
##‎
beta3
polyprotein
gemc
hutton
shed
affairs
orson
diver
hydroneph
glutamatergic
[unused645]
##ener
elliott
mobile
475
spared
denounced
injur
feedback
ugly
##oplasm
inacc
macroscopic
imbal
pgd
beaver
details
mistakes
##chenko
mathematical
թ
##ubation
##ensburg
uplc
plantations
bulldogs
cochran
reciproc
azath
bryn
localize
dominating
endocytic
bum
##lin
thyroidectomy
thereafter
##wh
vom
wish
##renorphine
##bryonic
143
plasmac
implant
##rily
whisper
niacin
hsps
[unused668]
帝
##agnetic
##mbo
infarcted
internal
holder
pits
⁻
龍
##enom
microdiss
rammed
intramedullary
riff
##ohydrolase
conclusion
˭
##rations
calais
##ospermia
mythological
mismatched
psd
mons
",
sz
australians
cove
constituting
##uded
##tern
##mont
##red
meaningless
##ophageal
##sford
##7a
treadm
##rti
dopamine
##fig
tumours
examples
adolph
internalized
##ان
arenas
wise
huts
logarithmic
immunol
dressing
nadia
hai
warwick
hbo
each
magnate
##信
multinucle
cutoff
##sms
[unused455]
polymerase
ス
sudbury
fasc
##logram
demethyl
fviii
submic
simplex
soto
knee
##otonic
heterozygosity
##eng
subsided
paralog
endocytosis
gee
¸
triglyceride
rolf
plexus
burden
autoantib
garnered
-.
⦁
##omide
##ardiac
om
unearthed
01
cards
positioning
choledoch
46th
stark
urethral
##idity
1812
adolesc
aeration
##rton
##odystrophy
tn
translates
susquehanna
wesleyan
%/
[unused498]
jennifer
##tisone
plasmon
invented
scrap
freedom
onc
シ
##zek
➙
nam
popcorn
##glyc
fresco
photographer
organisations
eds
added
predators
trey
school
homecoming
polymerases
##rba
herit
##50
ot
agron
yl
sinai
צ
restenosis
parv
proportions
1823
associated
##cross
##ｖ
determining
##mology
disgust
agglutination
mantle
##ogn
##∥
stat5
redeveloped
##typic
chihuahua
shredded
cochrane
fringe
tao
##ctive
recipe
attempts
dime
bombers
dam
ignacio
daily
dictyost
mpp
unaccept
##bed
rb1
##igenin
lashes
impatience
tiffany
##arby
182
⍦
architect
negligible
stephen
##eche
##ota
interobserver
cess
perc
##bag
[unused113]
pollen
necessary
##em
times
bulk
hydrolysates
trunks
##obulin
replen
polarized
acquainted
glucopyran
interface
quantitation
loch
cephalospor
rockets
monozyg
carboxylic
##agh
compartmentalization
cg
##vc
##ets
ef
controlling
refolding
char
##tters
keeper
omar
wickets
ethn
feeding
moist
##lide
evalu
tga
##x3
challeng
##﹥
includes
research
[unused173]
adrenalectomy
cystic
compiling
advancement
confront
abnorm
breathless
deer
clath
mcmahon
recognizable
meteor
mistaken
believed
##ounted
##planned
generating
optical
crook
polyamines
happier
[unused9]
sodium
averaging
ɯ
##zow
disagreements
downloads
stimulated
##peration
cai
holiness
pageant
##edance
o
##④
##redo
hezbollah
serious
cd15
650
coordinates
[unused808]
mesang
##phobia
offenses
filmed
evoked
launching
utopia
##ﬁ
congregation
cents
immunomodulation
copep
##ptic
meridian
##17
classify
phyt
carpal
ultra
##ana
demi
dioxide
retroviruses
##anged
##c
britain
phenotype
##tta
aerodynamic
antitr
filtration
interfacial
scrutin
organist
##iesc
##alact
aperture
preview
##raine
##sell
##ћ
depleting
km
##xt
##uber
parenchym
451
violinist
causal
##nya
enhancer
bioreact
dispute
lymphoma
parenteral
voyages
cann
osteoblastic
norwich
interleukin
patriot
asi
incurable
302
osteoclasts
hyperplasia
thorough
##osidase
tendons
myeloproliferative
turbine
indy
##।
unused
rfl
hyperint
[unused284]
cotton
##oscopy
hamiltonian
[unused35]
##ospora
lymphoproliferative
compuls
galectin
##olis
camped
amylase
slowly
glauc
susannah
[unused14]
##ary
knots
sellers
bambo
)(+)
psa
chlorhex
wanna
exerts
decompensated
podium
pegylated
nons
spite
##ounced
dnas
optimum
##amins
vene
thor
##nham
theodor
subtly
wimbledon
anything
oxygenase
restoration
##enstrual
29
addition
##llary
hires
grenades
bap
serialized
5a
reno
##onate
affinities
challenging
conjugated
understudied
welcoming
あ
schubert
crippled
谷
slow
downstairs
420
casein
methicillin
allocated
##pre
coeliac
bc
valle
##№
observations
prototypes
australia
##ffle
288
standardization
kelly
touchdowns
abolitionist
fvc
comic
ap
peninsular
quadrant
epigastric
surname
prelude
1611
purine
precancerous
regard
##ratic
businesses
pathways
angioplasty
hyperlipidemia
resembled
psychophys
locoregional
bip
representing
karachi
napier
##copic
spermat
lutein
noneth
stays
academies
constantin
automotive
reopened
labile
asymmetrical
tensions
unnamed
##olamine
moscow
[unused841]
dive
buzzed
recipes
quaternary
##cked
predecessors
oyster
partition
transformation
va
deliver
##vao
##wife
gef
##uled
##uses
indicate
##finder
ribavirin
paranoid
aversion
𝑆
nostalgia
grapev
##mble
separates
##千
loose
1beta
sln
##tees
ncam
##turn
harvested
##iasis
sail
mics
photob
stair
##lk
[unused754]
embryonal
luteum
exud
unconscious
##r1
shave
eating
filter
strained
contraception
dysmorphic
##г
neocortical
łodz
##acin
conway
flux
sagittal
##atib
griffith
lec
tampon
galaxies
aspects
##aterial
1951
structured
[unused550]
himalayas
vicinity
[unused716]
cosmetics
mul
abrams
fractional
##omet
sixteenth
rq
myocytes
bloom
##eal
levant
dysreg
atriov
reactivation
[unused378]
crani
shear
nicknamed
antihypertensive
talk
##nard
incarcerated
holy
insecticidal
ɀ
domains
tio2
allopurinol
prokaryotic
afraid
battleship
す
subdued
modulating
subgroups
##ᵗ
person
ふ
cpd
##oglycan
carbonyl
##yin
bradley
shenzhen
##ensable
polypharm
moments
streptomyces
diethyl
transiently
⺼
##lein
##sche
##borg
##transfer
epigallocatechin
##logie
kcl
underlying
madman
life
lipoproteins
##ella
cholest
pablo
resides
endarterectomy
unal
traverse
##insically
##ispers
lentivirus
##amethasone
muir
concession
amelior
ร
kh
entering
broken
##xs
phosphoprotein
##ities
blockers
indwelling
armies
##nan
mahmud
enterica
frankish
papillae
##idene
##¬
##otom
gruff
##う
greenland
ng
diastolic
guideline
tfp
##meyer
##oxon
microvessels
##mt
##lter
##asties
cord
##ividual
penned
malabsorption
anytime
estrogenic
cig
pacific
pew
##df
troponin
##wny
qualify
exaggerated
ⅲ
bart
battista
advance
phthal
opening
transgenic
humming
ported
attracted
fow
confidently
absolute
prolactin
[unused396]
infertile
protest
greeted
objections
##cise
affecting
##օ
tka
calmodulin
neurotrans
##anolol
sails
annot
metamorphosis
bands
##anth
rewarding
[unused216]
mortality
##ullin
##san
polish
dx
roach
subdivided
##λ
pup
experiences
##lund
pedigrees
##青
caressing
##は
applause
federico
seeds
labourers
##vington
kira
##ific
prote
##udin
proposed
nogo
realities
motor
poured
festival
##ohepatitis
microb
interv
stocks
owed
##osupp
japonicum
##ⓒ
[unused457]
cancellous
backward
decca
biology
##thalmitis
##stan
greeks
##み
##ys
archaeological
seminal
steatosis
govt
##unds
spruce
barb
##ops
elaborated
kaye
rose
freelance
patted
σ
##御
said
workforce
templar
ewing
ɵ
c9
##ections
[unused677]
##rin
atherosclerotic
incon
celebrations
illumina
glutamyl
hypophosph
historical
excipients
time
##ensities
##isms
venice
##cturing
jaime
scattering
##|
molars
＜
contribution
hel
##cans
soul
propaganda
purcell
microplastics
few
##mine
volum
southend
##itous
&
[unused513]
mazda
painter
##hma
ependym
soaking
##fication
catholicism
intimacy
##antit
##101
tasked
aristocratic
##firmed
mushrooms
##g1
faux
##ocele
##ietic
carnitine
##azone
nonsense
identify
1940s
welterweight
basophils
ᆬ
leaning
dentures
##ᐰ
1910s
railways
1634
arthroplasty
negotiation
unlab
##globulin
##cter
##alc
provides
##oidosis
##otting
##pic
quartet
thunder
hc
##draw
boots
ripley
##rolif
searing
manhattan
unanimous
maj
baird
yeshiva
hosting
enc
appalachian
##zic
##opancre
biog
underpinnings
riverside
brutally
trajector
##tat
net
writ
##‬
##pol
chromosomal
posthumous
##ysts
catecholamines
##zano
benzodiazepine
##tebr
archdiocese
mora
bobby
lodge
spielberg
hovered
##licted
styling
sidewalk
carboxy
156
irrelevant
##romonas
obstacle
allison
##d
slabs
chattanooga
reversible
valproic
##riting
##ப
drain
franks
malay
determinations
ʀ
redesigned
populace
##
footprint
##opid
mtor
##8a
##hoe
sene
fulfilled
⊖
acth
circumstances
simultaneous
phc
slumped
##fused
customer
hopping
##rough
stony
howl
##onv
analogy
reversing
ecm
denaturation
pwv
##kata
##icum
£100
beaten
##ocardial
##treatment
##apillary
##ylene
nikola
prun
negotiated
cca
ceremony
monterrey
pour
##ora
ciliary
imidazole
##orage
##ocally
newcomer
fission
helmet
lambert
threaded
linker
twain
##ded
gs
##bic
vel
subj
diagr
myocardial
##tti
pastor
coordinate
brat
ards
##osteal
dihydrox
prac
pharmacophore
adolf
##cta
accused
apostle
algal
deem
titer
coil
ballots
acin
andrey
noise
hulk
pretend
##下
oxidant
muss
regis
toby
clouded
า
##sities
160
weeping
expects
source
islanders
dioxygenase
sensitivity
pathway
jason
squares
mentioning
modern
##efin
##lish
##cles
duc
mdd
quad
sensorimotor
mdck
##pit
parcels
##usively
##onsin
publ
erika
##tec
phagocytes
judy
xx
incapable
richest
childless
earnest
concepts
295
##iente
swift
##scu
##istration
biodistribution
##kley
dow
##oi
num
c2
casimir
1939
foam
salam
shortening
monks
glun
herman
##yly
##tucket
contributions
fiddle
aza
1971
neuropath
ota
dyslipidemia
replacing
outdoors
mania
##rita
##actiae
hindwings
items
##rex
##24
paces
gb
fates
royale
##sson
##var
##cat
tame
thousands
jang
1862
drops
##ⱪ
habits
continuing
rhodopsin
pyramid
phenanth
hurst
shell
kari
##gnant
##iles
lamb
html
restores
regeneration
organelles
##urans
t6
prophets
##ן
conservatory
antony
cans
merlin
tss
##ₕ
bowman
adjunc
##≳
malond
[unused780]
wasps
𝛹
##ochromatosis
host
##flurane
defender
##fide
real
▵
reins
coumarin
nothin
平
##iers
##oco
energetically
insurgents
cycling
duodenal
achievements
cigarette
##96
##ₑ
ann
nods
ert
ѱ
blazing
parcel
##meter
##zuki
fae
##stick
##μg
##bler
##itrite
arnold
desperate
nile
knowing
lat
mitigate
##dun
##uspid
ionophore
+,
1968
gillian
staging
laev
petitioned
f
adver
##sey
##ancies
[unused464]
chin
gk
##oencephalopathy
novelist
##inoid
alarming
##γ
electronically
contagious
caroline
##xie
##har
theme
gentamicin
##entanil
caspases
while
westfield
##pharm
dialed
##朝
##oretin
mp
battalions
ｾ
assign
[unused535]
karl
aga
diast
suspended
grossed
##ck
##litaxel
tents
##∊
hypertriglyceridemia
##dition
boca
augments
render
sentin
recipient
mif
analgesia
specify
##zam
1622
[unused661]
glowed
flaming
badger
survived
1795
##eza
relativity
uc
dublin
prevented
fragmented
[unused615]
alcohol
kong
postpartum
key
##game
##ome
##d6
previously
overboard
tmem
[unused178]
##inted
proviral
telangiectasia
resembles
##waite
##ofacial
orofacial
instantaneous
langdon
##opa
1883
##ternal
##ocyt
practical
artifacts
stochastic
bahrain
fight
unsuccessful
profession
oxid
woodlands
stood
photophysical
enzyme
gdm
woke
##itans
##ddy
negl
##diagnosis
rhodium
inscribed
##ʻ
kettle
forbes
##enchymal
##aman
floral
##erus
regularly
1990
marital
##advant
##pper
trp
##con
maurice
##zyme
##top
professor
bodily
relegated
combines
antifer
nucleus
amir
fargo
qsar
dwell
amd
##dora
inappropriate
emerging
usable
hepat
wishes
robyn
harvey
staphylococcal
frazier
##abilities
kf
1923
cholesterol
microarray
##ectivities
seizing
skins
flanked
cancers
fps
nave
dual
##ophore
⁡
[unused22]
##空
resume
##ody
silyl
heather
sorting
う
latino
clemens
subtil
1642
＊
##kel
gonadotropins
lashed
perspectives
qualit
remote
##⪝
##nent
rifamp
louvre
blah
solute
cab
walled
leon
♦
tulane
eastern
##omotor
efficiencies
sharpened
sclerosis
apply
ccr
counts
moses
##oa
application
[unused230]
jingle
ascertain
stabilized
∝
nomenclature
heritability
noncl
imperialism
towns
plague
superhero
mimi
dopaminergic
special
proteasomal
620
immunohistochemical
prohib
mana
darren
##rest
stored
wedding
##ena
aplasia
coxs
mia
##夏
triaz
##pos
##ə
##qa
mycorrhizal
stalking
science
bifurc
jolly
patterned
contempor
else
looted
prodrug
174
persists
semiquantitative
[unused885]
p27
gangster
lord
##odyst
##tooth
actors
horror
lagoon
liquid
##eria
cartoonist
susie
[unused809]
volunteer
npcs
subpopulations
##gal
hypotonic
dyke
##pus
##lake
messiah
downregulating
match
scholarships
swap
dvd
published
nervosa
virtues
##amine
##76
optimized
baff
efs
takeoff
annealing
ggt
copyr
國
glucoside
baxter
immunohistochemically
##pour
explant
possibilities
expert
upd
##pate
knot
ᵢ
orderly
##osens
uniqu
ngo
hearings
[unused383]
immune
mono
pba
flud
##rid
[unused276]
##ectiveness
##entre
fv
##≥
house
antitub
ɣ
ᅲ
unified
climate
stream
espionage
exemption
historian
thoroughly
taxation
angiot
probability
##urg
yank
compressor
##azep
pandemic
ndv
negotiate
ح
pivotal
1605
orbit
##etal
subch
1918
carriers
waterloo
##astics
albuminuria
法

quantit
##տ
##osum
assigned
191
currie
herzegovina
excerpts
december
strongest
instit
##ares
paralympic
putamen
multipl
##eph
registered
abandon
[unused288]
recapit
formulas
cambodia
anemia
crisp
##nv
bmt
exeter
connell
williams
[unused148]
bronchus
increments
phosphate
##hexyl
supervised
always
delaware
furosemide
##orum
independently
##ralpha
thereof
taiwanese
stupidity
extend
supercapac

rumored
modul
qualitatively
##nia
georges
regatta
sudden
##inc
##sser
[unused130]
ai
efficacious
misfolded
estuary
booker
prolong
scarf
##rong
urged
2h
eastenders
mickey
pulses
83
##ination
thoracoscopic
##crat
##ssler
scoring
##iazep
##lie
nh
ljubljana
terrain
calcitonin
radcliffe
preoperatively
jeep
matteo
crew
##yo
aminoglycosides
pesticides
##plasia
postdoctoral
royalties
cooperate
lau
cigar
racism
##␣
scrambling
##bine
##tate
interrupting
nonne
specialist
bioinformatic
language
##ile
unid
##oder
delicate
righteous
##amma
optimise
tpr
jealous
ejection
cloned
##kl
vasopressin
enclave
revealing
##ension
ט
sick
##li
##ض
wide
lepidoptera
persistence
zombies
de
##郎
##rith
neville
bronchial
ε
cyclones
ய
hcm
ク
legend
intervened
gcs
[unused444]
sutra
embark
talented
dihydroxyvitamin
iri
st
ル
orientation
narrator
##robial
destroyed
##rata
spondylitis
expected
##yn
monterey
downreg
nephron
##ʿ
gelation
palmitate
##puri
##热
callie
area
##長
##elastic
sword
declaring
athens
meristem
amc
scroll
yersinia
○
##roc
competence
pitfall
pahs
hidden
ecole
heterotrophic
##osensory
burkholderia
openly
surfer
##vie
lpr
dry
##cup
cecal
##ต
grape
cost
##lena
explode
##ണ
##aeus
##¢
##tase
ace2
sers
aiming
squealed
deficit
il6
##cated
spencer
##opsis
nitrification
epic
robbins
epileptiform
pylori
quadric
maintain
backed
gerry
##isch
supp
theore
wandered
fairy
jobs
treatments
[unused255]
humboldt
archaeologists
##nock
defected
pietro
flowering
learns
##odilution
visionary
fractionated
concordance
transformants
##aviruses
resis
ringer
ectoderm
lca
backseat
europ
desaturation
recommendation
##33
jeopardy
pand
##oprotection
washout
lettering
uniquely
synch
𝛇
corsica
##ps
##cycle
ringo
base
sweeps
##l
pufa
entrop
immunoperoxidase
rhyme
responsibility
##igm
splanch
adultery
broth
##aia
sim
osa
burma
##enger
worksh
yorkshire
##ucci
bh
owns
estimation
clans
##mental
knicks
myotub
cheat
##electronic
mccall
revers
morales
dtpa
blossoms
eaton
alongside
aid
73
)
investigators
##phosph
##icc
##vite
􀀀
dyspnea
biomark
emitting
smarter
pector
##open
napoli
➤
badly
intrathecal
##ellum
graceful
phenomenological
fangs
clemson
floats
##tification
derivatized
##hari
##quent
##uram
torque
authored
attractiv
cornered
##more
##ttle
jasmon
localised
manage
bilingual
##事
##ല
##witz
zwitterionic
##ﬂ
##kus
impact
[unused577]
porphyrins
##■
discriminatory
process
afp
gig
urtic
formyl
adipocyte
proteome
cheers
pianist
raf
pancreas
vito
79
##nne
baths
sanitation
package
##ofuran
tsar
##aking
correspondingly
gabby
theil
1860s
ᵧ
jurisprudence
staurosporine
jerry
##ame
##cens
importantly
##alcoholic
lepr
##州
morbidities
##mg
##idus
ashton
significance
kathryn
strictly
£2
##romes
##or
witnesses
sleeve
jonny
hypertriglycerid
[unused331]
thames
porte
paradoxical
##ibration
barton
couples
crates
nanoparticles
##ters
neur
coordination
lessons
luteinizing
wellington
cooling
heuristic
hpv16
bullous
closeness
salivary
oscillatory
lay
crooked
adhes
usc
tog
gaps
##iq
[unused759]
transmission
parting
western
lati
##brook
notions
gonorrhoeae
proteas
arise
updating
stink
splenectomy
duel
invertebrate
electromyography
weekend
discontent
lacked
vacant
##ത
empy
##nting
hyg
bacteroides
dolls
hem
神
1926
arrays
eimeria
elvis
##ures
microv
##atory
group
toronto
earlier
mgl
bisphosphate
##ardial
ট
crambidae
tsh
tetanus
filmmaking
geriatric
etiologies
cytidine
psychos
##adren
horizons
directive
tcdd
davenport
enantiomers
[unused531]
luzon
##inis
connection
impacts
l6
phox
cage
potentially
##onasal
lvad
##int
##omat
##bain
truman
fletcher
jews
mainz
ready
217
ribosome
merits
deals
1967
statistical
fence
##ე
encompassing
##rland
newbury
metoprolol
₄
barrie
##gnan
progenitor
李
shivering
##phenyl
immunomod
showcase
arts
teaches
？
1667
##rons
##王
dilemma
takes
##pop
compulsion
##unes
bastion
##xing
doubles
acetylcholine
vic
finally
quentin
blade
dream
##epsia
localized
called
eth
##relation
endometrium
195
##timulated
processor
司
incredible
shipment
obsidian
parth
labyrinth
##湿
norwegian
wait
candidiasis
disapproval
pcl
croft
##analytical
enucleation
sandwiches
vents
velocity
##culture
bureaucracy
monolith
ashe
##补
##stown
requested
orr
fibr
undefined
catalys
##kota
ever
attractions
dcd
neurology
##ifera
扌
ero
isotherms
##tonic
eclipse
anticoagulant
##urea
aggressiveness
nephritis
nab
lagged
##unce
gr
##floxacin
[unused107]
angioedema
gorge
custer
spt
nwa
##omod
1769
maritime
aptamers
[unused176]
sheath
wistar
inmates
carboxylate
referencing
dreams
##187
##dden
italy
violation
bicuc
ryu
embarrassing
reddish
hunts
1879
dbs
%,
amounted
##awan
albany
battalion
radiologist
discer
charcoal
##acid
fidelity
ɝ
##roi
mvp
summarized
swat
scat
##ϵ
crick
hand
splic
##erh
joel
##iom
hemat
particular
##sha
pellucid
infest
##kyu
##cock
gymn
glaring
translocated
kidd
businessman
##ado
quoti
##emi
hydrogels
preparation
rouse
hercules
##tition
lyrics
dobutamine
gray
##'
hyperplastic
costa
##opoly
carbamate
extinct
endoc
compartments
indolent
clues
##centr
cesar
factories
vpa
patency
apigenin
1695
wainwright
ips
ensign
cnn
invasions
pegasus
emails
unreasonable
spor
##≙
probe
##
##aments
pnp
autobiographical
spacing
##atinib
firth
regional
voss
##ucible
compete
enterocol
belly
electroretin
georgetown
##ensis
contracted
##fall
##param
reinforcements
services
241
##glio
airplanes
tapped
vet
asparagine
stick
cont
barbara
inhibitory
partridge
nodal
c7
profound
##omy
##忠
##ˑ
waterway
⪅
##gamma
rahman
##iere
wounded
aqp
ahmed
microorganism
##ativity
celia
##alently
marquette
##ache
sponsoring
##acum
cholester
reconstruction
ek
impeded
entom
burton
tender
fellowships
cun
fentanyl
ces
戸
founded
pantheon
岡
pge1
##anal
veterinary
bubbles
##version
riots
##evsky
##chio
achievement
dermatology
##omyc
unhealth
flawed
##ovi
accounted
spiking
rf
compromise
anticip
luck
1880s
sewing
frail
##antib
trafford
陽
tae
##region
redhead
𝕀
##mack
debra
crucially
ses
iroquois
[unused777]
delivered
##odi
neurotransmission
arte
vicky
ant
retribution
inducing
invitation
triumph
##oradi
ceiling
plantar
toilets
bigger
##sdale
whipping
priority
##റ
thermo
##ctus
phenomenon
)-(
microsomes
fine
cerebellar
transistor
##ondin
saul
correctly
depression
##⅜
nn
limbs
pete
adg
ceftriax
##ott
sees
motives
competitor
scientology
##asic
inad
fev
mirage
κb
iqr
##interp
[unused90]
caused
prefecture
##enem
osteopontin
##ajan
quarrel
##rosarcoma
[unused475]
flickering
##ნ
cardiolipin
##dy
wt1
claudication
tum
pathophys
champ
##olve
philosophy
##tiles
nucleocaps
##aneous
tortured
bayesian
parasitic
angus
⎔
opportun
kat
gc
⅝
joachim
coerc
uncomfortable
highlighting
≍
offended
felipe
hypercholesterolemia
constrain
notch1
tiled
encephalitis
[unused682]
islamabad
205
hydroxyl
##bc
retrograde
##term
aph
##thrombotic
##alin
athletic
##si
002
methyltransferase
androgenic
##pecific
tucked
mirrored
peri
tears
1803
suicidality
recovery
visibly
desirable
##rote
dmf
bmg
tatiana
covers
四
##ᴏ
undertaken
cullen
andrei
marm
##uno
triplet
allop
##ectivity
っ
bend
##₅
amalgamated
kcal
posttreatment
ritchie
undertaker
##芎
ray
glycoprotein
indisp
##id
botswana
学
."
##pox
haemolytic
leroy
cd5
##clave
dinners
vaccination
##ba
+)
[unused404]
##ignment
pilgrim
[unused903]
flopped
##weather
弘
catenin
##worth
##ʧ
nucleoprotein
neurogenic
pioglitazone
mathematics
palma
theater
##lass
##iffusion
transvaginal
[unused155]
fellowship
barnes
finance
azithromycin
repairs
croc
squal
antigen
liner
pulling
approxim
diol
pgp
andhra
landowners
eyel
scandinavia
natriuretic
##gene
cdi
coactivator
fractured
）
##au
metacritic
southbound
suggested
reagent
irradiance
macaque
endocannab
inward
thin
cnv
dth
##diment
exile
bovis
wild
impress
surprises
##ailing
～
##wan
##˙
crowding
neumann
##hak
inpatients
##ɹ
dangling
jays
voluntarily
leukoencephalopathy
##lyc
[unused690]
##ements
trophies
partisans
resulting
colonies
evade
motiv
observers
nitride
##electrical
fbs
##⊆
atl
ticking
fines
425
[unused308]
##ocryst
incorporates
unt
##׀
icy
##irr
urges
##ฟ
unexplained
overrun
blots
nanog
escalation
consonants
support
silk
temperance
##ocal
sports
level
farther
enemies
adenosine
asha
photosensitiz
sanctions
[unused478]
teamed
##rolithiasis
710
sacral
equator
vp2
outgoing
subst
##rowning
adipogenesis
eddie
communic
travis
##ptive
bhp
batch
monotherapy
ortiz
pcna
##kari
trisomy
monod
bending
prix
norma
allergenic
recognition
##apopt
interestingly
nect
257
efficac
##igs
##sibility
monuments
##ogl
##ass
mps
polyketide
pooling
dignity
utilization
12p
dhfr
cleft
southwest
mpl
admix
digestion
##xine
pops
decreases
##rer
microgravity
phosphorus
quick
dynein
##ias
friars
volga
cftr
selling
##ffer
pu
disappointing
##olization
concentrate
jackson
ഴ
designers
goodwill
adulter
etanercept
ⅳ
puff
harvest
corneum
##iser
freshman
illustrated
##eness
clot
deny
americ
ccr2
might
ashes
expectation
self
##opodia
besides
##℃
sig
bared
persuade
##cious
##△
bitterness
neurologic
tetrahydro
##ctric
innsbruck
firm
contacts

##apsular
expanded
rg
kap
acids
[unused890]
[unused329]
##ᆸ
subspecial
panama
memorial
algorithms
skf
visited
nonsteroidal
�
ias
stared
hesitation
##ன
##ped
hash
both
kanamycin
omaha
##encies
jaenelle
aut
onward
likewise
brushing
irvine
suppliers
##こ
compaction
venezuel
depth
##dre
queensland
##oph
leptosp
##tangle
microcirculatory
precise
##asaki
rudy
1861
isothermal
bao
renovations
databases
##marks
truths
ᄐ
elephant
layla
2010
historians
##meth
##romagnetic
[unused60]
test
ppp
joanna
escorting
thieves
thirds
##under
standardized
reconciled
cdk2
##rell
unmanned
postseason
tools
vaccines
('
pave
##rees
volc
all
hematopoiesis
##ced
bleaching
hyperoxia
metallothionein
overload
term
casts
overt
[unused93]
##dens
##zquez
##原
relig
island
primates
peeling
creating
hereditary
tension
fridays
commandant
asher
anchoring
hardened
losing
expressway
exchanger
##herent
ica
##ulating
turtles
##absorption
)[
exchequer
wolbachia
007
residing
reinst
subjected
##wc
proliferator
townships
3a
torch
bargaining
warren
dism
alveolar
collaborated
##genase
lions
abigail
##uing
classically
##orptive
##ŋ
turf
pardon
ghrelin
loses
soleus
caracas
facilitators
dusk
relatedness
ned
##ional
fronto
enlisted
flask
##rine
cxcr4
rfa
ment
procoag
oath
resected
stump
hyperpar
##pel
54
smoking
belief
stockholm
orphan
wasted
alfonso
gynecological
nominally
playfully
curcumin
##eva
flemish
[unused979]
##isto
thorns
##ophy
unmistakable
meropenem
##thr
font
##
regulars
jenkins
insecurity
assigns
topological
validation
##nna
##burgh
salamanca
##nds
∽
picturesque
undergone
##otrypsin
##gan
uss
supramolecular
h2
fore
recently
anoxia
finds
ttr
reprogr
ｎ
uric
asleep
assault
ovulation
ב
greed
talent
warmly
##iculate
##vera
rem
two
##iciency
##oplasia
[unused195]
nancy
thirsty
at1
tube
rey
clears
##omonas
##onecrosis
invincible
##crystalline
##at1
coupling
loyalty
polyp
[unused257]
guillain
[unused72]
hike
misty
lowland
institut
##ained
fil
creamy
##tegration
[unused831]
##essional
completes
##≪
unsuit
[unused621]
highway
##ח
##ablation
advertising
cushing
inspired
cer
##peed
[unused87]
##chair
inclusions
##mentum
gauge
##t3
inhibition
gle
pipes
jerking
cruise
[unused395]
phyll
multiv
enthusiast
##eim
##വ
randy
##ogloss
fmdv
turbo
revered
benefit
accountability
##rya
circrna
##ately
involve
␣
anthropology
##ules
yarmouth
radiosurgery
[unused25]
+/+
##yar
phrases
praz
##oping
##ར
pean
disturbed
yo
firefighters
##entery
tnm
corresponded
manny
ornaments
shadowed
na
voters
footage
weigh
bombing
##pled
##k2
cac
agony
percolation
[unused881]
bankers
confines
immediately
##romas
biodies
pyreth
##რ
answered
parotid
ʊ
cyp2c19
##ђ
sexual
ultrastructure
##hl
destro
normative
cholesteryl
##ceptib
2r
exploding
resistive
prey
oscillator
nu
##occus
楊
blown
պ
##mere
##sley
terminals
taut
shanghai
dsrna
merging
prefect
##dable
integers
##epile
prompt
argues
anne
thirties
despair
benefactor
##目
butterflies
##schen
dxa
comrade
regurg
manson
egr
prenatally
glimpse
##obacteria
rani
links
potter
suppose
mohammed
progr
retreated
hav
##culus
ripped
skirts
##ompan
alignment
charting
sabbath
beckett
##place
effectors
##tam
limp
［
intraoperatively
lipase
п
honour
steve
obscure
buffered
ᵤ
normal
##zog
smad
cd36
##yelinated
hamburger
##ᄉ
##火
hypercholesterol
ruining
amplifiers
##zard
148
ந
ordained
disgrace
pla
diffusive
borders
##sters
[unused58]
vanished
##ว
1702
retinitis
3h
rook
unem
##avalent
opg
##逐
saliv
glomeruli
helicobacter
erroneously
anhydrase
enjoys
disturbing
gloucester
cooperative
buys
incomplet
agrobacterium
##arboxylic
unlimited
toe
phospholip
friedrich
environments
fabry
⽥
meta
proceeded
capita
ward
[unused333]
ic50
leishmaniasis
phoenix
mansfield
sami
sounding
seminole
##c4
robes
chop
dehydr
levy
##inity
##eses
ʂ
lisbon
##止
##ylon
budgets
mscs
exer
biocomp
##ibe
perez
realize
silas
##ancre
imaging
evidences
dystrophy
responded
haggard
spectrophot
tunisia
lymphomas
spokesman
##ximal
##～
ste
ami
adren
##dis
jill
humiliation
ontogeny
exceeds
mct
##ش
distant
truncated
##athi
lifeboat
drip
hun
cd14
empiric
envisioned
cardiomy
pathologists
patronage
##oxidase
ƶ
##card
##tya
3b
##etis
richer
##cking
biodiesel
##urinol
##ﬀ
ripping
barley
mermaid
leak
##⌊
oste
hokkaido
1570
determinant
tetrachloride
𝑛
##ulant
devote
robe
septal
##azide
qin
##ekeeping
##ometr
perineal
hermann
re
rival
legacy
vary
##olev
subsequ
##kling
tirana
sorbent
composure
marrow
rafe
merchandise
cone
##toy
locke
northernmost
galilee
chandler
##ed
pensacola
irina
⧹
criter
pis
psychiatr
teen
germination
[unused600]
peacekeeping
orthodoxy
guild
aramaic
verve
excuses
312
hypers
xa
sul
disproportionately
##essed
grumbled
109
troch
##ash
blurred
burt
tunic
fountains
dissertation
##pler
deng
stretching
##zes
hypersensitivity
##anil
unambiguous
underestimate
explored
sisters
covariate
##nto
argen
planetary
##inesterase
conf
impl
[unused327]
##orated
uses
##oresponsive
flicker
rotting
colt
thermost
myelogenous
##ossa
prematurely
jak
brca
progressed
compelling
##omys
##eiro
unnatural
amendments
escort
##iry
metach
phent
intram
corrupt
##ropriation
read
spearman
1809
##agia
stones
std
outburst
##tri
stop
libya
sirt
fluoro
se
glared
heroin
008
##oly
nos
mannheim
hyperinsulinemia
o3
##ophilum
##fts
森
arrive
hydrolyzed
decompensation
latex
##oviral
##elin
routledge
paws
2010s
easing
##umen
##⩾
secondary
c
##×
prok
tailed
doubling
unexpectedly
transposable
revolutionaries
tanya
consist
polymorphic
##otopic
bullet
##cting
##ephal
mandolin
##t
lcs
##lto
unsaturated
lodges
excitation
ochr
thorpe
float
vassal
labial
##rade
architects
##key
associ
##trex
priory
gives
giorgio
camilla
lowered
##emic
arbor
enrollment
atmosph
cgh
dorothy
##cast
zambia
rivera
handed
staffed
rhetoric
##hydrate
intended
typ
southeast
##dry
counter
‚
yong
##arly
defensive
unambiguously
##furan
##ვ
mutational
endometriosis
belong
immobil
ongoing
researcher
drilled
purchasing
##fera
ifn
visu
asym
ʐ
##vs
septicemia
##lce
tenderly
lublin
##ugg
budding
illustrative
patty
bonding
##ي
reservations
##mitted
anoxic
##ohum
repurp
android
104
pali
biall
tombstone
hgh
##mata
##ϰ
churning
bundesliga
##rows
snow
childish
brooke
hemodynamic
damaged
occupants
sweat
correlating
involuntary
theirs
behavi
sox
vesicular
eroded
constriction
sending
##ghton
microcirculation
[unused360]
rudd
##iversity
fantasies
heated
screaming
##les
##ν
</
##tiform
1940
リ
1952
##eled
dropp
cytopathic
[unused551]
##rrigan
diodes
a1c
imagine
k
infrequ
crawling
##sher
voyage
edict
##asing
glioblastoma
##roch
transit
blanca
同
##section
formation
agricultural
n2
[unused214]
mes
budget
intends
##enone
##flight
dehiscence
##chel
tchaikovsky
marion
rosen
box
commerce
chateau
##xins
perikary
fullback
sara
intellect
organizations
empathy
palette
##bah
pter
unfortunate
##umb
computed
##inen
##pes
honors
cheng
##ortic
##).
empirically
fn
dipeptidyl
dire
wesley
collects
pairwise
mock
##eces
partially
sylvester
domestically
pitchfork
referees
scripture
bas
liszt
sc
nominee
loop
outta
attorney
modulation
brothel
hostage
##och
##ocysteine
##oprid
##iven
[unused450]
nickelodeon
dutton
##orib
##efined
adenoid
looting
finland
evangelist
##kam
ismail
elsew
☆
plasmonic
capsaicin
22q11
innovation
putin
rattling
postoperatively
approximations
igor
spells
deuter
tradition
snarled
##ocar
β2
permit
sclerosing
narayan
tasted
aquifer
sucks
exports
pathw
underestim
##af1
completing
microsoft
modular
th
exceeded
##ill
##agon
obtain
filly
##wright
npy
prazosin
danio
etch
constructing
##.
tale
oscillators
embryos
mesial
intestinal
chimpan
1621
nationality
mcdonald
southwestern
##ക
abundantly
spiroch
egyptian
palatal
mandir
eighties
glare
monitors
christian
[unused616]
linking
aspiring
##olyticus
fade
ski
##ying
bowed
pitted
seem
##yroid
stevie
scar
trab
nanopartic
willard
cd
##φ
##ervated
bids
occupation
##ohex
dickinson
pneumothorax
##hampton
dragging
##sir
activate
snr
##愛
organic
happens
##patients
##ronic
##sner
grading
horse
electric
cane
suitcase
bishopric
paralysis
##olate
##109
aki
tmj
heteros
);
rancho
ethnicity
detect
arsen
„
##opent
subtotal
onstage
[unused398]
obligate
wives
wisdom
polyphenol
resilience
##rites
manga
##delta
##cription
##koff
loos
prostacyclin
##כ
2009
presented
sba
##
gallium
concessions
cabin
gear
cytokine
##ishing
fighter
febr
appearance
##cap
##ums
delt
cholecyst
##
trivial
freedoms
##aft
sinuses
ink
prrs
samuel
bisphosphonate
wow
prerequisite
##川
critic
hypop
enterotoxin
kda
renewable
aboriginal
##ح
s1
glomerulosclerosis
##through
##ynyl
##nagar
##alth
delim
##ocation
galley
##chlor
≦
racehorse
reassort
favorite
##aj
bud
swans
embod
customized
pdz
prestigious
bioactivity
glomerul
allow
argin
intensively
campus
hardware
elongated
pots
pvn
disubstituted
##hei
bharatiya
hearts
pas
oxyc
ᵃ
keratinocyte
finalist
##odom
physic
comparative
##inates
nf
propri
ssd
##opropyl
localizes
pushed
financed
rouen
packing
[unused387]
[unused746]
mercedes
stabbed
laser
brief
litigation
gases
thuring
rac1
polo
imprec
⌋
unload
facet
marriage
swell
[unused603]
##oria
culic
hurled
##obaric
##v2
治
del
grooves
fabricated
passages
##«
miniatures
arg
burundi
lympho
anthrac
##キ
##ordance
demos
rot
clerical
pondered
##tland
squat
##ˁ
pepsi
comprised
lindsay
1645
drivers
spokane
integrins
rgd
dioceses
crown
buren
seating
brad
[unused836]
thallium
calcium
##sible
[unused260]
accidents
##valent
[unused414]
conceived
stra
catcher
##ira
brien
togo
⟷
ð
dyskinesia
pragm
grounds
##jus
##llins
##ast
calculating
polymerization
ம
colleagues
noctuidae
broad
##lence
gramm
stadiums
transcripts
##ascin
sag
nymph
announced
viscount
novo
##გ
duplex
aβ
streptococcal
人
independents
photosynth
straits
##ari
genit
fluoroscopy
b10
fre
##sław
比
lips
drop
##etto
subgenus
jian
these
##dicate
heparin
clad
marcos
chuckles
##osomal
➔

ventricles
supervising
##onitrile
xp
enroll
##ero
##hony
regain
ⅱ
gripped
aching
ded
sedim
##inal
nitrous
ration
siam
refuge
##obile
##olip
principal
##ssen
internationale
224
looked
jogging
##bek
documented
##olec
##lver
away
defendant
##oxygenation
histologically
bulgarian
remain
condens
myofibroblast
irr
depolymerization
path
dax
routine
cas9
ninja
valor
##前
vegetables
urdu
fin
も
##hawk
topology
hierarchy
permission
##enedi
electricity
##arb
interned
replicative
630
wept
##ontrol
dictatorship
planet
furrowed
handkerchief
taunting
surrog
inexpensive
hypertrophic
##bh
danny
socrates
mun
lithotripsy
probes
debated
retinoid
##ξ
osteoclastogenesis
##eson
finish
health
##mark
polyvinyl
component
sunken
egypti
bur
[unused380]
retracted
##itr
dextr
##ous
accomplishments
border
galileo
juniper
remade
terminates
combination
rituximab
transgenes
encouraging
urgently
geometr
looks
cup
locker
as1
lineup
eighty
postmortem
##adec
↝
bills
##sburg
odn
statements
rita
unlabeled
web
##aving
##eximide
##11
ers
censorship
crowns
ventr
asylum
gymnasium
##tices
proximity
median
venus
raider
greenwood
##cards
##liness
##ulf
enac
nadu
familiar
##opia
manifestation
chemoresistance
casting
jun
startup
##°
ics
mineralized
##ganj
##enb
inaccessible
##b4
multic
spiro
cerebral
##laze
immortalized
nevada
arabia
page
permeable
industr
punta
tdcs
transcriptomic
maid
divinity
finals
saigon
##relin
myotubes
arizona
dressed
ncc
upregulate
derive
refinery
##dge
##ophilic
scrambled
coloration
##lora
cow
corrections
footing
acceler
mediter
##c3
annapolis
airline
expenditures
graham
christianity
rutgers
ferocious
att
insulted
newfoundland
##evich
hydroxytryptamine
mpfc
verapamil
activated
##ₚ
##osystem
##ocratic
##ю
vladimir
experts
##adol
kensington
##scat
intravenous
##oprofen
subm
trips
retur
disused
##ρ
virologic
safer
04
bonfire
nonun
##anta
##▯
paclitaxel
##plet
006
linnaeus
##guchi
##ozolomide
crack
reef
riga
dice
nucleic
death
##™
segunda
##arts
##enas
drank
hemingway
##runner
isla
ignition
techniques
thyroglobulin
poly
apex
nanofibers
ز
nigrostr
faithful
sine
dissemination
##ozo
##ophyt
##reported
##∣
##dm
chemopreventive
##ering
penultimate
diffic
beauty
emphasize
bully
deaths
modest
114
demonstrating
##war
##oza
㎝
##giving
msi
preprocessing
taenia
xavier
charging
##政
aes
afterlife
1658
oper
king
ᵈ
cleansing
đ
dec
seminary
swelling
patterson
##riz
soviets
##pray
mandela
gala
fathers
enk
retardation
##poulos
esterase
阝
deserves
##+)
parkin
chiral
interd
inline
avp
rift
wound
2n
এ
siberian
rotavirus
methylphenidate
dab
situational
space
##rington
zeol
##azines
pna
temporomandibular
hopeless
instead
spheroid
static
cohesion
soviet
##olecule
depress
internationals
clustering
##az
ecc
synthesizers
daf
[unused633]
caps
加
paralleled
mis
seropositive
pounder
cottage
cfu
glycop
##ymmetric
thrown
carolina
tatar
aiden
benzodiazep
##cholinesterase
rats
##tort
trimer
##ナ
listeners
dripping
ghanaian
akron
capitalism
##isman
zona
connect
stirring
determined
aw
dul
fuller
swearing
##ink
##herton
recover
##inator
##odone
slightly
cel
surgically
son
##ourse
##rotective
arcade
taluka
##bee
thought
lumpur
bank
bennett
annoyance
indica
hatch
[unused942]
ultimate
mca
。
contours
##unda
fusion
incorrect
##escent
zik
hill
45ca
unison
fumble
categorized
##ae
promote
##།
reproductive
dyes
adjoining
complexation
white
gastropod
orthopaedic
microvess
##tingu
##opoietin
gardening
radionuclides
orbitals
dichlor
noises
directorial
reverses
rickettsia
[unused935]
dirt
todd
##iciently
tis
immunoprecipitation
rendered
jase
pius
nrs
brandt
dartmouth
##ivation
bedrooms
mycobacterial
republics
janet
1820s
##boot
nino
marley
ufc

##cler
metabolized
isth
provision
elong
loc
##ntine
##shin
panel
earthqu
lighthouse
cerebrovascular
reckless
prayers
tossing
deregulated
ofloxacin
roberto
flynn
aromatic

nor
railway
##lars
##oprim
discordance
sam
mexico
bullock
˃
##tivities
conquer
flashed
destiny
dichotom
##phone
decreased
##osting
antiquity
assistant
tournaments
graded
nanometer
hub
overproduc
chairperson
peanut
guangzhou
hnrnp
darlington
anaphylactic
##esthetic
[unused557]
20
cf
import
twists
##kn
jing
max
##ulsification
laird
digging
##nius
hyphae
perir
arturo
hydrocephal
##onics
dashboard
⟩
##2o3
administr
##rnik
hatfield
##onin
means
erb
wiggled
showcasing
aboard
pleasing
maria
shen
chance
immunoglob
caressed
galaxy
##rolactone
satirical
##nza
26th
arbitr
verb
##≔
hank
sph
[unused572]
mustered
utah
radiopharmaceutical
hapten
carlson
##tell
microscale
bpa
##fleet
joao
##dation
##hair
##║
yates
sql
ᵪ
##obal
##omyelitis
results
tunnel
##ocortex
camp
##enia
translocation
spice
lipoma
stade
tryp
##ছ
##ल
##uni
settler
troll
[unused971]
azo
h5n1
##urian
##thers
##otrich
##anc
mult
pioneering
##ら
##ocycl
nich
immunomodulatory
scholarly
##hr
ʹ
dai
secretary
vile
stainless
dementia
ϕ
outward
rele
и
maximally
pouring
##ensus
cleavage
ammonium
edgar
divergence
retaining
world
##
iont
fascinated
mend
18s
##れ
adjustments
depressed
##lved
chores
radioiodine
posted
fiba
##reat
illumin
##aids
objection
wheezing
butanol
##bot
thick
escs
braced
pendulum
honeymoon
transports
scheduling
reactor
##utions
demonstrators
sale
wonder
murdered
##sume
transferrin
cry1
##lou
olig
reoxygenation
thrust
solo
dihydroxy
##2r
##otropic
championed
demonic
##uronate
seized
unseen
##rene
[unused209]
valet
conj
##du
whales
##enium
##ר
optim
也
microdele
vague
trophoblast
volunteered
hays
angelo
##◯
churchill
faa
ceilings
equal
##hg
mavericks
thymine
glycyrrh
mit
clandestine
titration
hurley
spread
##//
tev
innoc
afferent
basics
pfoa
exchanges
ashore
recombinase
buzzing
##4a
ammonia
cbf
##ashi
aston
purpura
perhaps
arthroscopic
panels
gastroc
kills
veget
##ropo
##sons
新
hfd
shr
##litazone
var
verbs
kainic
193
[unused336]
##pone
concomitantly
un
calibrated
warp
##elvic
louisville
countryside
mode
405
hysterical
laminar
##001
dlpfc
mollus
ffp
1884
retard
pharmacological
ltr
##ospital
reddy
##opictus
visible
assyrian
ᅧ
picnic
birds
butler
##hydro
##agglutin
lys
contraction
ttx
##olig
cld
trifluoro
mening
sorts
lenny
soap
##imed
##antes
du
maps
glur
##utamide
##cr1
)/
orthostatic
kenny
periodicals
swing
##༌
thrombectomy
orthodon
hsp70
lyricist
interrup
##ig
fung
tungst
##ugh
lysine
doug
hpp
greenfield
##⅚
chemo
##wise
accustomed
stressed
##oche
##vet
500
saskatoon
hiring
##oman
trna
##dehydes
wildly
35s
femtosecond
##rofacial
sofa
dizziness
402
##anoic
##lycemic
zoology
knuckles
##anian
midsummer
herbiv
n1
resignation
catches
russo
militant
rumors
mathematicians
##星
##mona
##cake
preferable
cd16
ducks
constraints
∃
##দ
masovian
solubilized
hyundai
[unused515]
##urer

liam
te
hematologic
##atial
prv
hypothesised
timor
coum
sink
imid
grayson
humanities
distractors
fond
hypothermic
generally
##？
##eline
suspects
##havan
manila
mcpherson
##iest
fulf
##iac
differing
##est
##yana
##
unre
cour
##but
[unused755]
276
overlook
##ematous
realising
##ث
myotonic
vial
braun
ashford
diuretic
sonia
streets
expect
[unused507]
##ovenous
lyophilized
concept
bright
characterized
##tana
jacobite
crh
ribosomal
mechanically
romanian
##iet
crete
processing
infl
adt
stress
ambulatory
leptospi
mediating
arrested
lapa
hemic
refer
inherently
##agland
agon
(+/-)
##anonical
dallas
frontman
##oma
21
𝑎
detrim
narrows
taipei
ban
overp
coward
##imine
biomarkers
witnessed
aisles
dismissing
⅜
rom
ep
16
how
kitchens
##ahertz
##pt
stalk
beak
deviations
eng

[unused415]
cemeteries
hacker
triggered
scandal
palace
capsules
rapid
policymakers
##itica
pcd
siena
schistosomiasis
##assay
behaviours
microstructures
expedition
shaun
localization
diagnose
##urne
literacy
knockout
chemical
##band
katy
avascular
mitchell
analyse
muscles
##ք
electroph
insoluble
heter
shriek
slayer
p70
ballast
osteoarthritis
supras
##sic
##utum
scal
pathetic
castes
aqueous
perfring
carniv
substituting
禾
bactericidal
chandra
flagship
chose
beatles
sensible
##odality
．
emo
lucrative
dimeth
##pa
telenovela
worthy
##fia
intermed
##bella
tumorigenicity
boilers
faecal
cease
angrily
##eous
nitroph
beat
include
bald
##60
sham
absurd
lasting
##^
har
##ozyme
##vef
ns1
adc
mcl
brighter
ignores
62
accept
securing
weighing
g3
happily
disclose
##uid
lymphoblast
intentions
##codes
sweetie
pruritus
犬
multiparametric
unchanged
'.
hosted
##lous
retro
##itive
[unused554]
variant
metz
thromboembolism
dortmund
esq
##dates
jar
##pping
modification
huff
vehicles
hif
324
pragmatic
attentional
##ough
h₂o
dox
superiority
substantive
blink
[unused915]
donkey
##zn
nonres
pic
hewitt
remember
syncy
##hian
##naire
antithrombotic
手
[unused727]
amphotericin
##tte
springs
stephenson
expl
swed
fxr
formula
piperacillin
modif
inhaled
333
eternity
ⓒ
hades
selangor
trus
skinner
appendix
ceft
octre
め
[unused887]
chester
overcomes
sutures
##creen
ankles
##ht
pedic
stakehol
osteosynthesis
##ession
ɾ
pole
referendum
1975
participants
williamson
socialism
torr
change
conveyed
syed
##চ
carpathian
##》
ortega
に
schol
kc
explore
##ᅮ
steering
micah
disdain
sir
curett
pistols
briefcase
basil
shiver
whilst
soho
##rely
pillars
organism
denton
milne
fiona
##rte
##tidine
hemolymph
ceftazidime
psychiat
ncr
##angiect
reservoirs
frantic
megal
##zone
pagoda
amended
synthesizer
##pectral
attendees
administered
hirsch
homicide
vsv
##aminal
##tops
clean
canton
ള
##ivalence
classes
zhou
1789
##
glycosaminoglycan
symptomatic
##rb
sour
pul
taluk
##pile
##wards
hearted
excerpt
regiments
troubled
##ador
##㯌
en
pressing
utilities
incor
philipp
nap
/-
rover
mouse
embrace
##aline
platelet
[unused362]
##ws
brooding
##opyranosyl
ʎ
##isation
fts
valves
disappearance
morning
dangers
lands
aic
##i2
colorimetric
##osporium
219
alerted
peeled
##rome
fatalities
bits
##lr
praying
downregulated
calories
chloramphenicol
nick
##
protocols
volvo
diagram
vcam
offering
##ively
reperto
campeonato
lateralized
##entral
mimetic
##子
often
exiting
##面
dcp
樹
otto
greyish
corresp
immun
worse
deacetylase
lobar
daph
##ᆲ
luciano
solub
mouths
theologian
deoxyn
##alcoh
##rozen
ventral
##{
##∾
peaked
atm
##ptothec
hosts
reticulum
layout
enteritidis
angles
asymmetric
juveniles
epithelioid
chlorpyrifos
diamin
##tf
taxpayers
adversary
disaster
lf
marche
##abol
fly
streptoz
colistin
dormancy
specified
orthop
announce
consolation
##anguine
mcconnell
[unused937]
##よ
recovered
had
hollis
inactivation
restricting
surprising
##⪅
accommod
yoga
wearing
influenz
▒
newborn
dum
serot
http
dros
mrl
mckinley
chs
##yard
##ician
diplomacy
sst
metam
plurality
##85
weightlifting
collins
faecalis
##unk
unifying
ymca
logging
cops
490
recycling
gifted
directional

iona
##inflamm
limitations
moss
selectivity
poc
##jug
heat
##tead
arv
soyuz
prob
superseded
➢
jean
##mart
##tched
##urys
##actyl
##ymb
##ף
eton
colloid
monetary
fragrance
prince
cache
susceptib
inform
nes
corpse
nhe
deno
wwe
bitterly
##yat
swim
below
develops
gobl
##isions
whispers
musee
entr
whee
##asi
taunton
sco
josh
bless
find
##atur
##sc
##zko
##ocol
...
plenty
##ocomp
1865
advances
appalled
subarachnoid
primarily
dti
sorb
maple
regenerated
immunology
##onectin
##p21
lombard
matters
pinning
constitutional
heiress
supernatants
eyelashes
[unused54]
g0
attraction
##land
[unused521]
322
cements
##ophag
560
routes
##bies
nebul
ronnie
1757
##ires
ipr
cessna
ہ
reservoir
belmont
aggrav
mere
wk
##aea
purkin
##quinone
rhythm
mclean
amazon
hm
和
camel
convolutional
stamps
messy
sermon
##uters
limon
centromere
1987
annoyed
vendor
oil
corneal
calculi
##week
temozolomide
survives
janeiro
given
1811
garde
##cera
liga
recognizes
⅓
##ョ
psm
liar
##azolium
家
bishop
peterborough
types
pal
interpl
ernie
candle
##itation
transcriptome
##hap
porous
string
therapies
##sp
wardrobe
demonstrate
##urine
osse
endophthalmitis
automation
##ermic

##endum
##iat
wavelengths
biking
##rds
##sar
immigrated
outing
pursuing
##oretinal
[unused820]
vita
nanod
julia
##mbre
native
##emoglobin
sparse
patient
delineation
dependence
##ometrics
tw
intracoronary
biophys
##onding
rub
intensive
hotspots
told
perennial
favorites
liver
worms
phosphoinositi
degenerate
lobes
m
[unused569]
65
modelling
staff
contracep
μmol
##സ
exceed
republican
1610
##ethylated
reactions
receptor
##26
dinner
##ʋ
dishes
dell
প
suzanne
##cede
mesoporous
(∼
##iances
harv
suture
immobilized
##zzle
dib
micrograph
unpaid
insulation
292
##oceptive
daun
statehood
judith
alarms
hugged
##on
##nitz
predictable
sesquiterpene
strode
filming
##ville
135
overexpressed
º
rhinosinus
topo
gilmore
##rical
pseudop
車
carbonic
propulsion
favoured
発
pol
swimmers
consultative
wynn
rustling
threonine
e2
recreated
saa
precipitate
ϻ
sym
striker
xiii
lysed
signs
elongation
melissa
restrictions
covering
##post
ivd
ottoman
lung
interactive
characterise
patell
##factor
##pea
jers
[unused438]
301
courtesy
resented
##gian
demethylation
##weigh
adequ
sherman
locals
mare
slogan
disag
karate
2
gregorian
##androgen
pedestrian
##arrhythm
steric
fermented
brought
whereas
medal
translators
cytotoxic
propagate
ukrainian
honorable
comprises
.%
depiction
cages
bytes
##otrop
##unate
pod
palatine
##emat
ce
inertial
distrib
m³
microsph
##athin
2006
acquisition
##orra
computations
##31
[unused990]
harley
##bor
impatient
digger
grenada
##п
bhlh
##ywood
aiding
reforming
scoliosis
wight
scant
glow
toluene
interc
##encl
donald
##rdy
132
align
##asters
killing
ol
ischaemic
##oung
##lian
swaying
pleiotropic
##retion
gamble
hanover
til
b6
delivering
pensions
woody
##ddling
##tangled
icg
withdrawing
##tip
charm
##oagul
conspecific
[unused349]
soothe
##dynamic
##ultural
##wski
##rrado
##ocy
fan
speaker
##welling
##nage
##yseal
chlorp
##vian
nuts
wakefield
lore
bothering
est
modernization
sloping
introduc
lymphoblastoid
tomb
maison
##borne
[unused52]
excimer
##ighter
mira
bott
pledge
isr
##otemporal
ナ
apps
defensin
secretion
張
##vastatin
##uric
nonsmokers
egfp
manifesting
paradig
chennai
testimony
##kaya
jokes
diversity
experimenting
radiologic

replic
extension
darted
nonstruct
##with
elastography
euros
proble
nervous
compassion
oceanic
南
roommate
clarke
hiatus
##omus
##urr
citations
##ritic
motive
gunner
cleric
##cea
##r
*)
[unused646]
maharashtra
##ع
##iani
##jected
##tream
northwards
mosquito
coun
sound
lyric
hemolysis
enable
certificate
taft
bir
dhabi
hold
deploy
arom
##𝚿
jewellery
pl
[unused656]
arrow
nsaids
##otomy
believing
torino
##inked
‘
reflexes
volcanoes
license
confir
naphthalene
##urfact
straps
fructose
maltose
contra
##ostomy
lagos
dls
tired
judiciary
quoting
nakamura
sorbonne
racetrack
uniform
alanine
improves
51st
fordham
antagonism
universal
particles
kyushu
pears
=.
sable
##p1
tep
stamped
##atif
##ail
horseshoe
noninvasively
dude
nomination
ව
utrecht
fb
lose
##ज
daisy
discourse
##oprop
##olateral
ɸ
brother
›
##tisch
##utz
cia
footprints
nonstructural
ht
dei
volta
##apheresis
##ple
ark
neointimal
diffr
cd20
ranger
donna
##ifolia
##მ
sacrifice
steadily
ppd
fecund
carboxymethyl
tex
denim
sgr
aeds
eastward
##phase
nothing
retailers
nassau
m4
hanoi
vamp
##ni
##ഖ
##yna
м
fiscal
elevations
##tenance
chk1
sergey
epidermal
jake
palo
radon
huc
siegfried
##rets
##vron
strong
##ietin
endors
satisfy
##oid
dwight
neurotoxicity
anhydride
fundamental
680
##inin
homing
baseball
##ible
##マ
##posed
electrophysiology
90
##unding
premed
torsion
proclaimed
ushered
ک
happening
abc
julius
##陽
infiltrate
qi
ћ
withdrew
preterm
pasha
rebels
augustine
greenwich
[unused559]
fire
sobbing
##aining
พ
logar
unimp
##འ
methacrylate
from
devon
$
koch
##rice
gerbils
confirms
kidnapping
disturbances
conductors
coryne
apartheid
crawled
mesopotamia
2021
##ipel
##boats
##ipt
difficult
vasorelax
ventricle
erich
pregnancy
talon
msa
cole
##eri
##rne
implied
norm
bounced
##combe
##bib
##inho
adducts
hens
##tet
ג
hum
fissure
ghost
imprinted
inapp
[unused586]
ecd
workload
circulating
##ensity
kurdish
##osuccin
concre
ر
terminating
mustard
inn
solemn
##osm
᾽
welcome
aloud
betrayed
##ˈ
succumbed
nationale
##gara
##আ
##ti
stear
namesake
grace
armored
anx
##iens
visualized
##itants
chymotrypsin
##qing
conditions
chang
.,
lectures
governments
wool
expo
inclined
sav
photos
adenine
alabama
communist
enforced
##ᄌ
athle
editors
closed
##rth
centrosome
##rled
##ticus
hch
gospels
marlene
immunosuppressed
recons
代
dedicated
mansoni
proteinuria
187
scotch
事
formed
obstetric
refraction
ₗ
irreversibly
squeak
##ongr
baden
englishman
sox2
scanners
passionate
pse
comply
nitrogen

doz
hernia
focusing
mongolia
##saurus
pyro
donation
secretase
departed
##ibilities
patellofemoral
surrender
##ival
[unused528]
##ogical
ethan
quiesc
won
abbey
##ineralization
leukemias
nobel
bystander
arched
cameras
gliding
giuseppe
##ofrontal
##aph
##matic
thalam
##ascial
attended
geschichte
tendin
loadings
##grin
##stone
carl
ricky
malicious
1737
councils
reex
hospitalizations
int
ψ
ctcs
fu
##enesulf
cvs
joke
scol
##abilis
stallion
chopin
antipsychotic
fluoresc
ᴇ
misdiagnosis
##禾
##akes
thiamine
##ouin
obesity
##oning
thirteenth
frequencies
2nd
saturated
psychophysical
lauren
fares
tibet
##eda
erythropo
##ης
baltimore
##take
michaelis
radioactivity
typhoid
archive
thief
##ipenem
baked
bubbling
shifted
cuff
dentist
tripoli
1966
appliance
##opamine
##urethral
##ococcus
328
##◻
strikeouts
booming
flies
vertices
detach
fh
grease
ต
skipped
granulomatous
printing
multiplication
apples
lawson
##ław
brom
ornithine
##terolateral
ptosis
stampede
amadeus
cascades
trachomatis
gate
paranoia
[unused79]
[unused364]
+/
partitioning
[unused317]
collective
nanoscale
42
##ositis
harrington
##ritan
compute
recapture
carefully
magazine
synthesize
##olus
masterpiece
studies
reimbursement
sykes
seismic
c5a
factual
species
sap
𝔉
repeatability
nuclei
2008
sherry
##bber
##sville
msc
casket
scala
1864
sevens
qm
fcm
##ied
girl
##oride
##ciency
influenced
rectum
newark
nonb
##orm
clarissa
cuticular
⟨
continu
morbid
confron
##athion
sarawak
nell
widows
necrosis
tobacco
##rotal
purchases
wore
biomass
bartholomew
prednis
ech
##vyn
associations
pkc
simone
spacers
wouldn
edo
ethiopia
ദ
overall
##lah
polytechnic
uranium
keyboards
##ween
biopolymer
saddle
coherent
##rio
45th
haplo
nipple
vengeance
designing
omega
faye
keto
ache
##ィ

pulpit
cartr
shut
lich
##rdes
parenchyma
emily
##erating
##lston
haynes
coral
48th
ₚ
##taking
acclim
hsp
adrian
herbicides
sof
depr
nonlinearity
boxer
polysaccharide
km²
sulphate
ethel
ecosystem
detailed
belgian
anastomoses
##orea
berwick
chloropl
##✶
erbb
##avastatin
##mara
xander
##ume
clon
##centric
niv
incorrectly
neuropathology
portug
electronics
branded
iranian
canyon
sucker
diamond
orphans

tier
devin
donovan
robots
carcinogen
soo
byron
wants
charlemagne
spectacular
##˚
patio
radiography
##imidazole
him
recre
electrocatal
excurs
kane
captopril
##ologists
pier
estrogen
##☆
za
moyamoya
zionist
flourishing
##uous
assembling
##ben
##а
cohen
diene
navajo
observation
endometrial
wky
##ی
##balance
##recipitation
rehabil
deficits
glutamic
blackburn
klaus
delphi
eyebrows
##olves
##zh
##肾
ppe
##ilized
##ᅧ
le
##liffe
estranged
ure
relapse
lush
dors
sphingosine
forearms
ppr
flush
##ye
kit
##lent
;
##uctal
themed
bubba
ccn
seminars
rallied
23rd
##夫
ƞ
starr
localisation
supportive
auckland
##enth
silence
chancellor
conferred
miniature
whitehall
placenta
##xton
telecommunication
organs
イ
vitil
intranasal
celiac
carboxylase
##⇑
mitsubishi
gins
##not
constructive
animator
bipyridine
autoradi
electron
##apia
gfp
curriculum

fifth
bonnie
##hurst
psp
commentators
benevolent
parochial
airflow
sabre
callahan
track
##dam
acs
##－
##松
##elev
equivalence
elicit
##ogels
164
oligonucleotide
##holder
schizoph
presses
convicted
darling
##oes
dunes
accents
##plify
radiois
compositions
##⺼
iodide
excre
##শ
##真
',
dislocation
pleth
anymore
##onite
percussion
symptomatology
erk
mohamed
manometry
brest
[unused518]
rab
confound
builders
##keleton
neutralization
ppa
alginate
undefeated
bela
##icz
stabil
rbp
kaufman
ssp
ballard
mentions
[unused905]
gps
marin
##das
faction
##oconjug
documentation
##jm
##ropath
ϰ
longitude
terrace
emb
densit
ү
fought
mae
lymphocytes
romanesque
##etus
catal
##fying
34a
lond
hiber
##enyl
54th
’
pparγ
sonography
electrop
deeply
forens
shipments
huron
blindly
nar
gotta
kendrick
troph
discharge
cd95
mail
[unused825]
##★
episodic
winding
##ew
humanist
catalog
ajax
wan
laughed
##l2
sev
##orh
fulbright
##ulsions
mel
[unused805]
monitor
probable
##okinase
solos
##transl
##human
valv
philippine
##rgen
posit
drilling
wrocław
epha
##rud
##aquinone
edi
##reus
##sul
ferrer
transfection
ᄊ
nanof
oxime
tsc
setup
band
##ening
##actic
vancouver
##certained
##iving
marched
truck
cycloaddition
endotracheal
[unused936]
spear
comes
defeated
##orio
ro
contex
rabbits
musik
summarize
marlins
##宇
ii
bernstein
erectile
styled
signature
math
unve
congeners
neuron
vivid
146
servicemen
isaac
biogenic
bells
##gley
route
[unused883]
1992
yourselves
forthcoming
pictorial
alliance

got
##times
proband
##xin
℗
freiburg
abscess
legs
generate
intert
adrenoceptors
mentoring
quay
children
384
resonant
##智
naturally
dealers
remission
extramedullary
romano
##ckman
hotspot
stationary
--
elastase
pcv2
##end
mainly
ritter
weeks
blight
propagated
athletes
remembrance
##itis
oxidizing
treated
elim
mandates
##ophagy
best
squir
glowing
phagocytic
epiderm
cruciate
##atility
absently
jacobs
introduction
carnegie
substr
⇒
purse
##oides
insuff
microh
##coh
occurr
lin
strategically
erg
rocks
wizard
##lusion
ₙ
hek
azt
icc
chemosensitivity
##tened
225
##bw
##oglobulin
tmp
ŋ
beautifully
mainstream
##annel
dvt
trillion
##osaccharomyces
euth
exert
claude
##lden
roofs
##ultures
##icine
elisa
maris
##gers
littered
##´s
##tructions
sentence
hyperre
genuinely
dome
appreciation
talked
cohort
marcelo
##ype
rifampicin
##র
ನ
sighted
##race
bono
enteric
##empfer
##☼
fernandez
dimer
thymidine
guardians
##ancing
##lit
maxillary
##⅝
##foil
airfield
phosphatidylinositol
intricate
transmitters
pst
experi
##vent
##obarbital
silhouette
rotten
﹥
assemble
mapk
dolphin
underp
decline
##mism
ruminal
dot
reciprocal
begins
due
##onical
replicated
##aphthal
c4
##mis
reflected
obliteration
intention
basel
airship
##antigens
strikers
##atively
smcs
splice
invis
dedic
tumoral
alam
discrep
splenic
collaborations
##etomidine
##黃
python
ⱼ
bosnia
##‴
migrating
phyllis
interbody
1981
imp
ᄆ
##к
##ichi
effected
vulnerability
cafs
hardness
##muir
8th
##ip
[unused369]
##uddin
offenders
heur
slump
##traction
phorbol
##core
[unused815]
##cased
various
ail
aviator
shit
##aly
ropes
campos
ᵉ
tunes
graphical
ⓕ
oman
##using
##rts
[unused567]
reconstruct
##rug
ok
stadion
drainage
belinda
potency
清
##chester
##dial
##cen
rebranded
gold
extraordinary
squads
##ustr
carbohydrate
acous
fuse
arsenic
influ
trembling
##imod
##odil
##domains
##zia
##チ
ɛ
universidad
graduating
cassandra
##ogalact
##jean
prone
employ
silky
led
therm
relinquished
spectators
fcc
ea
##wara
1623
aziz
isch
lockdown
ought
polynomials
preventable
##ialysis
androgens
[unused40]
fortifications
aground
##ii
o2
conventions
thrombospondin
[unused265]
aluminium
bestseller
okay
demetrius
asl
##vana
pearl
6th
##yah
##hism
##los
rapper
shaken
cpu
##ench
pso
[unused117]
teeth
captivity
township
fiance
cathy
1747
behind
anthelmintic
explorers
handedness
fak
##inesc
whispering
##roplasty
nobleman
sheen
＂
dipyrid
shankar
##ria
##∩
bottled
aerug
botulinum
fitness
zimbabwe
wiley
adamant
collateral
milestone
portraits
##uinal
hardwood
replace
splashed
lesbian
atrocities
hept
##ted
infil
asynchron
##tosis
legged
forced
vd
warship
pseudor
##openia
oncorhynchus
##operoxidase
multimodality
casablanca
##ubin
raids
sect
##zier
retrospectively
coup
vocals
##athing
azure
sleeper
##havi
complicating
##monary
ddt
zn
program
containers
seeming
slicing
methox
##here
chords
confronting
##谷
engage
##inkles
##infected
##gf
erp
pallidum
chip
##eland
biotechnology
##hertz
immunocompromised
radical
shale
sten
##porter
futures
##rrell
johannesburg
unple
hepburn
papilla
marijuana
tangles
##…
sends
placement
michel
keap1
comprehensive
##oge
igf
##acological
italians
curtains
diarrhoea
aspect
stabilize
mmse
##lementing
##tori
##liest
ɤ
handles
##acaine
nanocomposites
exped
hierarch
controller
hostility
ivig
myles
cyclooxygenase
##京
oversee
gracil
neocortex
##tok
grasslands
木
suspect
blot
referrals
方
humeral
##mail
did
78
discovery
##silyl
'
fix
[unused290]
nielsen
compilations
miss
data
ordnance
##claiming
##inate
##kled
mans
movie
[unused493]
justified
sudanese
rob
authorities
phospholipids
##acranial
invitations
##avage
##osomiasis
farmhouse
broadcasts
akbar
##ort
isoflav
##bl
drowned
anthropologist
~
excuse
playground
##flav
certified
microtubule
darkening
staphylococci
dying
##ili
56
pathogenetic
database
qu
cim
turning
propyl
diminution
##562
extracorporeal
tol
pearls
robertson
appearing
mega
##
interdisciplinary
priorities
uruguay
wonderland
surviv
torpedoes
mip
dyst
energies
forged
##ofemoral
photodynamic
shrub
harmful
𝕊
predisp
##retic
元
church
albans
graves
subtilisin
haste
sludge
##hra
michele
female
survivin
herp
##％
orphaned
##ಾ
unicef
##ბ
donnell
justice
after
streptozotocin
uprising
sab
nationally
nadph
headlights
tadp
##hee
blotting
livelihood
##gne
prehistoric
viet
regulations
goods
sinus
ponds
##zzled
selecting
cognition
phae
microwave
##lux
tib
mbs
atpases
##o2
hydron
cerebro
trend
tcm
##」
biennial
litre
epit
[unused264]
lir
റ
[unused468]
hesc
tying
sundance
gastroesophageal
multinucleated
##ouk
##bone
eruptions
##etitive
wasp
tcga
1920s
introductory
strawberry
318
stemming
intradermal
##acryl
##ße
microfil
##onic
obl
peers
##omycin
adri
##notes
maxim
myofibroblasts
day
bival
rockies
value
urch
winnie
##koto
026
outstanding
stalled
rewards
cyclosporin
p
##bolic
objective
##f3
madeline
##pack
hypocalcemia
interrelations
##otypical
segreg
letters
amongst
##sier
wilbur
tx
##lamyd
traf
micromolar
wilkinson
ligue
##⊗
preston
puerto
impuls
paediatric
adverse
ketoacidosis
zebr
##orphic
tachycardia
imputation
»
##erative
sebaceous
daly
simian
fenton
orific
stands
[unused835]
820
tun
retic
cyp2e1
dmn
starved
hodges
035
rna
missed
tissues
blessing
##vinsky
[unused109]
depict
[unused321]
100
conval
rec
##awa
aleksandr
supporting
skyscraper
aii
summation
enigmatic
riva
bundle
##otyping
currents
##zuka
##acion
##ⅳ
evolutionary
responders
synt
1796
dissection
colbert
abel
##ryn
prepubertal
[unused139]
illegal
crashing
twitter
##adequ
handic
##me
vitrectomy
usher
mathematic
skull
ors
[unused544]
company
accessible
[unused252]
inhuman
enumeration
marne
repl
dentition
teaching
landr
##cu
castillo
curious
cop
amused
glioma
produce
watched
sheets
##otho
ll
##
wii
outpost
gmbh
suite
momentum
boron
gillespie
##wick
yer
resour
deteriorated
incurred
facto
histogram
trails
##ield
ho
##ege
crushing
##reate
otis
bottle
souls
##aceutical
quadr
big
danube
archduke
scs
colocalized
tonight
lyase
donnie
hull
##erate
grades
mccormick
cyclization
##ipl
boom
session
antegr
clinically
##uge
##tigraphy
plots
extracellular
cortices
codons
craftsman
filtering
queen
heavi
dion
夏
##uscular
paul
alberto
##ˆ
condoms
negative
##generational
myra
blossom
incomp
justification
nucleosomes
detergent
acetylation
##phos
inev
cats
##iny
downregulation
oligomerization
departmental
##ﬅ
analges
ska
apatite
facilitation
casinos
santa
flew
##tron
##oured
##き
traces
playboy
reperfusion
151
##claim
bret
osteoporosis
tattoos
hyperex
olt
jagged
petite
dilution
approval
wits
syncytial
portraying
bertha
fistulas
courtroom
pac
trivalent
arrest
solvation
139
ally
rcts
cyp3a
klotho
##lices
operation
disintegration
goodman
##പ
sulphur
fremantle
oryza
grows
pmid
client
forensic
squire
bortez
disclosed
##ties
wilfred
ozone
##न
version
bribes
lace
daphnia
switching
tilapia
##ding
drawn
##ᆬ
abi
##gart
overhaul
predic
ᴮ
belts
##redoxin
##ש
polyadenylation
lv
resum
synovial
wealthy
macmillan
odessa
infringement
tumorigenic
roses
conference
##iot
tops
snack
352
stroking
吉
respiratory
##roline
lass
regina
ghz
cody
[unused548]
##ako
##iph
ham
fencing
contrasting
##ो
interleuk
##gall
troopers
##usp
oven
slip
cues
a1
dana
coron
enrol
[unused334]
weaning
natasha
camden
stock
frustrating
protr
cfl
graft
##uso
misery
[unused824]
bilbao
em
creditors
gael
##immune
ankylosing
aquaculture
nominated
helped
imprin
medicinal
ℍ
mcintosh
courage
initiation
perinuclear
##odermal
wrap
neuropsychological
athletics
thai
alf
scope
precipitated
##art
ravens
##esterase
lewy
lesional
keratocon
社
rhineland
deputies
neue
tetradecanoyl
fluence
##immun
れ
##風
prime
lgbt
northwest
##ograph
##court
##boat
nonverbal
demarc
miranda
pottery
]
sox9
carp
transgen
##coll
audrey
accommodated
glossy
malform
intercostal
speculation
sphingomyelin
##itz
pasadena
pitching
pix
hilton
paraquat
explosions
us
##sius
xl
endocarditis
pim
ns3
atrophic
lett
tibial
physician
1815
flick
##hel
domed
centrifugation
walsh
ezekiel
##anide
liberalism
intervals
##tained
1824
fractures
abnormalities
cytosine
thaliana
[unused747]
poss
probabilistic
1953
fum
transpos
transepithelial
lipoic
tracing
ninety
practitioners
shelf
hamish
horizon
watch
coached
noticing
logged
urease
puppet
emptying
warships
bachelor
##arte
sheer
countr
exist
monocytes
##oplatin
dialects
##ki
hcg
anticholinergic
diph
##vitamin
##ger
##kat
coinfection
tastes
##illi
arabic
bing
liv
bournemouth
protoporphyrin
helps
1750
1838
hacking
mofs
uneventful
oxygenated
distractor
laws
##iff
consequ
30th
homozygous
231
##repres
1960s
compromised
one
411
vill
ceftazid
cos
##ley
hydroxydopamine
percentage
poke
士
weaned
##astrin
jennings
radiating
frames
bloodstream
gasoline
sheep
##missive
groaned
shawn
viii
hebrew
##oemb
encephalomyelitis
##wn
journalism
formulations
lebanese
radionuclide
pk
deceased
##anies
gaas
worsen
rightful
##less
cen
baculovirus
1881
##oint
##os
counselling
goats
hybridoma
polycomb
mentor
extractions
therefore
hw
bel
perpet
identifying
[unused842]
perfection
simulations
##oku
ħ
pradesh
inoperable
irregular
dar
olsen
selectively
determ
愛
soldier
##ivision
subcontinent
restored
##anthine
##mbit
weave
61
ᆫ
08
hinders
european
##rral
sleepiness
##amol
flanagan
[unused882]
lonely
thanked
cpp
mla
phenol
compreh
werewolf
soup
navigator
commemorating
polymers
⊥
stacked
(=
conversions
door
prefrontal
1683
civilization
martins
phenoxy
voice
##ortion
hispanic
330
chunk
xi
compl
119
tail
microcapsules
chronology
##vine
lines
contests
##pura
memorials
##tins
tool
plaid
mar
আ
ripple
##氏
hours
explaining
effects
mata
clasped
consumers
biomechanics
cameron
improvements
##maleimide
helmets
firing
triage
semis
bogota
huang
ubiquinone
k562
##oxime
influencing
unf
cortical
##echnology
mast
j
suriname
incisional
unipolar
bred
intraves
##acterium
##स
economics
francis
tagged
##ctum
pharmacologically
intragastric
reminds
malfunction
christy
pixel
arson
avatar
deco
##as
iiia
equimolar
endure
##vo
widely
fell
nystagm
disagre
feudal
turbines
descrip
pbmc
parap
##dh
##rre
[unused731]
skirmish
112
interacted
fried
##ogenes
cytos
frequency
chlamydia
##ormal
refractory
drought
final
observe
upregulated
com
spears
272
reactivated
buc
cranes
shifts
servers
facultative
##fetil
couldn
mckay
shortcom
umm
hopkins
wealthiest
##otin
mosque
morley
seb
degeneration
##onine
stepfather
dj
undergoing
shaded
neuropathic
vals
furnishings
textile
tanaka
━
cere
##vement
##nstein
myelofibrosis
≊
connected
##bbon
isc
gath
immunolab
ferric
hypocal
##阿
bloomfield
glamour
sacrifices
##ventional
ー
carcinomas
occurrence
crass
##光
unknown
##house
compulsory
##oll
doors
drawer
alexith
graphic
brenda
##elect
thistle
institutional
carc
rej
horn
##hibition
##ivocally
nineteen
tributary
##dehyd
daw
males
stearo
conditioning
comorbidities
##ui
uniformly
signatures
##duc
psori
hapt
∀
cindy
discretion
cytoplasm
##┬
warehouse
astronomer
piloted
##olin
catalysed
tentacles
##5a
##arch
moreno
assesses
##edoch
barred
presided
##off
ens
civic
##oylation
hop
ridden
thickness
##ff
reynolds
000
lt
ris
bull
##oney
ventil
telec
1874
knife
##bie
zane
marked
wayne
##achol
##inone
cd28
hypoglycemic
headaches
bic
##fraction
exclaimed
couplings
share
psychiatric
confirmation
##sfield
flap
oxidase
synthes
probabil
tinn
〞
ニ
𝒪
dsa
##₤
associative
##opian
##zee
dibrom
satisfaction
curves
afc
interf
##ocortin
annotation
ffa
##verance
auto
thrombolytic
flowers
##ska
dup
rater
##rama
moravian
##lance
arguments
##axanthin
inched
##de
repairing
stares
24h
##vances
cond
##orespiratory
##স
bloomberg
pollution
academy
detector
##inking
national
safely
[unused226]
colleague
##edics
bg
lev
土
apple
##athy
seaf
liberal
##iosis
+
narrower
[unused702]
autism
penny
autoimmun
lactate
helical
##one
ether
destination
ideological
##iable
leisure
clavul
keeping
plymouth
forests
##竹
##ophth
[unused911]
garage
##uated
inaugurated
goalkeeper
tnbc
logis
municipalities
density
##″
kidnapped
beheaded
rave
emma
##rotection
pleu
privy
reactors
##olinium
premotor
##∎
columbus
bliss
##atentorial
concentr
日
facts
##ʈ
spermatocytes
##esize
calcine
pounded
spurred
##☉
##adias
grid
##plicity
perone
vent
[unused181]
trainer
sweaty
collaboration
hyperphosph
@
plausible
##trate
enjoying
cnvs
perceive
##dana
livestock
rupture
##inephrine
simplicity
demonstrations
surrounds
campuses
##志
##lles
commentary
##folk
sinatra
photoperiod
coexisting
powerplant
yr
1707
joy
urological
leasing
exposed
training
##ⅺ
##lion
commodities
##eller
moat
18f
proximate
misunderstanding
##idov
hypha
##woods
##emon
subpop
fergus
abstin

##hip
##antine
macdonald
ハ
mendes
幸
154
insertions
囗
bioinform
nonpregnant
##rat
unsigned
causation
sensitized
य
renumbered
##75
port
ornamental
highest
buddhist
performer
##rsa
[unused16]
nb
petition
secrete
##albumin
pasta
coincide
emphasizes
slater
##vah
##ⅰ
bioaccess
herrera
rolls
kayla
##oud
duchess
mathews
quiescent
jasper
##olk
neoformans
p7
##rogesterone
jozef
##rix
escalated
endorsement
chemoembolization
atrazine
##nio
s1p
gossip
)]
##engine
009
tca
##ked
antioxid
curiosity
##otherapeu
headlines
genders
2012
php
kiara
184
##mps
chimed
##ombic
კ
passengers
##tub
229
brasil
burrows
stephanie
upscale
sean
leo
(+))
riddle
illustrations
##erman
leadership
##iplinary
fluctu
##ия

perovsk
##ords
fishery
archaeologist
ond
immunodef
kali
tip
burn
+/-
##gn
mane
communities
sch
walk
##non
villain
##ᴵ
readiness
mite
##khov
foxes
lax
##edging
stat
morocco
##rwin
##lity
accommodation
770
obst
suez
invisible
proteolysis
##opeptidase
dreadful
odour
rarity
underserved
ᄀ
assaults
##dberg
users
pregnancies
nuc
aachen
sustainability
##embr
英
##tin
carrier
weary
chromatographic
crispr
intravascular
quadrupole
##efe
##itical
silvio
##mon
##girl
##fore
##onch
vk
গ
emulsion
pitt
bihar
##avs

##lls
##ishly
newer
joker
hydrocarb
gm1
##asis
temporarily
##cl
naturalist
flickered
##mers
##obronch
grotesque
dissections
microsurgery
zev
split
thompson
4d
##rmi
discovered
hitter
coronal
medical
ridges
isothi
mammographic
evicted
peabody
briefs
maternally
u2
flinders
sofie
##estra
##alian
##lier
intermedi
loans
coex
##elt
1701
dehydrogenase
mind
11th
##vert
epigenetic
tumorigen
passports
sparta
##avirus
morton
crowds
reelected
einstein
consultants
rotated
utilised
extracted
ensembles
intercourse
ferns
[unused310]
relied
distributing
freaked
##thic
dorothea
gracefully
53
##ɾ
zeke
mysore
##nate
thermotoler
electrophysiologic
ley
aerobic
kindness
phobia
##eit
assume
organochlor
syphilis
carriage
enter
docked
triton
##na
intervene
produced
tod
terminally
##stered
inhibiting
ん
spacer
501
lie
peritoneum
terrorists
[unused94]
##ygen
[unused406]
races
shouldn
##entricular
vacation
victory
ninete
intense
tel
vertebrae
##elet
advantages
gln
##agl
##χ
appreciated
activ
##yck
musc
##clops
kylie
nm
congestive
[unused510]
↦
##apl
[unused674]
##ady
draining
##tou
quarter
tablet
##ontal
immunocytochemical
slipping
gift
abdomen
##ldl
software
141
ء
doo
pitches
accomplish
harvard
angle
immunodeficient
detachments
subfamily
##qi
neck
##opram
294
ankyl
instruction
jet
questioned
assistance
chemicals
absence
multif
steals
lodged
prot
##jos
cres
sporting
compet
pass
dilute
##ℏ
##rring
bias
images
charms
pakistani
##ɑ
subsets
debuted
corporal
visualize
dermal
carmine
prevention
##oh
fronted
zulu
testament
##ologous
##atile
comorbidity
##abain
get
cpi
##tim
bays
programs
hydatid
ա
gpi
quantitated
civilizations
##ropri
message
326
inhabit
minnes
basilica
##dier
##oxib
##idomide
yells
contrasted

phon
precipitating
##ometrial
broker
[unused495]
reds
headlining
precious
excitatory
steppe
reyes
[unused891]
9
##≻
transd
1892
remn
stations
clergyman
conn
pounding
𝜀
choose
fashioned
sma
##unn
##と
trib
##oxys
hyperpolarization
constell
##ectors
##ungin
octa
irrevers
##orhabditis
##elong
not
celtic
##adesh
attributes
##laya
contracture
monkeys
ops
microtubules
transcranial
macro
mastering
habitu
casual
##regn
arena
propagation
ver
varied
1797
curses
samba
klebs
insectic
bmscs
⪢
punishment
##oter
nonetheless
occasional
canucks
fes
യ
##ught
malawi
##tom
sparsely
thermograv
##gible
another
si
strept
##∽
##（
proposition
gus
return
authority
##aration
antagonized
conventional
##aldehyde
prevent
##µ
nehru
asynchronous
##ulatory
yesterday
ab
haemophilia
boating
culminating
guardian
folding
fjord
belonging
##vara
drug
wholesale
ⓡ
warns
gust
##fted
swelled
##rc
peptid
illness
##acyl
blo
prothrombin
superimposed
cmt
goodnight
##ւ
52
anticipated
inhibited
longing
installment
onboard
fertil
vign
##ic
##49
manifold
##dice
[unused486]
acetylgluc
colostrum
smiles
hooves
icu
tie
##powered
slim
reader
autis
[unused194]
##roduc
1α
##enting
##anders
balancing
sanity
##ves
repeats
engagements
symbolism
courts
facilit
voiding
scottish
duet
##ttering
adh
rebuilt
hydroxypropyl
domination
##haem
behc
ketone
##ikre
mph
252
billings
delightful
moths
gerb
##ecess
staying
picking
inhabitants
vitamins
repressing
##ocarcinoma
oximetry
##legia
christophe
##ᴮ
secrecy
##lam
##勝
traps
pancreat
selective
libre
banner
##mill
lim
##opher
gating
hors
prophet
1663
reads
##地
cuc
steroidogenic
requests
[unused96]
⁢
intracytoplasmic
##場
avery
grasses
carmen
##alla
perfume
##omethyl
##ace
spat
limousine
characterisation
vwf
predicts
discriminative
##fers
##ℇ
##ও
##ondr
##arynx
##rops
oesophagus
granul
slips
##azo
variance
##〗
𝝁
champaign
writings
reach
interlayer
way
vz
organisms
##laise
chir
ϑ
asymptomatic
aside
squared
retrovirus
conception
talks
cantata
domestic
1689
##inflammation
preparative
##esized
##ieving
frequent
##lberg
alignments
sneak
saharan
ticket
nw
alleviate
offic
qd
[unused867]
adherents
calcane
pronunciation
alfred
govern
##aced
##electrochemical
implanted
##fluor
[unused196]
dystrophic
##lton
tic
stryker
antinociceptive
farms
mda
judged
##to
funky
島
##ia
shoreline
rear
brace
tyson
fray
є
stumble
billboard
‍
built
fumbled
##iciencies
hyaline
reacted
##ylyl
ː
え
presents
##aci
tractography
﹤
transmitter
parad
stockings
weaken
monmouth
primord
circrnas
##oric
356
yellow
[unused211]
tentatively
##sm
correlative
increases
fle
##loaded
##omel
goblet
movement
1670
prose
「
downwards
lowest
cabinets
##trium
choi
entrap
##ammed
blackwell
##ected
##jit
##ilation
wingspan
##eurs
𝛼
disinfection
penitentiary
extent
lyon
hbs
maturity
##abi
senile
evenly
eczema
fluttering
ganglia
kras
conflicting
thal
aegypti
phal
zombie
22
disequilibrium
eif4
hamm
exterior
blockbuster
rug
cholestasis
nephew
lola
frag
ampk
sonic
cosmetic
footballers
mile
##uin
##ours
##‑
##lham
blowing
houghton
spence
projection
repeated
ying
cau
##thus
valu
##oprotein
##chment
sert
##olding
ferredoxin
teaser
##iliary
##lal
adopt
goldstein
arb
hydroxymethyl
hinder
ȥ
##inical
nicole
nana
commissioning
##empor
ssris
mares
prosperity
kappab
stipulated
verte
ipad
uter
##bly
anya
squeezing
branched
##ib
##lag
##ᄀ
chitin
fled
##bv
bathing
##rogate
##nk
##otides
dilation
folate
##aca
ureteral
notably
##itated
##ausen
plating
##tructive
multisp
nico
warming
phant
substantiated
fcr
hyperprolactin
rested
haley
[unused627]
katz
stained
pursuant
neighbour
grand
glacial
costly
inconclusive
##ロ
error
vasomotor
##stle
pcr
reappeared
##lore
anorexia
##acetate
exhibits
natalie
##wash
british
##storm
undes
[unused992]
spiders
rudder
ignored
judaism
p6
warnings
[unused866]
sy5y
169
##jak
##ი
farnes
perception
backing
##icin
diffuse
buds
ah
##itu
enraged
maggie
parliament
[unused158]
shovel
interconn
regards
nelson
swansea
expon
streaming
guise
guilty
anxiolytic
archery
pickering
sixth
klein
bifid
,
genome
clue
cricket
exams
solutions
##egorical
burgess
[unused720]
##noid
whose
##unts
isg
forwards
monarchy
pursuits
##me3
defibrillation
hemocytes
##nies
օ
parry
broadway
‪
ӏ
system
chests
##rology
cub
##arians
competi
oa
maxill
##echan
considered
initially
stere
fleming
##eleton
panted
##vem
ƹ
dermatitis
pbr
##ypsin
conjugate
本
##omorphine
breakfast
sights
##ellate
plasmin
##otrexate
ب
egfr
catheter
feels
##keeper
knees
##itates
tyres
𝒫
emeritus
feces
bye
ticked
loads
scaph
caenorhabditis
##त
pcsk9
##othi
pastoral
painfully
debris
alyssa
##tford
aquatic
##uts
aseptic
suggestion
fork
asp
##dicated
alan
chol
gibbs
##nai
inoc
ultrafiltration
ds
paraoxon
oklahoma
##zan
chemoradiotherapy
charlotte
textual
meningiomas
gulped
##ilol
emergency
wrists
sirolimus
patchy
∑
hexagonal
##ost
[unused376]
yang
annals
encoding
mercenary
##etry
stressors
##む
beethoven
ranged
frigates
##abil
expectations
calcitriol
[unused724]
variability
congestion

subsequently
meng
##ttal
##opt
describe
##eg
larson
emerg
jeanne
modifying
thiol
mpm
pcv
blows
##✓
##etermined
recommendations
resusc
##pta
restraining
implantable
##year
##okinetic
democratic
##mmon
##eux
toppled
cpc
fifty
spikes
microvascular
leucine
inevitable
1985
##ා
mycobacterium
biol
foxp3
brunei
bruise
##rem
nmr
crustace
forty
186
plastered
3t
neoin
##龸
exempt
architectural
sunsc
developers
##azolam
rid
seroprevalence
eluted
##ills
strewn
##opus
registries
nitr
arcs
[unused481]
add
microglial
dechlor
##angiogenic
gaa
##user
gwas
tremble
##icul
##lene
villains
arthrop
##cken
drinking
microspheres
ny
##riety
dosimetric
hugh
##arse
needles
dumping
[unused977]
pursed
type
interferes
##thing
##sy
playwright
ber
institute
infants
##chase
puzzle
##rase
##73
##onephritis
outcome
papua
grouped
##andom
健
delayed
wiping
salisbury
##atrol
##aneurys
subregions
##mv
##ans
nlrp3
##や
palp
[unused224]
femt
##pani
nephropathy
##ostat
strang
immunoprecip
consolidate
##acetic
progressing
elaine
stolen
clinicopathologic
brigadier
jurisd
championship
##osmotic
preschool
##isc
प
plur
adiabatic
acanth
oryzae
wade
mapping
##hul
dictyostelium
reveals
##ycin
around
##ubicin
##elen
tribune
##odyn
plasm
rud
##kla
mackay
hts
⇆
lenal
infected
cameroon
kicked
##acral
[unused873]
with
failures
sarcopenia
inland
controls
cheerful
gupta
compiler
tense
ptt
yearbook
tangle
meantime
##oepid
stove
venetian
##certain
exosome
##c6
zoo
compressed
whoever
lactam
sugarc
osteoporotic
rehearsals
insol
cou
├
cochle
pka
kgb
plunging
unrel
ˣ
supremacy
hers
##ostin
doherty
plastic
katie
protagonist
seaw
bronchopulmonary
particularly
ins
icv
##caster
napkin
1856
chori
क
metabolomic
slug
poetic
possibility
maxi
excess
pao2
cardinals
tremat
vasospasm
broom
piles
investments
##μm
##ク
nyst
sociological
rx
correlations
condition
mao
viktor
chc
revision
substituent
lum
tacrolimus
overture
microp
angelica
nicu
brittany
chanting
ultrastructural
##erme
ensued
kings
neurom
recycled
rendezvous
cao
debate
renewed
##ب
erroneous
france
[unused794]
oxidative
lib
##opathological
advocates
mtx
##rak
congo
ibrahim
ལ
##হ
aspirations
##atars
1993
ѕ
##ests
dictated
loco
glutam
##worthy
unpleasant
binocular
kindly
mutagenic
antarctic
##lman
odisha
aged
sturdy
‱
nociceptive
##illed
serr
greenhouse
scarred
technical
kick
mant
1849
london
##ber
nonsignificant
saudi
kirk
sirnas
crowley
assertion
##ᅢ
b16
anaesthetic
turkey
frustrated
fgf2
モ
keller
wist
tomatoes
##÷
susanna
jer
restroom
video
gangs
valleys
##rized
281
##گ
sherlock
releasing
dormitory
fabricating
##mined
lectins
至
confederation
spent
square
macrophages
hired
arteriosus
avon
georgina
twigs
transitions
creaked
compensation
enti
broadcast
inaccess
acclimated
desmond
complexity
radar
entit
behalf
##fest
effluents
[unused896]
##lutide
killer
ldl
1g
hawke
##gative
##epi
cyclin
booklet
diaster
potential
360
acetic
pp2a
preg
preach
deh
professionals
epidermidis
swine
morphogenetic
[unused726]
so
business
afterward
symbion
operatives
bordeaux
cottages
ɭ
runner
##4th
osteocl
germain
disposable
nocic
surrey
ais
zon
1900
hypoglyc
clinch
backyard
##oplasmic
lactobac
plaus
lincoln
##rance
hive
##odium
nominees
epilepsy
toughness
cutaneous
fourteen
sily
melee
favourites
upgrading
##opharyngeal
magician
provisions
sulfameth
bottlen
980
##anding
plasma
##ement
ी
wire
##pur
##osph
batches
1748
adored
hyperuricemia
adventure
┴
##kas
phytoplankton
innovations
textbook
membrane
carver
fred
relics
pores
cycles
ebna
responder
##kou
##riated
anxious
wales
alkali
clopidogrel
hoxa
gar
bil
revoked
1890
madagascar
speaks
youngest
##isp
##ttered
##lub
backg
deliveries
[unused904]
permanent
silvery
##八
analyzing
collapsed
bahn
que
1756
[unused188]
drunken
##uman
##hop
##osyltransferase
##osarcoma
273
ports
cancellation
[unused204]
##ansh
disorgan
barking
hf
spatiotemporal
inducible
semen
flutter
##か
transm
tnfalpha
now
##戸
nazi
recounted
seizures
chyl
baba
guerre
wondering
ramp
##master
sirtuin
nearest
cardiovascular
2014
lille
escal
pepper
+-
##hiti
immunosuppressive
antiserum
##ieu
sharply
arrived
amb
bone
chinensis
[unused888]
##红
cooper
cysteine
chemokine
tritiated
speakers
por
report
appliances
voriconazole
spar
##ussian
##ca
follicle
erica
##lais
cag
epinephrine
enteral
##k9
##tarian
火
kp
circuitry
=-
consolidated
polyneuropathy
extraord
equals
scaling
1773
scramble
yoko
abiotic
walked
##∱
leipzig
opted
[unused45]
associates
envy
dipolar
upcon
##昭
coagulopathy
grief
rust
##anor
analyzed
mhz
horizontally
##iard
)(-)
barbarians
##tus
rfc
windshield
##quil
ⅰ
##ithi
discrete
melanocytic
cabb
sole
greenish
##ibacterium
pressure

terrorist
##nova
##gow
clinging
endelle
##un
##nant
cradled
tna
―
cyanobacterium
[unused956]
£10
##ory
##trom
forecast
nephrology
maya
fury
prolonging
##貴
auditions
methyltransferases
ln
utero
penalties
##uche
sui
march
t
robbers
whistling
uta
proceedings
recombination
kuala
##ococc
aromatase
##breaker
inverted
iconic
sheriff
bde
[unused121]
[unused752]
boats
karnataka
hms
parthen
phytoh
##otoxin
tolerable
stakeholder
stevens
personalized
tit
[unused700]
##阝
##chule
tensor
tate
thresh
shah
telem
larkin
disulf
ultrahigh
##zos
chord
reconstr
initiate
circus
knights
1930s
spices
##isal
noxious
decomp
advocating
mergers
naturalistic
glycopeptides
##avy
tomato
hypoth
##water
sergei
audition
pus
regulates
myspace
##othermic
scratched
##iya
##sts
##idazole
aminoglycoside
[unused357]
dysfunctional
clube
patents
retin
surgeon
faster
tanks
spasticity
##oin
condyle
mckenna
!
societies
baker
praised
framed
kshv
kazakhstan
anat
##pb
610
formaldehyde
##cks
[unused950]
疒
801
femoral
cytomegalovirus
##eron
[unused419]
acute
##ᅩ
mutagen
##isexual
uw
officials
lysates
##itized
syngeneic
sls
croatia
multilevel
fe
##cture
recomb
▴
##hum
profiles
accompanies
ultras
transposon
##gated
frame
cannab
ontology
##．
armand
##electron
reelection
csp
pyrazole
livery
commanding
cesare
esc
docetaxel
myopic
r2
t3
aestiv
200
014
suffering
fec
##kala
sew
confirmatory
multil
crime
##л
apd
angered
[unused642]
##imbic
##astatic
tegmental
indifference
vertebrate
paraf
meetings
bout
counterattack
##anic
negoti
##charged
seek
prized
offences
##liner
bcs
linkers
polyelectrolyte
checked
clindamycin
johansson
urokinase
194
233
gels
##anus
phe
nebula
surpr
%-
electrod
##σ
##ocentric
##terp
respons
##yro
##ston
impedance
edinburgh
bvdv
prototypical
epilep
nate
##osyl
##dating
jurisdictions
duets
reapers
bangl
gravis
computer
##tablished
mdscs
ゆ
boulder
phag
slap
generalised
exacerb
digits
##crest
##ｱ
amanda
##accharomyces
possibly
coronation
rankings
suic
ventrolateral
##iner
ʅ
berberine
residential
hn
2b
##hre
lend
insufficiency
vibrio
pau
doom
sammy
##ffled
rhin
##∧
ム
bridged
biotransform
і
[unused969]
reabsorption
leprae
intestine
pending
rnai
dist
rcbf
shade
instantly
cricketer
##obenzyl
##ues
в
perm
qtl
ablative
##&
geography
a549
epc
extrinsic
warts
●
##lium
##roscopic
illegitimate
lordship
nfc
danish
uncover
peppers
##ared
##•
stable
m²
##oxidation
tric
##achal
h2s
##eering
mastery
commit
##encephalic
heels
thermally
aspergill
deciduous
##tze
dur
##tanding
obliter
338
marble
##inergic
explanation
##icl
functions
repub
lifelong

##oof
venture
derives
##fin
##endicular
orient
consecrated
duration
coherence
modernist
##bers
cob
[unused482]
##its
##tera
pirate
##metric
intracellular
config
ced
##`
promised
e2f
##oretic
pyel
tombs
plato
##ভ

radiologists
##utin
horns
##phile
400
calendar
qualifier
[unused122]
noun
clones
223
﹛
susp
tpo
hin
conv
edu
##ej
##dermott
##cts
gliomas
ഷ
inversely
tan
ix
malignant
≐
l1
ambassador
##aceous
suggesting
danielle
th2
##onent
sple
bronchiectasis
bioremediation
ecto
devastation
paramagnetic
buy
kines
substantially
aft
##ounder
polyposis
swore
reporter
initiatives
catering
##mini
##estion
drew
##rca
ultimatum
conde
trump
rises
squid
asn
valiant
theaters
win
weed
martyrs
bisexual
tread
sever
##ortive
miniat
##roup
paraph
##uzumab
lambda
norovirus
psychological
tufts
tropical
##chon
mediterranean
marathi
commun
definition
neigh
##omethylation
luz
anesthetics
gdp

graphics
[unused275]
motorola
tolerability
castile
htlv
scale
boss
ign
##uj
##＜
website
scarlett
collapse
come
##ェ
positron
##vn
adipose
bread
infect
##ais
279
##endez
carb
unselected
waitress
##メ
##acetamol
щ
task
##分
occupying
##titution
sj
fein
joking
preserving
slalom
cyber
external
indicates
elderly
☐
treason
ulster
burgdorferi
##luc
##主
tyros
##urf
produces
##fus
##arm
液
vacc
holdings
augment
potencies
west
##rah
ߝ
##main
dsdna
enforcement
polyomavirus
empires
untouched
##dara
##lip
##if
##may
:
##low
outfit
logan
neoclassical
p16
beverly
viewers
##3c
##gp
diagrams
##cco
indexes
stayed
##omba
rivals
famed
noted
##mable
hypertension
endpoints
acl
rusty
mallory
embr
huv
sax
facile
##unted
neuroanatomical
deoxyribonucleic
albeit
[unused694]
ₛ
]).
##ondylar
rallies
##osal
brian
dorchester
iced
javelin
hym
bray
crypt
ca2
##ocytosis
domingo
valent
above
ে
distracted
emphas
bronchoconstriction
##tres
##
rations
bb
fallon
lydia
montreal
grammy
countless
kaladin
neuroect
varus
created
reasonable
##bery
liza
##nded
utilisation
settles
corresponds
eva
graffiti
westward
[unused533]
trif
[unused742]
mixed
##lda
rpg
condyl
##39
[unused647]
1829
##ipes
linc
diagnosis
[unused919]
autistic
eut
[unused140]
absent
spectacle
レ
wraps
briefly
defect
yt
enlist
phenylalanine
periv
madden
gen
##agues
##ophenyl
clinched
aztec
plga
##lycerid
modes
insulting
excip
subsp
##iah
pharmacogen
1761
1746
chung
mmr
encompasses
nature
gay
lucius
blinds
pthrp
dmi
sphingolipid
stuffing
outlines
##thral
locating
stella
roughly
suburb
##anone
fascia
epr
chico
activations
pitch
44
omp
midland
##jon
shaky
helping
##uf
থ
fallout
panic
##uistic
solidarity
synchrotron
entities
mama
worthless
polyploid
aim
plump
pyogenes
##utnant
##颗
sponsored
dean
elder
masters
abraham
womb
swimming
methane
acclaim
##extraction
##ulis
suggestive
sunderland
swallow
protons
##pert
cryp
##omp
##iatal
თ
immunosupp
neutrophilic
collegiate
patriotic
isabella
except
##riation
capacities
leto
commonest
##lc
vittorio
##ovascular
duplexes
bms
heart
airport
prof
biomolecules
[unused1]
brainstem
ppc
song
troub
enantiomeric
exempl
duval
##sio
ifns
biosynthetic
[unused980]
carlisle

intrad
meadow
gestational
##load
##三
1800s
##olic
##mr
campbell
colder
##wes
##teat
bonded
nosed
ล
asd
##bard
##moral
##ى
##≍
foliar
glass
immunoglobulin
circums
dosages
annually
involv
displacements
advocate
sud
##align
##ipa
##graphs
testify
abuse
hitler
varicella
##iber
asbest
biocompatible
radioiod

queer
igm
##ognitive
##egm
##rys
iol
reform
##iliac
bullying
hyperkal
broke
##tal
brick
schw
tubul
beyond
merely
colon
¶
##entr
dysbiosis
mcg
exited
bri
##gb
ves
ecg
##yrene
discussions
scarce
1934
unpredict
clarify
rsa

polling
tetrameric
significantly
distinguish
neural
coatings
confirming
sonora
##03
abroad
],
madame
mutations
naive
eta
every
organize
##3t3
deferens
treaty
rejoin
specifications
periodic
saxon
joan
[unused563]
attenuation
contents
commentator
guitarists
dopa
reference
abu
lead
##tiana
##plantation
parkinsonian
crim
processes
donations
stature
##pher
##lva
##157
##feld
convert
trieste
##yk
exper
plate
##མ
ensemble
＿
media
plaster
203
prednisone
stz
lar
middle
siblings
##tinib
kinda
shrug
lobster
trichloro
lakes
overlaps
systems
insult
feet
diarrh
uterine
lovely
playstation
ams
travers
establishing
approve
jonas
carbamazepine
##eting
humor
lucivar
synonymous
##block
##ect
##ril
##tive
criticisms
[unused868]
e4
organismal
lifestyles
mumbai
staggering
##identate
adiponectin
eryth
##ection
##arin
##lamed
women
##tch
confederate
columbia
##hexa
historia
captive
geo
shocks
hills
』
adopted
floyd
##龍
anton
##ogold
fri
unemployed
1604
##icip
##に
formate
##ounts
domestication
##ook
##ɛ
##etamine
circumference
racer
misle
galway
cater
cascade
reuptake
railroad
orleans
vasoconstriction
attacking
affiliate
ґ
graeme
robson
argyll
pear
calculations
potion
superhuman
relaps
fireworks
peptidyl
maladaptive
[unused565]
profess
##incial
##ried
arrangement
ctla
transmissions
1782
args
nms
rv
endoscopically
endoscope
bod
carolyn
##ess
aminobutyric
doxycycline
tmd
cw
approx
acinar
mineralization
electrochemical
corpor
##architect
brussels
strands
laughs
benedictine
##uti
)).
mesenchymal
recurring
##ilament
mediastinum
mythical
fei
prologue
cornerback
ɹ
chimerism
##occ
168
ile
##pool
pharmacokine
cad
leiomy
metastatic
kainate
pharmacist
warring
sakura
spr
retirement
1799
ducts
responds
barnsley
asper
stefano
gastrost
seminiferous
nanofib
nonpharm
blitz
fabrication
diverged
##olide
compensated
predisposing
bequeathed
##宀
##ʒ
operators
省
nv
hostilities
cycloh
##d3
spondyloar
##bas
"
transistors
##uretics
flicking
inner
合
roof
leah
memories
southland
1813
escapes
##hang
caden
anion
resigning
palladium
fulfill
##ichia
idols
terminate
##osom
gdf
thumb
pediatrics
##kin
##ilateral
indianapolis
mandal
comput
but
##ver
coculture
planted
##ison
parat
ashland
bracelet
repress
##oeae
shiny
seduce
1688
quality
ral
expertise
enl
royals
##echanical
esters
trauma
1994
sorg
##ancy
positive
aminoglyc
searched
##can
causality
½
analogues
bpy
unfolded
cote
journey
metropolitan
awoke
##sma
rouge
peking
asperg
scooped
armenia
amend
abn
settlers
darius
shots
##sler
cakes
degranulation
syrian
bacon
became
payroll
rica
ˤ
continuum
douglass
river
##nary
bnp
##verage
challenged
##onium
strokes
sonya
᛫
disagreement
##神
asc
##06
adenoviral
chb
cb
##heart
1754
americas
tem
##bps
telangana
immunotherapeutic
triticum
descends
geochemical
intuss
deserved
dolores
backstroke
influent
obligation
konrad
##tino

peshawar
##amoeba
forecasting
##ined
stubborn
##ｓ
nathaniel
esophagus
gall
hypof
##osurgery
apron
clathrin
confuse
breastfeeding
osteotomy
##tially
♀
##all
c3h

rana
##漢
##ayed
gp
devil
gj
ranks
actresses
implementations
enriched
worries

endodontic
flavor
grown
neuritis
##b2
mediation
configurations
dane
realism
##iculata
[unused958]
vampires
##ipine
cyrus
confronted
commercials
slovenian
##lid
cheney
scandinavian
plasticity
weiss
torre
uphold
reactive
hypothetic
fusiform
ᶜ
##∀
anticipate
correlation
kelsey
frightened
grapes
fif
rodent
##enter
padma
sns
hearing
necessitated
blockade
encouraged
pike
pgf2
decl
##vani
admitting
smoked
define
arres
denies
ultrasound
[unused110]
beams
##nami
vagina
cc
rds
cases
schem
"-
abd
seropos
fac
cd44
1847
traced
##rovers
gos
bi
hos
##feng
huey
want
require
##bell
##bert
##ows
weak
symphonic
examination
ɂ
stare
hindus
josephine
##cycl
bother
##med
##vil
redesign
mrnas
inflamed
##ℤ
foxo
peculiarities
##30
1600
pointed
cello
uniaxial
worcester
whereby
including
sequences
eucalypt
intergenic
pendant
fuji
##nsky
cabbage
ercp
betrayal
ileum
##bumin
ᵷ
hernias
##ط
propelled
swords
scholarship
mdct
desired
uridine
cul
experimentally
predation
##pheus
£1
counteracted
##tine
covert
acceptability
td
zym
quivering
persian
[unused359]
creed
hemophilia
##170
oldies
hepatocarcin
alexandre
##otency
indication
##ether
ih
dismut
dragons
surveillance
plateau
lncr
interch
positioned
germanic
stretched
operon
##nified
##llen
stay
##sulf
prohibition
photographers
—
##sch
tipperary
busted
##round
six
accessory
##tilbene
augsburg
⁄
##yed
enthusiasm
##person
mate
admiring
י
ps1
finger
sailing
duly
descriptive
discussion
##iel
##sable
oppose
editions
papers
##ｏ
catalytically
##press
inefficient
hypercap
autoreactive
chaplain
##戦
une
xer
representation
clashed
##⇄
benchmarking
horseradish
plethora
vaginalis
##oneous
##gman
##cel
datas
cavities
endotoxin
relations
trustee
gesture
##boarding
iceland
raining
bras
teens
conductor
photoluminescence
continuously
angela
emg
drafts
eligible
failure
circumfer
johnnie
eugene
##puram
introduced
elk
tenure
polite
[unused335]
##otoxic
##entif
diam
veterans
trusts
weakening
##onduc
##lies
abducted
throat
cones
##a1
acycl
companies
##ically
ebv
dw
##opoiesis
anabolic
##een
westphalia
gir
##ogue
incontin
profitable
transaction
##ech
pdms
attit
##hydryl
occurs
[unused632]
hampton
invade
organized
曲
incorporation
johnstone
opto
morbidity
peterson
t1
##北
hemostasis
combinatorial
alleging
(≤
inters
multimodal
##idics
messengers
bom
##ipp
sens
neglected
prolifer
drawbacks
lignocell
[unused847]
tuberc
##oise
andrew
modeling
themselves
growls
##uted
weaving
brown
##oblasts
##gong
sort
mister
\
selenite
maui
creates
mitochondrial
lineman
gastro
##城
odd
advoc
##represented
equip
mariners
[unused976]
##ت
aeg
thz
tapered
[unused730]
bot
punc
ronin
pant
panor
bradycardia
groove
beth
salsa
midgut
hypoxia
advocacy
bedfordshire
shook
vimes
##ersion
wished
ᅢ
antarctica
nitroglycerin
defines
hydrochlor
signaled
decatur
##talk
contractions
irid
subthalamic
cfa
essen
cochin
broadcasters
ingram
outper
##ostatic
whichever
tierney
##せ
hmgb1
thior
##cep
irre
ellison
ɬ
##overs
##ified
##pl
winger
horde
lopez
worried
myocardium
confounders
##ican
1970
illustr
⌀
##articular
##ility
swirling
salim
waist
##odialysis
chesapeake
celebrate
pens
acromegaly
[unused492]
kurt
##lee
suz
transporting
dail
##ᆰ
tendency
versailles
[unused247]
precl
date
darrell
⋍
electrom
audiences
rooster
walsall
shapiro
almost
flocc
frost
##meas
sonographic
monovalent
##花
ld50
[unused408]
都
##ogu
##sil
carboplatin
lacy
%).
mason
tsa
##uppe
##uloplasty
##sberg
##oft
cornell
typh
valuable
dde
mtd
conductivity
##q
suspiciously
foc
deadly
##145
##ᴹ
commendation
##ases
##isons
tumorigenesis
preb
##terase
nanotechnology
norepinephrine
[unused864]
spec
##of
ren
polyethylene
##iga
immunochemical
##ations
##q11
styl
evolutionarily
hating
oxygenation
cohesive
##arp
##inn

[unused613]
##vino
gel
##mith
summarise
ⅹ
##rkin
pulsatile
structurally
sired
descending
give
physics
race
rods
##aton
welles
second
##ients
osteoarth
##anat
loft
claims
scared
ff
##ellow
incense
beach
guarded
lodging
##ellar
osborn
##oxia
househ
##wing
flattened
sentences
nursery
castration
isole
fiery
##sse
##backs
typhimurium
khz
interested
rosie
relapsed
##avio
vimentin
小
##cn
##シ
blacks
camille
intras
ultracentrifugation
sioux
##cement
atcc
instrumentation
intentional
meningeal
kidneys
uncharacter
志
eia
##ddled
bca
##itum
defl
promoter
squinted
blackish
adoption
allen
oscc
p38
neurogenesis
anthologies
hydrolytic
triangular
midlife
##plex
antioxidative
cue
##iciting
##truction
##folding
strolled
osteopenia
##ubertal
##mo
anteroposterior
menon
##宮
rhinosinusitis
##oxifen
densities
[unused686]
[unused75]
incen
##ulla
designated
##ls
glycogen
##helm
ք
non
##iec
[unused489]
seeking
##ycl
appointed
chesterfield
personally
melanocortin
osmotic
matt
outlawed
##є
primer
margaret
##folia
##inositol
distinct
climbing
locomotives
kitty
agonistic
cytosol
ked
bite
##kushima
museums
slots
smad4
##otomized
.]
exudates
connie
##ogenic
mtorc1
blu
##wehr
129
ambition
kincaid
settled
serviced
bry
supram
heroes
anaemia
fossil
1500
scripts
##xley
化
executions
groan
enzym
##gui
##ioms
ষ
gram
kendra
intending
parana
##rmed
##psis
##zell
cramer
acidity
owned
probed
preced
##chool
mev
sows
bassett
##ru
goth
cot
hpmc
1725
burnout
neal
myositis
univers
##obil
ј
assessing
shang
avid
denatured
##rocytes
acquired
chik
fish
undetectable
underneath
[unused8]
pbp
unaware
seab
etc
##omeres
touch
already
##lle
p450s
pest
213
##insic
umbilical
stoichi
[unused618]
##ici
nanor
apap
tcf
basically
wyoming
nair
##cinosis
rheumatoid
⠙
lpa
##pread
splanchnic
biphenyls
thrombi
plaque
betray
glanced
harshly
rangers
compon
dom
agrarian
nigrostriatal
spectator
confident
##
ւ
[unused241]
leopard
analogue
postm
nils
##lice
brucellosis
trust
telephone
bled
##uding
ae
microbubbles
porphyr
volley
世
shakes
287
brushed
charismatic
clonidine
[unused120]
chick
##laid
cosmopolitan
committed
alga
##erton
##ᄂ
metagen
laurent
##read
-/
pyrolysis
##rad
theran
chemically
rad
choke
##tson
##ucid
threat
partnering
颗
bump
辶
mongols
toss
shot
watered
landed
ein
molded
ɖ
deoxyuridine
ldlr
innervation
temptation
clutches
##etts
flax
your
##zawa
genealogical
giving
inexperienced
millennium
newly
paramount
dessert
intrav
semiconducting
legislatures
sb
oder
hydride
archived
where
ingredients
observ
##ett
rosalie
##stad
thapsigargin
##74
dihedral
microvilli
##scope
249
retinoids
黃
##ointing
見

icam
adrenoceptor
boards
argentine
greeting
penal
[unused210]
schizophren
exchange
[unused138]
1932
origins
scleral
[unused37]
cult
khalid
glad
inadequate
##osoma
guillaume
crossl
##lty
papa
1771
emphasized
normotensive
brewer
##ssar
persona
painters
exhaustive
https
[unused400]
asserted
resting
bros
activity
wellbeing
##bos
microspor
︰
325
endosomes
ethiopian
sanford
ℛ
restraint
oscar
##izes
tipped
kilometre
wider
tolerated
assumes
##pins
och
##weight
rev
fee
cleaned
cdh
proximal
berg
hemodynamics
ɫ
∕
intron
shropshire
suv
##itect
ctc
ccl2
contradict
abnormal
themes
galv
[UNK]
refract
[unused227]
brain
ibv
division
rehabilitation
##79
elab
trojan
[unused472]
invested
)],
[unused649]
softball
stimulates
##ology
stepwise
repeat
volun
##azem
startled
aur
settling
impair
##cous
bridgeport
1890s
linc00
realizing
microphone
##itch
blacksmith
scaff
clearing
##sl
subsistence
##?
beh
paraventricular
##tier
graphs
##ximide
##ulence
collagens
contag
##也
##ulata
定
##entang
listing
##cala
assassins
jur
specifically
memorable
t4
entorhinal
##cor
##rett
pa
achievable
david
##ग
erik
estrada
annotated
foli
sympatric
▬
measurement
##uish
ط
##y1
locations
sjogr
eros
mount
distinguishes
scouting
naproxen
postn
𝑝
enemy
##nse
instrumented
##stellar
##rum
《
##rano
ddr
dextrose
gotten
lynx
##lofenac
##10
sg
neurofibromatosis
mtb
encyclopedia
endangered
##rdo
compr
calmod
hug
executing
aryan
quiver
channel
ev
##al
fails
##ל
susceptible
[unused851]
positives
grab
##stra
##ports
jayne
##transplant
mt1
exploits
sized
loci
permeabilized
chlorella
khyber
supplying
mmf
[unused17]
cable
intramural
stadium
cit
##dant
##shore
screened
##⁺
##istine
correspond
##jack
dodd
##oconazole
heating
merger
wren
##22
vapor
mm
##oquin
cemetery
shortstop
ahr
childhood
phenotypes
[unused745]
##elic
tempting
flourished
い
##rling
attendants
vide
tp53
champs
obedience
armenian
1950s
scooted
euthyroid
titans
##uximab
nationalism
ฟ
designs
##cytidine
steers
tumble
unit
hexyl
similar
dread
##lv
##ioned
gonadotropin
notices
robbie
##idinium
[unused137]
dump
##hydrox
limits
vfl
mcgraw
cloth
synchronized
##ে
dapt
n2o
olds
radi
puer
ე
does
##hs
platt
(®
##tex
supplemental
##dote
herpesvirus
##sco
blanchard
injustice
awa
judgement
##inyl
[unused838]
costumes
giggled
##ilities
astor
communists
##leb
occult
gonorrh
constituencies
eyelids
##capes
breakpoint
##enzymes
ligated
amygdala
flows
covent
mog
contractual
ureter
mussolini
mellitus
job

##icile
opposed
bearer
##retinal
chi
bengal
watches
##♥
##atechin
beneficiaries
##ac
ф
influenzae
np
##olol
tractors
flirting
##functional
##brom
##cre
##tation
emissions
inhaler
cyclophosphamide
kashmir
congru
lust
pontiac
denotes
pry
commits
##ধ
faso
pauses
##oming
debrid
unequivocally
spartan
eae
sue
##pw
##andibular
[unused625]
##cing
affection
##unt
红
sesame
##ocrit
breuning
essays
334
outbreak
fast
##ris
##shida
photon
##ʾ
ec
penguins
programmers
adherence
rubs
contrary
##յ
##akh
##hini
doctrines
cardiology
restless
scanned
##
murderous
##ut
##onitor
##tle
governmental
icr
##igate
status
announcing
[unused576]
[unused740]
stated
shedding
##acting
woodland
##llum
seize
roundabout
electros
install
gareth
corticosterone
tablets
submissions
##＄
regiment
[unused713]
dental
runs
confidential
##iidae
##②
##legic
男
artemis
allegheny
##wd
human
reversed
##umenting
stumbled
trustees
twelfth
hernandez
[unused232]
examining
60
indoor
especially
monozygotic
comparisons
grp
includ
logical
es
granulocyte
‭
proving
##othiaz
##iation
##ghi
##ٹ
cryop
amplicon
analy
microscope
⧧
facilitates
oxygen
ming
hypertonic
##э
##orthy
dpi
chromatid
costume
serie
ة
complexed
##ppa
##/-
ox
reuters
transposition
##ι
titles
baldwin
eliminating
##ව
##amole
forbidden
integrate
##yl
foetal
eralpha
presentation
183
clayton
depicted
1961
##imentin
property
jerk
meningitis
kelley
tenor
snatched
perip
松
##iptan
nh2
##als
rotating
coast
newport
sketch
[unused82]
photochemical
3s
catalyst
pbmcs
##arily
##yday
once
381
pex
inappropri
sta
prepro
##smith
fluc
lenses
uneasy
##ulton
##opp
cci
scratches
cola
##arcin
ngc
[unused778]
freddy
pren
inverse
linearly
scanner
cyclodextr
santana
competed
glc
treatise
longev
rfs
resuscitation
f2
linearity
returning
softened
##ogan
hypochlor
viola
applying
clav
plagued
functionality
kernel
nonresp
dispatch
salary
experimentation
##iad
neoplastic
ouabain
heron
kilometers
blackpool
immortal
512
interspecies
vasculitis
whitney
##bes
stucco
1917
cracking
tristan
interesting
blouse
crap
friend
fitzroy
inducer
𝔇
undead
retrieve
exacerbation
phased
concurr
formulation
constellation
complexes
case
bsp
townland
weddings
avulsion
tore
urothelial
##aday
##uck
absorbed
aunps
##◦
ratio
##ennial
##wani
##itaire
greaves
gonads
##oflurane
t2d
##mento
##inform
lawful
smyth
phage
costs
bol
##lf
##yre
whipped
disbelief
wanderers
ascension
petra
宇
benchmark
transfusions
glacier
bent
##rrier
chlorpyr
##ancer
##ammonium
##quin
##˂
花
neonates
##empl
reunification
herald
lymphaden
baroreflex
fet
estimating
diurnal
tor
##arty
e6
overcame
organization
mushroom
sirius
##汤
##endous
ʈ
disruptive
##inski
##چ
𝜃
##dling
##onous
hyphal
montenegro
epidemic
contributes
traff
[unused946]
##mun
##ҫ
##≃
vigor
##ophilia
∓
##layer
⁁
wines
##া
jewels
phosphoryl
separate
beautiful
neatly
##ructured
vo2
telecom
ו
jimmie
histopath
neuromy
##ey
bitch
##ethane
lignin
##therapy
##days
casualty
##x5
macroph
diaph
adopts
regenerating
ju
hips
injections
saratoga
dac
##otecan
shrubs
aleppo
greensboro
attacked
encircled
colleen
molecule
diis
dihydropyridine
##oxide
strides
procollagen
epis
##ikh
bentley
##ahl
[unused143]
haploinsuff
switzerland
##fv
overland
##enzyme
isotopic
clicked
(+/
gables
pertain
demolished
malaysia
cannabis
relatives
##resh
##ocerc
rosa
thymocyte
##llis
##hore
##∷
trichin
cler
chest
detained
##inum
##bha
hydrocarbons
voltage
fluctuation
##imeric
travel
venoms
##skie
passes
##ational
ns
pron
##ѳ
infr
can
acknowledging
ventured
xyle
##plc
antimon
nifed
##akis
pige
glibenclamide
##adic
##use
log
##ression
variously
coarct
resistant
hey
homes
engraving
##quis
ezh2
cyanobacterial
migrants
lowe
良
phenyleph
laun
##द
##aspinal
settle
sloppy
macedonia
##boards
##kovich
endomet
commiss
##trates
iata
rounds
monsoon
mehg
autosomal
##itamin
crosses
bypass
boosting
etched
paragangli
##retin
pdac
##anserin
gloom
thankfully
mdr
##astric
concacaf
eis
epithelial
stairway
mononuclear
##32
elects
inactivate
creative
centimeters
##▼
bar
pine
hypertrig
stricken
[unused666]
stairs
##isting
spit
aldosterone
inductively
timbers
peoples
dani
∸
pulp
luton
minutes
inclusive
carole
staffing
colp
##ply
headache
clearly
ldh
rainy
modifiable
aer
##arboxylate
##gence
outside
##atism
cd86
cmc
hydroper
cannon
keynote
[unused392]
inferences
oskar
[unused641]
memory
ornate
##rde
netball
1776
decree
fans
##ellites
predict
policemen
sutton
my
##vel
paracrine
gustavo
kathmandu
erin
driver
vinci
##ditional
caa
someday
##hit
bauer
##iological
mah
devastating
pss
least
proportional
##ners
hern
competit
cadaver
##amous
bender
##yltransferase
kaiser
mercantile
##inda
stripping
consecu
gata
##voking
fluores
carrie
jesuit
nexus
pneumoniae
hyperemia
rcs
territorial
##⽥
javanese
crops
arrhythm
binge
ic
columnar
minas
settlements
slightest
fluoride
##56
superco
[unused98]
fallen
subsidy
tentative
##rle
noticeably
conquered
##oglut
pleistocene
advise
##suka
convergence
##ｾ
bleed
##kind
##ingen
invent
della
wig
custom
hdl
##²
restorative
秀
##..
##eic
##anning
##enclamide
gastrocnemius
policeman
prowess
##vertebral
saved
bleeding
##ief
lymphedema
multiplex
recruited
buffet
quasi
ɒ
isoth
nalox
edent
treating
1016
##tv
##ouracil
hindl
wars
lds
diary
##zin
discussing
hove
๥
bifunctional
decade
rookie
strung
leiden
millennia
pcb
comets
oliv
##ello
infirmary
##ophobia
##v
rand
##mons
molina
identi
flores
cleaved
1906
270
##cian
##pen
hoc
shelter
##ケ
east
##osap
の
digested
bust
navy
##ushing
facilities
##natural
benzimidazole
psychomotor
sheridan
##oshi
granule
jazz
##cher
rebirth
clips
meningioma
bleomycin
rejuven
[unused650]
scented
directorate
[unused793]
hammered
radicals
##yel
dragged
building
popliteal
amara
diffus
shapes
timothy
##db
tubal
##astin
cummings
teenager
##elle
microfluidic
bowl
multimedia
randolph
blastocysts
urethane
machinery
ィ
##iver
interm
normot
ethi
medicaid
negatively
references
uninfected
carson
gore
##ima
opc
##102
bollywood
availability
##艹
admin
snapsh
cambridge
distraught
inventions
pann
coma
issn
party
bourgeois
##iatus
fep
expressions
happy
##iguous
artisans
[unused105]
subcortical
##crip
regulated
hoover
##ocystein
[unused371]
[unused901]
hund
celebrities
##fy
unmodified
virgin
urine
headlined
conclusive
acquitted
96
gaseous
##estern
decreasing
estimated
trunc
216
gurney
clair
remainder
optimize
阿
##emoral
singular
lipoprotein
lamivudine
el
jars
entries
opposes
latham
intracellularly
ross
albuquerque
##内
##5
真
##robacter
##―
millisecond
##lio
lam
photographs
magnum
tetrahydrop
171
rotterdam
ofc
standings
lasers
feedstock
##xime
##nel
cd34
standing
violet
utr
prosperous
p24
fract
endow
##ӏ
[unused975]
##etrahydro
penile
imposs
fats
hats
zoe
japonica
##eve
pdf
antibodies
syndicated
##amo
##blast
stephane
conductance
terribly
darkness
tugged
yin
posters
shrine
nintendo
saturn
advant
wendell
peugeot
##olitan
##opically
vinyl
manipulations
##o3
operatively
superconducting
collect
##nar
hyposp
##ged
ribose
dehydro
waveform
transpor
exo
segment
decorations
wyatt
julio
colourful
lawyer
tuberculosis
##そ
gsk3
acinetobacter
afterwards
##gny
##son
ros
embroidery
taiwan
sobs
[unused849]
lawsuit
downstream
usd
wo
onto
insists
genie
pets
afferents
ridley
coloured
016
##ᅪ
rim
billions
##yang
proteoglycan
livingstone
##oxylin
trypsin
##ン
##tinine
byst
bandwidth
##v6
peered
insensitivity
efficient
##ァ
insulin
footballer
assimilation
orbitofrontal
[unused440]
##‐
##rosthesis
microtub
elast
serology
rockwell
sympos
theophylline
[unused4]
dissect
vichy
##oses
paso
totaling
enal
246
inhibitor
finch
##ullary
[unused761]
##eti
blazers
husband
##lland
sore
[unused681]
##ios
balkans
##tein
honest
top
distortion
seasoned
caloric
uv
recaptured
controversy
namibia
lymphadenopathy
##igo
##،
weapons
basidi
archaeology
lexi
su
dimensions
oddly
##ochem
bacterium
hb
legends
vanuatu
opposite
schist
asking
helic
##jana
##‌
##americana
depart
rabbi
##osynth
archer
flt3

[unused989]
abdul
companion
##oglutarate
charters
photodegrad
glycine
article
inverness
germline
##ptomatic
xr
伊
apoc
##版
propos
dissolved
complementation
pda
##ט
herself
lutheran
52nd
employing
##idia
document
predecessor
smaller
ashamed
stomped
psychosocial
lambs
shuddering
virulent
retinol
franchises
ferro
preparing
contested
harlem
vitro
nontoxic
late
offspring
glucuronide
passageway
peroxisome
lit
410
knighted
##264
roasted
wolff
247
##
somewh
##enteric
nucleolus
painted
cautiously
cuban
lor
witches
[unused242]
brunswick
hoarse
32nd
##yd
mpc
gunnar
mountains
tos
claw
pray
controllers
counc
shadow
##ograms
alkaloid
##idases
fmol
resembling
##ifferentiated
criminals
swamps
##ℓ
##acchar
##cl2
nottinghamshire
intruder
walker
servant
ｘ
bolts
grips
likely
ս
hemodialysis
maynard
retinopathy
predefined
protesting
pretreatment
##izo
pict
##yala
carbonate
riot
presump
sentinel
‴
dut
amplification
##cf
puls
cornish
niece
grasped
competitive
conferences
morphologic
initial
configur
dies
filthy
patel
##partic
zagreb
##iella
##ո
leaking
item
denial
duplications
inbred
putrescine
[unused389]
joanne
plag
prk
vegfr2
cited
malocclusion

myopathy
ibm
##gg
mahal
pomeranian
##𝑎
ی
artillery
bacilli
contact
preliminary
cavendish
##entation
periprosthetic
hmg
scarc
ducked
##52
𝐤
lup
##ഠ
repeal
##fight
expenses
starters
modulations
unrecognized
##≦

swollen
##／
##odial
leinster
inconsistencies
dunne
undrafted
outfits
sgt
recounts
pvp
1729
titre
pig
transcatheter
##medi
newmarket
mainland
dispersive
inducers
neurites
##uities
salute
010
##ⁿ
nuremberg
lilith
esp
field
yeah
##oxin
fura
dancing
apl
##eras
℠
purchased
conscious
gait
equil
african
liquidation
bland
[unused762]
audio
curate
yard
regent
l
maneuver
main
##zym
shandong
##trans
##zz
##aniline
##rl
myx
##azoles
##ffin
indometh
nguyen
outsider
merry
fabulous
##uity
##kumar
ian
dough
florida
dropped
anita
throws
oncogenes
##a2
##ecium
summ
was
soluble
christians
intersti
##pp
handy
naoh
##↑
exhib
##tang
##arach
##サ
blaze
carcass
leishmania
instrumental
baptised
amp
logistic
sincerity
diastere
##val
convenience
##vill
##oplastic
functional
simply
postprandial
curtain
⋅
deviation
[unused912]
suggest
##kh
montpellier
goaltender
相
fooled
dietrich
suspicion
ghosts
coincidentally
cellobi
ganglion
edta
upl
##miya
criticized
auditioned
avila
freely
astroc
gover
##inton
to
capillaries
harmonica
2m
vineyards
multicomponent
aat
modulators
heterochromatin
blast
##aper
##⋝
interindividual
inherit
raged
grey
amphiph
pretty
occlusal
offence
proteoglycans
hilary
amherst
narration
pel
shunting
mgo
unbiased
tractor
libertarian
repolarization
mthfr
hardly
amin
topoisomerase
scotland
proteasome
deutschland
##kulam
sphincter
[unused332]
##omeric
ˆ
ownership
progestin
##urbs
江
##dda
tympanic
nighttime
mcnamara
nach
giants
color
alkal
hurts
shrewsbury
quan
##ectants
suspense
pif
nesting
dich
329
city
distorted
ambassadors
regio
issuing
pushing
specificities
russell
storey
##ocks
precinct
¯
ᆸ
auguste
eritrea
art
rubella
##odeoxycholic
legion
atmospheric
miracles
hostel
##ove
rained
rts
extremely
centros
concealed
bromley
##itzer
preinc
glued
wrestle
##t4
metformin
manufactured
##lus
posts
strife
represses
redwood
skies
##iring
ews
expresses
vulgar
gaining
profiling
alpha2
providing
##vi
##pling
##gran
corroborate
gordon
##wald
drinkers
destined
virtually
misconduct
mona
beans
э
##hm
moe
adele
##quine
espec
##thood
prost
##ict
(±
##tics
yellowish
posting
##edes
practised
salon
aquitaine
must
fixtures
announcer
marguerite
dreamer
myd88
##bur
alopecia
dair
brunette
##enk
##agne
satur
##media
##rostr
manif
enrolled
mutans
excitotoxicity
enalapril
##eak
boltz
670
ruled
aspiration
bullshit
##ologies
itf
hsa
##systems
[unused604]
##folded
fibrillary
olive
1806
attainment
raphael
##國
##othre
cartoons
thc
pediatricians
ℓ
sulfonamide
ancestry
2000
vacuole
resemblance
zr
oncogenic
afghan
sequelae
proliferate
pow
rivaroxaban
biting
য
##vive
dece
sinks
[unused652]
insp
decontamination
paired
complements
myanmar
appointing
ret
shortened
nitric
##monium
み
##bold
interpre
moldova
npp
##crats
hemoglobin
vocalist
##acylglycerol
##orescence
sited
garment
pigmented
##cular
upward
hbc
payments
##mpton
nonl
rectory
∶
corals
seques
aspen
##tida
1876
endometri
osmolality
wreckage
falcip
cushions
[unused128]
##18
bandages
throw
aminotransferase
ന
overl
inquiries
gluten
##isia
crore
##titial
intraductal
reper
etiologic
stein
colloidal
aldh
based
consists
counted
##bian
stan
stratif
##enoic
hallucinations
binoculars
proteinases
##₋
ageing
jody
successor
owners
##›
ণ
magnitude
registers
budesonide
perceptual
garden
infamous
brilliance
simulator
gradients
synergistic
##alasin
disappeared
infarctions
##trix
##atal
extends
teachers
edges
predominantly
adventurer
osteoclast
##belt
##elly
cef
discharged
bolshevik
ginsenoside
##aphic
supermarket
developmentally
turbulent
slapping
pieter
##nessy
reasoned
reserve
vincr
worrying
128
imposing
ignorant
##sus
industry
requires
##miento
laura
##idian
xbox
sponsorship
conflu
hounds
supplemented
confederates
touchdown
eaten
alright
permeation
##hered
quadriceps
factions
taste
sponsors
levofloxacin
##nder
nig
keratoplasty
dispatched
sos
##rney
vw
horatio
undet
sio
##space
kai
italian
##cton
compact
approaching
##գ
##胶
prere
fetal
inspect
##epress
##terior
ש
enterprise
##phal
behaves
##screen
6b
owing
bidding
##ersonal
algae
488
spinning
##ocarcinomas
osteocytes
style
loan
czech
chicken
turnout
feasible
monastic
lahore
groaning
interviews
gond
尚
asparag
028
san
thoroughbred
coalition
widespread
fer
cathepsin
replaced
##put
offsp
nom
##afil
socio
[unused300]
ambushed
complications
liechtenstein
conversations
mozambique
colton
sou
affordable
translational
crewe
o6
##ploid
interdig
##lation
intersects
minimizes
mayoral
##hay
periods
##ह
ĸ
##rill
electronic
anders
⑧
##□
1851
arbitrary
tunis
##ϕ
cassette
mirrors
equity
##ト
homocysteine
decomposition
hinge
ncrnas
crust
multiplied
preferably
specialised
exceptions
locomotion
century
b19
creek
smacked
υ
secretaries
biography
fib
regulation
calming
kj
observatory
emir
mice
eel
reformed
##haya
lacrimal
亻
vitre
cytoskeleton
nonstop
lurking
[unused628]
∪
alessandro
chase
lub
navigation
discrimination
##w
##imb
reverse
##ocus
mammals
encapsulating
dunedin
reece
chemilum
[unused799]
valine
[unused833]

##iders
tottenham
outs
instincts
qc
##jah
attending
burgdor
intrahepatic
004
書
oophor
regents
ccl
som
##opathies
gonadotrop
clever
##onucle
spp
dithiothre
limbic
myocard
chor
polycystic
##lycaemia
390
messaging
croydon
fecundity
##﹑
##over
##roid
oriented

para
##wyl
vertigo
weaknesses
donnelly
dowry
med
##vered
carbons
hypocotyl
glendale
effort
illustrator
##omon
monolayers
effortlessly
lights
opposition
##ccus

japonic
infiltrating
##right
cycle
protested
##gos
sources
##is
fragments
##uries
harrison
sheldon
scan
rumble
cotransporter
scler
##lei
tangible
heifers
gynecology
##kney
epilept
waves
dephosphorylation
vertebrates
culex
stake
dispers
dissecting
yeasts
nicky
[unused957]
lauded
[unused880]
casa
earning
25
intellectual
lawn
1908
##escens
bordet
primary
feed
induction
bahia
boise
measuring
[unused403]
##openic
emitted
subspec
extubation
copies
lancashire
ganglioside
whitman
##tter
villas
##edly
welcomed
a2
880
isotherm
mcf7
surfactants
imipramine
hatred
[unused789]
##都
bmd
meniscal
##ム
dormant
tony
convinced
##∓
president
ed
iphone
##ɕ
##merc
ans
plug
pva
activates
formulated
bst
thorne
cardioverter
gem
[unused161]
chlamydial
1775
flotilla
ᅟ
##tist
compromises
rios
sublux
sheet
reservation
eq
19
cxcl12
higher
colonization
madonna
maturation
##ylaxis
##sky
##iiod
knocking
thylakoid
mannose
gunnery
heaved
##ontium
##onad
##cao
bog
misuse
[unused422]
antioch
metron
ballet
daze
[unused388]
team
rappers
avidity
deoxynucle
signal
acridine
𝑏
crises
endopeptidase
immunocomp
rowan
##之
##ire
saccadic
##apoptotic
xylanase
gather
favourite
rich
granules
##ǝ
angelina
madison
מ
##quer
##sport
valvular
boar
ell
saxe
5ht
retrospective
tavi
[unused88]
macaca
laos
multimorbidity
breeding
ft
inferior
﴾
ara
sensors
##ο
outsiders
crossroads
91
##ochrom
[unused258]
[unused166]
haunting
dock
strains
[unused458]
hyperpolar
##ilyl
##isi
##wyn
##lins
〖
##ful
karlsruhe
homeless
curric
dio
##som
baby
waived
accidentally
friar
deliv
inj
aided
##erre
oestr
tariff
homology
amazingly
##▴
##aptic
gora
aerosols
helplessly
diablo
shades
continence
hydration
complete
chapters
trucks
healthier
educators
neuroc
##ospatial
pq
destroying
locally
coded
fists
oxy
[unused190]
pock
nanjing
apart
##液
##omnia
continental
stationed
##ste
##ros
##ɤ
descendant
dod
residents
##opolymers
tdt
##zine
cylinders
vibration
mala
##led
phospholipid
##oem
sulfonyl
jogged
##000
##berg
caspase
pool
pyrenees
visitors
crus
extran
##oz
##arian
##‾
##iters
derelict
inputs
therapeutical
##ufact
pach
out
ഗ
dwelling
##oeb
pointer
##ulu
fluctuations
pigmentation
biodegrad
##iko
leaned
arching
caldwell
165
androstenedione
##ocard
polynomial
mojo
##issible
##ulic
offerings
celebrating
hodge
disc
}
gonadotroph
rotate
feminist
provinces
##esis
##raz
transc
##mcs
derivative
ominous
tort
myeloperoxidase
epoxy

chronicles
filaments
recon
##rien
enterobacter
george
##tre
ง
anonymous
hydr
calcified
##rals
##nay
optimistic
locality
##rted
ono
nikolay
##se
##ellulose
february
##emp
continue
[unused758]
mary
telescope
essence
##enses
sacrament
anthropometric
⊣
##echlor
##dder
phrenic
##port
forested
##女
stafford
nowad
exhal
anhalt
thru
##odine
monstrous
##coplasm
pilocarpine
bosnian
wishing
##mal
##gaard
##ɶ
response
##neuve
耳
nanos
pubertal
radiology
prb
succession
cardiopulmonary
parisian
month
##ᄑ
invaders
undetermined
sausage
ribs
polyphen
lepid
geological
armistice
##aris
pigments
##比
(-/-)
refit
polygenic
prank
sandy
fuscous
sighing
##atives
##ra
kristen
discourage
##arf
rape
reinhard
ʾ
kitchener
##ozoa
movements
##ovich
exerc
skill
codes
antonio
mobility
johannes
vie
tin
diaspora
realms
ன
unification
quota
decarboxyl
dentine
erection
111
nonprofit
[MASK]
##ential
advertised
fermi
perf
1664
returned
harold
##ievement
##ꞌ
later
gbs
##operitoneum
basalt
slate
mek
hev
employer
##ospheric
finn
pact
fluxes
##erum
hindi
acknowled
ट
dibut
ꞵ
sleepy
lsu
astrocytic
perrin
cardiop
##$
ceo
##board
windows
scientific
##fa
hates
organise
suprach
remarked
brightest
calibr
dee
leuc
##ermectin
##achus
paperwork
jock
exploratory
violate
arrestin
##zed
premises
hypersensitive
.)
arrows
##osulf
##luoro
publisher
##idth
marred
preclude
byproduc
eggs
kisses
##男
hypercal
[unused871]
1704
##imumab
realized
degran
cefotaxime
owner
arias

##itidine
##bai
##finger
marketing
magnesium
cause
covariance
edmonton
mycosis
whaling
[unused206]
partnership
ances
transduc
spars
mixer
##eau
gaping
##itiz
disciplines
##nated
##roscop
pc12
##neumonia
##itoneum
[unused802]
prep
ablation
robust
[unused850]
ל
biof
':
##江
road
elliptic
scots
latvia
##ollen
##del
allegedly
⚫
raj
##romy
lexical
cerebrospinal
empir
schwannoma
1877
ธ
psycinfo
##mmer
fia
phytoremediation
crayfish
keys
##gies
thf
miners
19th
ideal
electrocardiogram
mth
guiana
ы
isabel
neotrop
sertoli
prompted
##idym
##tina
neighbours
rai
##lho
postage
421
heavenly
wander
##nare
zen
cabinet
furlongs
⸱
milford
epa
periosteal
quarters
thermoelectric
##pet
example
ζ
subunits
##yen
aha
ttf
diazep
##itization
weasel
lick
[unused526]
jo
〕
gonzaga
leopold
antoinette
[unused894]
pie
impacted
upregulation
transducers
lipids
gertrude
improvised
[unused766]
immunoreg
##rs
synchron
101
pyr
##see
introgression
definitely
##ates
neurosurgery
immunoassays
neuroprotective
neb
recommended
yun
biod
holmes
capsul
027
tracheostomy
terms
ventromedial
gentry
##oplast
collaterals
48
ghetto
isa
sct
##bbly
##dson
##atectomy
pharmac
cor
mrp
alter
deluxe
guru
cytostatic
##rocity
##ini
##oxane
cholecystitis
personal
bergman
horned
1963
##lga
##anch
culminated
coefficient
##01
imine
nba
qui
rafts
aetiological
redund
yi
composite
regaining
deletion
##ure
neovascular
havoc
##ध
odi
sousa
endotox
argue
ultim
gallons
caucasian
epsilon
pah
polyps
ケ
underwear
mack
37th
gallic
##oxid
bearings
fibrin
immunodom
##otropin
∗
mig
yokohama
nodded
ousted
##ivating
sorted
biological
[unused792]
lee
phr
##hab
mackenzie
centrom
junctional
cortes
##cured
##eprazole
destroyer
##14
gol
encapsulated
##otropy
##elium
##sos
##erved
scrapped

chimeric
happiness
##yb
arthroscopy
textures
milky
galician
##sia
kentucky
california
wake
¤
borough
choir
trident
##ectomized
percy
indiana
thrill
##tian
##eter
trypt
##onale
hartman
##bands
##f6
hung
couch
novella
sarajevo
epilogue
307
ˁ
jew
##ml
modulates
aka
ⁱ
bowling
visit
expansive
[unused208]
[unused485]
importance
liquor
palestinians
sv
hazards
##tula
sigm
restart
elias
manual
##yce
cd13
benefici
descent
electroencephal
emerson
227
phagocytosis
441
moderate
##basket
papilloma
hoffman
forgiveness
##aphase
indonesia
southport
dehydrogenases
motown
heinz
acetonitrile
minority
##arate
atten
rescued
duane
ө
suggests
##entive
crumbling
precursors
broader
craig
manifesto
heightened
lipolysis
workshop
sas
werewolves
wasn
elucid
refreshing
##vinyl
herbert
##anguineous
dungeons
closure
##ectant
ccl4
basins
ecosystems
##ervised
ille
ভ
starter
navigate
parts
wetlands
wu
##osterior
nobility
1873
09
##abe
##mel
[unused124]
inspection
ivan
##伊
jillian
##rofloxacin
qaeda
[unused596]
subunit
kurdistan
conservative
dummy
##nction
apnea
##tig
ring
ο
##ocardia
##mbe
egyptians
accessed
hypocalc
1603
threaten
sai
microgl
contin
##oline
##opharynx
##minth
##imol
shamrock
##entists
mob
cursing
ameliorates
op
##afts
m1
[unused382]
##ζ
photosens
wildlife
relax
schoolhouse
abstracts
jeans
triglycer
guerin
##orbable
##⁠
panther
optimization
ي
⬢
ltp
secondarily
##chi
flooding

1964
reside
anisotropy
##●
lta
sil
bags
phenols
##while
nonsurgical
##amidal
blackmail
doxycycl
gest
methyl
fired
programme
##ks
otherwise
accounts
normandy
homosexual
##roving
##ju
redox
⇑
yuri
populated
##ogr
##lander
cec
placentas
##♠
feasibility
rovers
renal
subf
modulus
##damycin
urod
park
lowlands
resolutions
leaves
##ationally
powerful
canopy

detectable
contraceptives
​
north
fd
##osi
vivax
ca1
pasteur
hillary
fictional
pioneer
##य
##opeptide
##sei
breakpoints
peric
margarita
mtdna
slavery
anterior
297
##yp
histopathologic
legume
statewide

persecution
bacter
unco
##economic
alderman
isomers
##木
unch
prim
methylmercury
glut4
reson
undesirable
raven
inmate
metastases
catabol
##cessing
cap
realise
saga
##ordant
vagal
piston
colby
entertainer
successors
tam
olympiad
rac
northampton
##shaw
don
foliage
##⿿
wes
isotype
less
unlawful
arun
anaesthesia
antin
##olymer
preexisting
##ring
esterification
hhv
1947
concordia
abduc
objects
better
leaving
reversion
##duk
million
chelator
sq
narrative
##⇌
kind
##itudes
microd
bloc
oest
##orrhea
atrop
brewster
extraction
##orhabd
261
vasculature
[unused459]
insufficient
thiobarbituric
nominations
seldom
bilayers
##areness
elevated
oswald
##ological
hogan
smoothly
herd
##isters
bioreactor
recited
tlc
##ilance
##ule
denver
##tructured
pages
disrupt
genomic
minute
gsk
histolytica
bec
bimodal
hsp90
quotes
ecp
hosp
asthm
fog
ˇ
learnt
barak
mars
hyperthermic
scares
optimisation
good
cafeteria
##adine
assays
linol
await
[unused564]
foothills
peaks
##葉
abusers
syria
spacecraft
amygdal
ℱ
##otax
")
granada
genbank
advisor
assembled
##tsk
69
harris
##dhi
injuries
keenan
sharp
willi
⌉
eliminate
insight
teratogenic
walkway
peroxisomes
##sett
##angitis
doctoral
521
chorale
vietnamese
[unused500]
scott
sent
louder
maccabi
gonadal
congratulations
monop
[unused5]
continued
26
##be
displ
ɐ
chef
reactiv
[unused944]
lurched
tremor
nawab
neutrophil
conce
warrington
##adan
perioperative
kinetochore
andover
blends
nerves
arginine
stronghold
##ട
constructed
##gor
metallo
##oide
##tegr
cytarabine
[unused910]
ebert
##gration
severed
prl
mycelium
here
neutr
##ematic
##onation
sjogren
##侍
foref
traditions
ideas
##rof
aphasia
extracranial
histological
than
infinitely
light
##quette
scored
##ɨ
future
catabolic
joseph
gallstones
authors
considerable
##zzo
calmette
##onzo
##adder
foreigner
placed
garner
##axel
ppb
snowfall
aggregator
mysterious
liter
periodontitis
##scent
proceeds
supporter
elevate
learn
hamstr
##zation
heterochrom
﹢
ര
rerio
[unused263]
hog
striat
firmly
root
##osition
##dos
revised
sabah
mpa
pilasters
sheng
bcl2
sparkled
abundances
≲
malayalam
internalization
polymorphonuclear
leagues
exploiting
goldman
##weiler
esi
##br
endos
pediatric
jacqueline
abandoned
pee
humane
mobilized
heinrich
##enol
1685
dph
##opharm
parades
scalar
##⇝
66
eac
ほ
vintage
twe
isoenzymes
playback
assemblages
##polis
menarche
##anul
т
dare
shells
daggers
ʧ
avf
anaphase
elections
jamie
polluted
anatom
##cius
##brate
excavated
ch
wherein
senior
##会
[unused348]
file
ch3
citation
##itter
[unused934]
classmates
symphonies
##ms
amour
##acr
tnf
asth
ɪ
⸳
##chner
##oxacin
##ster
16th
##car
##ipramine
multin
distance
chan
livers
nov
devoted
socks
##burg
gym
roc
maximal
removable
##otype
ctls
tumor
##ctic
##ward
circ
kev
minor
minister
！
relaunched
µg
##omal
curative
landscaping
reinstatement
##井
billie
##brid
alligator
►
indicator
battling
##bry
##iu
califor
algorithm
erythropoiesis
##5y
depolar
tags
rate
simi
##国
luca
discipline
andres
parole
rumbling
##ᄏ
neu
spectrophotometric
[unused103]
cerevisiae
##hydroph
lineages
с
336
mach
ethanol
1679
spf
raft
##nty
pseudot
((
interposition
1900s
[unused281]
steal
skelet
##香
helens
##ental
##arrh
tennis
echin
sed
##ochondr
additives
soundtracks
4000
##ching
autogenous
##kar
fm
lithuania
emory
##レ
thromboplastin
psychotic
##tism
ع
immediate
##fast
argued
##疒
bertie
##plications
heterotopic
##irection
electrode
fibrinogen
barbarian
[unused84]
##ocompatibility
##
halothane
vap
lateralization
deacet
fistulae
mannitol
##；
1300
haul
peritonitis
epimer
neutropenia
##ander
ว
pennsylvania
difficulty
rgo
##ᅰ
cirrhosis
ck2
quantify
paw
erected
glycolipids
stereochemistry
asthmatics
badges
vastus
anyway
vertex
estrous
centenary
category
penalty
impressed
capitol
locate
edit
dropping
homozygotes
surfing
chants
ⓝ
methoxy
aneurysmal
activating
duct

##ror
churches
##च
cordoba
nursing
pathophysiological
lightning
spind
##ague
jimi
hepatectomy
[unused657]
rheumat
##ochond
accurately
projective
canary
##ment
anime
##roud
allowance
##ʼ
##rgos
む
vanishing
distric
[unused595]
enclosure
cryptic
##eptides
##enafil
patern
academic
artemisinin
bridges
milan
awaited
parity
mammography
syncope
signed
upcoming
congresses
aquaporin
skopje
##lled
wreath
##opped
nonstr
harbors
invite
vacuum
reconstructive
neomycin
##ivist
strata
##gl
[unused116]
collapses
diversion
##ggs
28
##nin
acre
embryo
tetras
concerns
##entioned
racial
##yrib
176
##ampling
sesquiterp
stim
anticonvulsant
dundee
vinegar
crpc
reliefs
optic
reilly
pall
disordered
##osel
tst
##lz
4e
security
injunction
##imeters
incision
honoured
##oles
##inary
##え
methylprednis
experiments
captured
householder
tibetan
##orth
##oxides
kellogg
hepatocytes
event
1816
kilograms
nci
charted
metallic
##omies
##era
tu
sleeping
ui
##abolism
fap
hier
suffered
##ensives
smooth
highness
donaldson
terror
##omandibular
[unused298]
iugr
ssc
toro
##imer
dpp
##imetric
y
##him
##von
incid
hodgkin
deterministic
藤
prostatectomy
webs
⟫
2007
800
empowered
originating
pierced
cytogenetic
tym
##istered
1778
##hall
し
truncation
erupted
##holders
pd
##ogel
##ilicity
kl
trypan
⅙
##alazine
polled
phenomen
syndromes
reel
myometrial
##大
underg
%);
hitting
##garh
elevation
genis
##yz
boiling
caribbean
temperate
perfect
##imate
bs
##estib
nonhuman
##¹
marty
baskets
thirst
##pyridine
articulated
expanse
blazed
##itud
bunch
##jiang
##osphing
engaging
cardiomyocyte
battleships
dispens
##agi
success
sheds
ђ
controversies
##otoxicity
##cardia
##sta
plei
substanti
##▓
dominated
##actam
forear
luminance
.].
colombia
vector
dispose
pulsed
##ocaine
##logy
ᵇ
dubbed
##b
archaic
elect
kv
##ighting
hrqol
metrics
1638
infinite
##hetic
deficiencies
ivf
surprise
clim
eponymous
##sti
stripe
unfortun
wc
sandra
indian
##sh
acceptor
cayman
encountered
£
apostolic
##vary
##ochemically
gα
foreign
sial
vitiligo
##oko
##cin
dysregulation
cyclodextrin
lact
ι
lyman
##ᴬ
##almit
##mussen
##ϐ
squirrel
empower
shouted
tubercul
turnover
++
reconc
political
ribbon
morris
trams
mur
approached
tian
ᵀ
competent
familiarity
57th
##123
[unused127]
##emulsion
suitable
principally
jelly
innerv
ending
swamp
snyder
search
rus
nav
##otyrosine
stretch
##ニ
[unused46]
header
authoritarian
microdialysis
diego
##din
feast
transfusion
admits
##ayer
sacrificed
biosynth
accommodations
marriages
##cene
secretory
[unused644]
full
##chronic
decoy
##ulants
##acus
##omycet
orthodontic
barrio
brodie
spends
historically
implements
ganga
chemoprev
upgraded
ode
blocking
bird
##ractive
cipher
bucks
##ilde
caliph
oviduct
deline
merchant
superoxide
lover
neph
1943
fearful
viable
winchester
##cephal
crumpled
ordering
staining
regency
magnus
curing
cornelius
##ope
kerman
##ل
commune
coventry
##argin
classification
elliptical
𝛾
gotham
97
մ
##ythmic
nec
feathers
nodule
##ntal
fitch
pione
##ights
desulf
butyrate
impulsive
unfamili
zur
##access
certainly
45
pairs
##oy
bicarbonate
duodenum
genotoxicity
##lard
raju
illegally
27th
tackle
biphasic
##marine
routing
[unused21]
hap
jeremiah
行
contracts
rican
hydroxybenz
refused
relaxant
screams
##π
ᆰ
popping
depressive
abortus
atheroscler
bjorn
##o1
##zu
doll
traveller
attr
nuns
dendr
ක
extending
マ
##ᄋ
##ritin
classifying
##tify
##atric
‖
showcased
bouncing
chew
lavish
ℷ
ps
islets
##neri
pathologies
ƛ
hmscs
dino
electrification
insides
vapour
##ortal
##fi
mussel
[unused767]
massey
patellar
fen
collision
layered
naacp
##dah
partnered
dame
hlh
incubation
##dock
stumbling
##titles
##･
ventilatory
nanoclusters
factors
−
philip
##oit
kala
thalassemia
##pad
secondly
periodical
##uke
hardship
ct
267
##ping
##h2
annulus
##nos
##iparous
ultrasonography
sweets
anna
klan
pandora
[unused184]
##vasively
policies
cerebellum
arthropod
rugby
##odontic
##⊖
##yridine
binomial
##bria
halle
grimaced
##otocin
v3
،
gunfire
meet
##logist
tris
lept
larry
nuclease
abolish
##ture
##roma
compelled
##rea
115
carries
##ionine
macrol
##mbs
##ˣ
##ouling
[unused967]
collaborate
effluent
chewed
metalloprote
##opoietic
thinking
inc
dermatomyositis
cant
louis
##di
compression
characterize
manufacture
impose
nineteenth
researchers
[unused365]
##oxy
breakage
1752
dowager
decoupl
seminar
gandhi
tunable
1904
stiffness
kapp
##atom
catalyzed
intermediary
##eties
##folate
##oencephal
suffrage
phosphates
headquartered
⁹
ctp
##omyces
##fatin
bodyguards
xu
##hard
1692
pap
bride
anoph
##ࢧ
flav
agrob
##etit
logos
spearheaded
metabol
marking
perfused
norris
placing
poking
trickle
bruises
palind
##h1
##ited
haz
organoids
rifle
itself
##1a
honorary
feud
##plant
touches
globulin
fw
passively
cutting
▿
eeg
201
richard
brach
coerule
adl
distracting
essential
bacteria
##ocic
granting
walks
listened
frontier
igg
announcement
yemen
[unused490]
flexor
halogenated
haiti
dart
contractility
croats
##ད
##ocrine
cover
suffolk
##hiro
guar
vertebral
oh
diana
nr1
catastrophic
▽
⁷
toyota
##ivid
mycoplasma
bill
##otal
##10a
##oluminescence
##apez
##esia
jus
chromat
voting
ᐰ
oblivious
##sis
completely
bolus
enamel
##ronous
transplantation
##static
nonalcoholic
traffic
##rock
angola
strait
neuropathy
##ogonal
encephalopathy
##onol
micronutrients
##fs
book
exposure
##ala
tetra
priming
swi
engraved
cycloheximide
1832
centrifugal
turnpike
impar
falciparum
deflection
dissoci
campaigning
unfinished
##ells
padre
york
##pine
##olates
offered
premiered
𝓁
##meric
hcl
infecting
quintet
parox
þ
mercapt
##onto
complied
##lford
##burn
[unused430]
municip
housemates
underst
##ு
amalg
fires
##erina
##tlan
renders
nearby
[unused180]
chimeras
drive
##ectable
digestive
##edullary
gpr
amount
scientists
yanking
dimeric
parsim
jurgen
##inter
paradoxically
predator
pertaining
cloak
las
##8
hay
obscured
##phila
bahamas
thawed
##grant
seasonality
repressed
hydroxychloroquine
[unused157]
##116
laryng
##mar
freed
stacking
asbestos
##bra
##ontin
onch
kanye
##just
misdiagnosed
tz
##ling
dereg
milano
د
##rec
sevent
saturdays
aquarium
rugged
ko
##nology
upright
◊
liverpool
dick
antagonist
lignoc
parahaemolyticus
sensu
pdb
intercalated
infusions
territory
dale
##ma
##ᄒ
guts
1843
##sz
corrugated
dillon
hammering
##itinib
##tently
whate
##chua
interl
budge
fastest
ন
unacceptable
##icity
imbalance
##lkirk
collagenous
tucking
entrainment
linezolid
generates
ұ
pigeons
##jou
famil
##idi
rumours
##oserine
##oactive
contemporaries
reduction
protector
##erts
haemorrhage
##accharide
brethren
pixels
profil
founders
lineage
duod
judg
contaminated
microbub
forth
##p1b
–
smokers
##rative
slc
aneurysms
rhodes
murdering
##
immunostaining
diabetics
（
odds
pockets
overly
plaques
steep
localities
expiratory
tagging
vu
subun
##u
glove
verbal
ャ
sophisticated
lois
1920
threatening
gastrod
featured
purchase
fk506
decentral
eg
##uld
##due
lok
trusted
amusing
##atid
photothermal
stratification
dithi
physiotherapy
mesoderm
accuracies
##ength
reconfig
irony
ᴺ
multiplexed
eliminates
diap
##pire
##alo
mercy
##oproliferative
##ql
ℼ
underground
schultz
anis
duck
rhodamine
##edical
drains
caring
equatorial
nicotinic
networks
nova
apc
1995
##104
fortress
hague
##rought
ɔ
spermidine
[unused739]
yawned
journalists
##ameth
haydn
##epsin
suffer
##hler
monte
unmarried
acculturation
lifetime
captures
martin
cutler
gaga
م
landau
hydrostatic
##ɫ
potentiated
##itas
coordinator
anthrop
morphine
racecourse
chitosan
##ifos
angina
##gry
1944
supplement
##osulfate
hawk
##ther
##ggy
corticosteroid
shark
strab
љ
##angeal
quartz
goldsmith
protozo
haemorrhagic
grimly
autonomous
enterococcus
06
fingertips
yahoo
matched
[unused593]
##ppet
numerically
234
according
advantage
tribut
fingerpr
jointly
[unused722]
entourage
singleton
corrosion
langmuir
markov
##entrifug
companions
hunched

solve
grady
subfamilies
indocyanine
pseudotum
1888
橋
lair
flatly
indigo
canine
xylan
endorphin
thall
[unused487]
1723
wipe
[unused207]
##balls
##her
skier
dilatation
179
c8
mike
bead
##ija
russians
mule
alpine
gesturing
performers
malignancies
kid
##ieve
aerospace
##lative
pump
clocks
##↓
aesthetic
corps
clement
##iano
counting
infiltrates
[unused698]
materials
testis
##ylus
signific
calcifications
chassis
polypeptides
82
∊
integr
yours
sixty
premenopausal
bartlett
requis
bavaria
##epo
##lang
ord
##ubs
tucker
epidemiologic
roux
##ₜ
overdose
[unused562]
##ひ
zaragoza
hydrolysate
dependencies
plotted
##»
##ineural
##abas
apartment
##ner
##atin
cephal
francois
matter
theta
pyelonephritis
swayed
auc
ambitious
liquids
freaks
pointless
warwickshire
：
cites
sweetly
ᴬ
caninum
storage
##sr
##ан
margin
mbc
reconstructed
ramsey
##oalveolar
##esters
nodes
ﬁ
malabar
smirk
204
##eu
appeared
colombo
thursday
sprinted
[unused583]
earthquake
whe
stuart
folklore
ra
aden
911
stocked
jeremy
rei
ignorance
communion
##mbling
coevolution
##rvis
psi
278
##aby
eliminated
floated
polymy
##ynch
後
''
deserv
distancing
[unused791]
##mania
baltic
##roved
perh
through
randall
##tow
),
lana
##arv
##gam
hose
supers
epigalloc
mcintyre
##ᴺ
[unused826]
##ises
ϖ
locomotor
##ortus
heights
morgan
##ocs
##公
sensitization
renaissance
##amn
microbes
##ldon
habitual
treasure
discontinued
groves
dreamed
qrs
provide
martha
##hom
assignment
##estig
kade
agglutinin
voices
oligonucleotides
##ibi
cadaveric
exposition
qualifying
confiscated
stripes
jealousy
unsatisfactory
義
man
´
consensus
volv
kids
##icient
##roll
##gpur
##how
##graduate
ribonuclease
##pons
fictitious
ineligible
habit
sharma
malley
ensured
crescent
methylmerc
##rob
theorist
determine
ambulance
##բ
##rift
ke
cried
##eye
homer
sti
296
##stituting
fibrils
##udinal
forks
cd19
##史
##inoids
mornings
plane
clusters
k2
calcification
clamped
homic
gastrostomy
##olon
move
##ama
##ranean
leger
cher
sod1
raid
у
unusual
pituitary
drawers
immunoassay
cotinine
macrom
##krishna
doesn
methylene
analytics
contusion
sa
caveolin
[unused286]
convulsions
##astig
##nf
trail

##hawks
extrac
##keeping
ascent
presenter
neighbourhoods
centimetres
##oscop
naughty
armstrong
comb
managerial
##ndra
coh
1957
happened
wary
microenvironments
excised
##plicit
ceramide
metabolic
[unused350]
hyperthermia
monde
concom
littermates
[unused147]
coexp
##ithin
sight
##bron
kemp
sulawesi
##rography
superc
nod
properly
resisting
##ayers
##erculosis
aliqu
dmd
amor
humorous
scd
boredom
##ingham
transplanted
lactoferrin
crimson
minnesota
benfica
seronegative
##ctuated
absorb
smackdown
##84
mueller
fifteen
##歌
mural
beaux
##auer
tackled
##ille
loren
territories
meier
scann
eff
cube
involved
##hold
her2
##ubstituted
##mos
transient
deutsche
victimization
##sby
##с
tach
scfv
##adia
chairman
##oned
hypertherm
telehealth
##piration
inorganic
appro
simvastatin
pi
1635
##ほ
##scoe
ultrasonic
##assays
incorporate
##世
bundles
am
waldo
piv
partnerships
[unused338]
simplified
##khand
##kiewicz
dap
conform
trapped
##ardi
honor
##ivudine
afghanistan
05
jamestown
##𝒯
n3
pupil
kitten
˞
downs
interest
crossed
salvador
drastically
floppy
registrar
##ா
cch
avenue
chun
1624
##ofibr
wrecked
substrates
##opause
scavenging
evening
microgr
vulcan
ped
##dron
##asse
multi
alteration
akira
underline
besieged
hughes
之
msh
dissimil
237
forgot
recept
relapses
川
sava
written
startle
perox
cyn
sentiment
##position
d
##por
paintings
parallel
wiener
dance
toilet
spacious
rebellion
reentr
eduardo
mitogenic
multit
##ciful
international
##entilation
##ulos
fixture
characteris
ideally
nomencl
heidelberg
summoned
eric
##hiz
algebra
bortezomib
v8
[unused501]
probabilities
shivered
wired
glycosaminoglycans
き
baptized
envel
[unused346]
accumulates
##loxacin
##ट
bucharest
glaciers
continent
##imid
compose
epoch
baton
##ogenin
angiography
myometrium
##thetic
cartilaginous
economic
ss
##rzy
undifferentiated
logs
¿
seventy
mom
opin
pedicle
defining
famously
psychologists
steroids
algiers
separ
bourbon
kupffer
zone
##itant
pinched
copd
markham
hns
till
saxophonist
cubs
photoacoustic
ruth
##tness
##oremediation
##osylated
s4
radiographic
extern
summons
howled
mma
nociception
ottawa
[unused169]
199
##etric
bruins
##ottic
tv
humic
chewing
charity
receptors
appropriateness
fo
pfge
antipsych
##)
星
bla
sneakers
endeav
dtc
spy
assis
[unused699]
homologs
nationalists
closest
##dad
invertebrates
tes
gross
esrd
##udence
##antigen
##emann
brigades
indistinguish
##ocyanin
reminding
serous
##inia
fault
##beta
iib
tough
documents
podcast
anastasia
initio
uncomplicated
exploration
##ˉ
cannabinoid
evaluation
doubtful
2011
pdgf
##ல
tur
##pis
thoughtfully
smashing
desorption
bronchitis
daniela
theoretically
multip
taa
##lifting
1942
##ħ
211
tubule
suffers
fellow
tracts
hart
##ろ
fumig
irrigation
ട
skiing
##nis
auschwitz
postpar
cd8
35th
fingernails
amplic
roger
[unused280]
handing
psycho
##ller
therese
##₎
heterozygotes
prayer
characteristics
##ulia
pls
eduard
endocrin
actual
[SEP]
provoked
##1a1
enabling
shielding
##rma
nazareth
replacements
select
∩
##eta
addiction
wrinkled
webber
##ogaster
thereby
bathed
expressing
southward
hypn
##anolic
rebound
hence
ellis
je
thrilling
carbox
lost
biodiversity
##ators
sprouting
jaguar
sectioned
မ
osteosarcoma
invag
centric
##m2
thrombocyt
parval
gates
dehydration
messing
growled
ags
gluconeogenesis
lak
##olf
haematopoietic
infectivity
thioredoxin
although
lysate
promot
ɦ
[unused978]
treats
biomolecular
preventative
suitability
hip
exciting
relocated
timing
lindsey
scores
##ɦ
boxes
elders
leukocyte
extrapolation
neurode
##oxifene
antiretro
astro
beijing
##zio
##ange
##ᅡ
acclaimed
malik
##ch
outdated
vigorous
worsened
##ezer
nodules
ulcers
leptospirosis
cartwright
##onyl
xenopus
seychelles
adalimumab
aforementioned
##dong
eli
##eer
nasopharyngeal
ribosylation
cooled
tyrosinase
iop
addic
bravo
impatiently
##uance
##missions
idiopathic
cmp
sparkle
##↕
cxcr
##iating
protease
medals
11
shared
eine
##＝
yog
##adin
##etics
2p
disulfide
transdermal
crossings
##⩽
1h
receiving
strange
surface
##lizer
[unused66]
##同
hindered
resonances
pandit
increasing
##inders
dv
elevators
▲
clus
borrel
thinkers
laurel
haemodialysis
somerville
aeromonas
concussion
thomson
paragraph
cetuximab
fledgling
stew
global
hematological
##olinergic
##etence
gibbons
granulation
biochem
warlock
##vate
wel
garrison
##nam
disrup
ats
reduced
phot
0002
pretending
existence
##imidine
paranormal
conducts
presumptive
pseudoaneurys
##unciation
telemedicine
##amination
adenomatous
seniors
cyclo
believer
presum
##ₛ
barber
##hara
assent
neurosci
sepharose
rocket
##ysiological
titled
mauritius
jr
unim
screenwriter
audible
papyrus
shove
wastewater
celecoxib
ு
##othane
minded
unpreced
osmol
##arative
legis
phylogen
[unused186]
scully
classical
72
possible
holo
thre
weighed
dissip
##ounting
confinement
bmc
useful
imprisoned
biologist
probiotics
王
singled
rubbish
dimitri
sonar
‑
stenosis
的
compatible
splenocytes
soil
##andial
[unused900]
##ober
flor
charred
##eptors
skeptical
homogenates
interrog
h1n1
1712
aquac
converg
[unused504]
ideation
lamina
aviation
[unused145]
ნ
denaturing
gli
##aur
##社
yields
##tructuring
##plicate
trains
elmer
inval
ablated
guaranteed
##化
assessed
priced
finnish
neurovascular
years
##rofen
agrees
colectomy
turing
##nais
1846
tallest
##idge
apopt
##ammox
##olytic
propionic
##ments
integrated
plast
willingness
penthouse
fours
侍
design
さ
days
remaining
microorganisms
meniscus
hardest
adenylate
underlie
##beau
##oembryonic
auction
saturation
consult
).(
transglut
tram
amikacin
##boy
plum
##onn
austrian
##ittance
sic
compare
sample
##林
cozy
igg4
misinterp
hurting
fram
srebp
rodrigo
①
allergy
capacitance
asian
##uating
interfere
495
remark
rox
pointe
##tyn
spiked
gravitational
[unused129]
##slow
բ
do
insider
viscous
cytomegal
determinants
##itic
[unused784]
frs
lingering
ciprofloxacin
ا
cholecystectomy
cart
##cysteine
##tite
persia
fove
##tty
overlo
degs
alterations
noticeable
quakers
concentrates
grinding
##cranial
quanti
amid
amiodarone
glee
nbl
abrog
dmitry
kia
##rera
##ecure
suggestions
turkish
##juvant
##itil
##aro
mgm
plantation
binding
1840
roberts
clapped
nf1
##unas
subreg
desm
crossing
medallist
emmett
integrating
##ishes
isokinetic
##mic
##ressing
##ored
##vitt
coryneb
pox
3rd
spe
diverg
circumvent
sevoflurane
flocks
atherosclerosis
detectors
tracey
olaf
h2o
microglobulin
##正
apollo
neuromod
catfish
obviously
##hoff
roche
##tez
ɲ
niger
ף
petals
squinting
∠
cortico
sat
[unused352]
sulfation
##lak
##vp
1814
madly
rise
seedlings
siege
fern
720
ksh
weakly
rbc
ǀ
contained
brothers
hottest
giggling
##romatic
ecologically
sock
reintroduc
[unused416]
relieving
endothelin
guidance
[unused928]
pressed
nicholls
polymeric
emit
erased
surrogate
nottingham
follicular
toxicities
##alanine
##ift
consulting
rls
passenger
pont
##tie
delaney
owl
arithmetic
vaults
##उ
microplastic
heraldic
1000
##trust
##arns
abut
spanning
aeruginosa
aquapor
accur
tribunal
incar
liqu
isomerization
##hers
dyer
suc
sunitinib
malaria
##atibility
##ilis
ly294002
##arietal
smirked
hirs
##hae
##1c
hplc
empty
incomes
##angu
##tilb
vice
##brick
pep
ceased
##hli
pulls
##phonic
upwards
distraction
trinity
deoxyguanosine
keen
ophthalm
##urbed
notre
attracting
clar
brewing
##uridine
evolves
spheres
abnormally
simple
actually
predom
unnecess
sterile
grouping
spawning
menopause
##vision
##48
heterosexual
dram
adhesive
guitars
##rant
##elli
javier
rippled
triiodothyronine
linkage
ape
##atter
developing
##虛
alc
stylized
universite
##手
potentials
esophagectomy
edged
curr
##zaki
##sop
came
structures
##16
contemplating
splen
neurofilament
monopoly
gtpases
count
integrase
chrom
agn
consisting
##ithm
cuticle
commentaries
##ovan
pms
##gawa
coding
1651
intronic
rhymes
trading
##building
1c
immunocytochemistry
##astatin
radiolig
ampl
microrna
##gami
cem
ezio
triazole
premiership
initiating
myod
premature
rar
romani
##oplankton
[unused914]
℃
ki
glue
##opper
bursts
efficiency
##igation
libel
encephal
savannah
dilutions
##affinity
bien
philosophers
intrigued
leukotri
rolling
mangro
##ᵈ
wisconsin
mil
guerra
unc
dural
saloon
ernesto
finer
divalent
##rel
armchair
mimics
godfather
##/
allergens
##onal
p2x
益
decorated
ameliorating
sickness
osteochond
scaffolding
fluoxetine
migrate
cddp
##adh
dephosph
freud
##も
mirs
##dhar
porsche
cytolytic
mastoid
clause
lign
fences
glutar
germ
ҟ
showing
claws
##emporal
communism
٭
descended
duch
geese
##ð
embry
makers
bonaparte
abstinence
##0000
1650
##ج
parvum
##khan
hartley
intolerance
winery
##ག
prenatal
sequenced
converging
dario
silico
##omyelin
elephants
##lik
instruct
rag
pred
apelin
rains
##ryl
related
##≧
initi
kle
dempsey
##zman
##itance
axonal
[unused379]
##icals
##⋯
##tani
##xon
stormed
##wala
tackles
hydroxybut
bishops
turn
tra
satisfying
pagan
##dek
technology
guarantee
##rotid
##uodenal
moisture
oxide
tasha
combatants
resurrected
##orters
jed
##cape
##wo
billy
tunnels
beau
aort
hyperglyc
evoke
disputes
1978
glycer
lakshmi
interiors
infiltr
sell
2s
candidacy
tooth
##tons
enacted
pollutant
bolivia
vivian
isis
admit
predicted
立
christoph
bre
gat
etop
##osterone
calorie
rhode
vegetation
leans
interferons
refine
##yletic
myc
cockro
[unused953]
exponentially
##onuclease
modernism
mineralocorticoid
ecological
quilt
nicholson
kidney
brands
bohemia
##祛
[unused561]
debbie
##mut
##yer
chromium
sneaking
[unused828]
slid
youthful
opt
scream
##iction
overhead
##evel
emulsions
iodo
226
chf
mesencephalic
matr
##vating
explo
enhanced
##mind
mns
scanning
mistakenly
44th
##grounds
##well
nadp
chimpanzee
##orus
##ub
antib
##rained
##cit
create
promin
##acrine
verr
##–
##ettes
pect
votes
amphibians
[unused477]
electroencephalographic
ordinary
##mission
whisky
##odular
沢
##channel
navig
fame
storylines
radioligand
[unused456]
juxt
halloween
##oon
immunost
semiconductors
##operfusion
##евич
166
draught
vesicles
subp
copenhagen
father
attends
boston
##nged
[unused256]
cursed
dickens
intracranial
jia
beaumont
resection
estadio
##venor
20th
stirling
aetiology
wetland
representative
shig
##omib
漢
centrifug
growing
##trig
bryson
1717
##ibular
symmetrical
##urd
➁
plc
##idental
quantities
[unused218]
accommodate
zeppelin
oligodendrogl
metaphase
aragon
imaged
grap
protoplasts
weekdays
shatter
alumnus
##62
121
##fighting
173
banda
intro
pursued
glial
##omen
##*
##ychlor
dhe
eicosan
olympus
##ured
##yelinating
##kong
hfp
substitutions
andersson
ccc
barron
seriousness
histi
##bson
##embl
slud
##rzburg
##otyl
instinct
contradiction
vesicle
upstream

##acterial
pictured
##inning
##ium
myriad
reve
##acizumab
male
identities
ipv
predictability
tq
yanked
)--
1870s
young
stev
engr
aro
##ip1
orchestra
granuloma
lc3
ascorbate
numerical
help
rig
dynamically
prototype
production
fra
##oux
karel
coel
peat
methodological
diagonal
biofilm
mould
derbyshire
allie
##viere
scin
marries
subclinical
##oconjugates
##olab
larvae
##pace
hauling
follicles
##dian
submit
bayern
tinged
##ocholine
no
approved
vowed
medallion
nonsm
##imotor
##oglobin
subdivisions
##urition
recalcitrant
##ording
##テ
##ophosphate
##ssed
forrest
parkway
##acker
veteran
hist
##entistry
stereoselective
[unused55]
[unused636]
metro
⧸
##omes
myelin
sasha
##dles
tetrap
##mond
maroon
electrolyte
##edic
##ס
⍺
embodied
immunohistochemistry
##ration
atp
reformer
steam
hormone
ᴰ
##sen
li
ld
1859
[unused502]
ibd
1665
¦
pueblo
stresses
autocor
inferno
peep
ballad
##uberculosis
doubt
affected
##ogluc
##alia
##rks
##iotic
##iaxial
[unused358]
virions
##col
[unused394]
colony
lowering
##uta
coin
impregnated
accelerates
multifaceted
##65
matrigel
hanna
##duction
cora
luminescent
texts
pitu
hectares
intakes
cork
visualization
sacr
leland
captains
endoscopic
typical
untrained
##plin
##leg
citric
prosecutor
jerome
groundwater
##ate
toolbox
grasp
##torh
similarities
leapt
##ospasm
microinj
louise
slowed
viz
##ssi
##ush
mpn
##trac
##eus
promotional
4b
resurgence
methylprednisolone
##torm
##dak
fret
agent
halls
winced
##ochemical
senate
remed
pavel
detox
commemorative
##ing
attacks
mighty
##pyr
phosphine
detachment
⑩
oxaliplatin
paternal
thus
##elia
echocardiographic
maximizing
##amines
successes
1924
shellfish
significant
##rr
slaugh
298
represented
xenograft
immigration
conjunctiva
##zong
rpm
timesc
##hey
contraceptive
prevalence
spleens
euro
##peridone
fractionation
hectare
husbands
currency
alison
vote
occupancy
##imum
vidhan
ᆯ
ernst
illustrates
schiff
firmicutes
dysp
tethering
##55
parturition
anomal
##amyl
3beta
altitude
208
shi
atypia
##ss
crate
neurole
aml
aa
interfering
easy
refusal
mage
pelv
paz
ascot
antisense
gambia
sets
eu
granny
philology
##ts
)+
pistol
gfr
alvaro
stokes
##β1
त
barrel
##orph
describing
hemi
cleanup
hydroxyethyl
##itively
clouds
gottfried
think
logic
(≥
##asia
cv
photovolta
wife
°c
travelling
benji
provid
therapists
destabilization
regained
ก
[unused149]
ppar
boyfriend
##eav
κ
transactions
254
authorship
baboons
cares
plasmapheresis
coated
ᆨ
decoding
##tists
herniation
##ogonia
##ɲ
telecast
lobectomy
inositol
hastings
##out
ventilated
earrings
##学
rain
trevor
leukocytes
fossa
detective
transitional
elicited
cyrillic
##anesulf
ferritin
carers
172
##enoid
magdalene
##rina
mahogany
rooted
##elines
区
nest
edwards
baccalaureate
dazed
bcl
roadway
deposition
destabil
discordant
dig
##˟
inventor
ppv
bomber
stevenson
[unused24]
##ᅥ
trkb
##nu
##itha
mayo
##osylation
highlighted
visual
looming
##ach
toxicology
##rika
filing
##lines
##rion
bangladesh
##oblastoma
indones
e2f1
murderers
defenders
cholangi
shattered
##virus
##rolled
309
glut
alcoh
spastic
stories
buck
reduc
scavengers
deph
synthesised
disciple
metac
lantern
gamb
angiographic
drill
gynaecological
ip3
pittsburgh
rxr
referred
quinidine
knowledge
acquisitions
certification
戦
ou
ල
branching
pressured
##urred
bothered
naf
mats
upstate
##yas
catalina
[unused63]
abbreviated
portal
[unused65]
hands
furthermore
adoptive
##sal
recap
タ
rustic
##ƴ
##ida
milos
[unused830]
organising
joo
##ifug
##enzym
franchise
##odend
##es
ᴏ
##obiological
swallowed
antrum
distinction
memoirs
nausea
##iov
aminopeptidase
repres
reduce
##bino
nigel
trademark
##allow
##清
myocarditis
##active
arresting
segregation
numbered
researching
##ritis
core
sovereignty
fluorine
giovanni
documentaries
hyperch
##ω
illustration
brentford
romans
antiapoptotic
huffington
nomadic
hypertensives
preoperative
fibronectin
drawback
between
destruction
mosa
bermuda
##ieri
precocious
sched
subgen
ท
melody
borne
##oprost
stifled
casino
rheological
wages
[unused875]
confesses
##opharmaceutical
))
index
badge
##chan
ssr
emr
cebu
singing
ethylene
instr
matilda
plumage
##mediately
distributions
empl
##otracheal
ivermectin
metapl
fallopian
upar
clinton
ᄉ
dewey
ameliorated
[unused988]
vib
tried
neighbors
galact
milwaukee
tricks
qa
breaker
##h
braking
‐
identical
##！
mindfulness
cbp
demographics
viva
coughing
toulouse
antim
running
##rogl
##acers
ceramics
corridor
finite
calmly
speculate
##pathy
##₆
##vance
birth
jupiter
steer
vo2max
##iptine
analyses
serve
##©
##wa
usually
gesellschaft
duncan
emission
commonly
##omann
italianate
esophageal
##had
prostitution
circled
1648
valid
haemophilus
wheel
anthocyanins
##09
rrs
flute
declines
berber
trailer
sepha
seater
esd
estuarine
##iprazole
##earch
execute
##yne
##ools
ه
hyaluron
austrians
kassel
reposition
aware
sears
h4
editorial
scowled
porc
##ry
##zyn
##oum
evasion
textiles
##wley
plasmal
pce
mansions
deter
physicians
+.
sarcastically
##ecific
gland
nationalist
ensuing
##ered
convey
impairs
##प
displac
croix
augmented
##29
1745
fraser

##inosa
periton
flagellar
##igible
agreed
pristine
curl
transferred
高
drosophila
unexplored
dependent
mu
luftwaffe
electrical
validity
lithium
saccharomyces
orienting
tobr
lovers
hydroxide
##oagulation
neisseria
##iently
champions
##►
shan
yd
bundled
##hepatic
hydroxy
##owing
baptiste
off
acceptable
referee
hazard
meth
##itin
financial
burk
brooks
##mmy
buccaneers
[unused854]
##obiology
uhplc
micronutr
740
aren
1625
##apical
##tour
##eaux
krishna
##ozyg
##iate
##igan
##inescent
revolt
belgarath
exon
##galact
##indole
##cial
eos
##titis
meval
##mori
aidan
##oli
imprint
scouts
xiao
preferring
kenton
immunocompetent
ﬄ
mm2
sank
##iman
##ulina
voted
amnesty
ovale
mixes
##ooped
focused
draper
indies
metagenomic
radiosensitivity
bonuses
cadavers
ptx
mlc
placental
##tm
remarkable
reclaim
##ocene
wanda
pore
grille
masculine
dove
palmitoyl
tdp
##63
tas
estr
##kot
##estis
ephrin
visa
##ical
tortricidae
tetrab
co
investigated
middleweight
貴
ᆴ
usa
##hion
cauc
risen
brisbane
tilting
vasodilatation
/
##μ
ava
[unused424]
##avers
guiding
ascorb
syr
w
1790
(+)-
criterion
##etti
geometric
epithet
vikings
530
##এ
ser
deposits
complementarity
tpn
##bbing
hesitated
dt
makeup
##ative
cheaper
ascending
[unused667]
irritable
processors
concerts
runx1
enforcing
nanob
dilapidated
dolphins
intoxic
niddm
comte
expir
valpro
concentric
eased
rendering
##ﬃ
##phus
considering
##125
mina
hannah
toys
##cuting
moder
407
##ised
generalization
fem
p21
##achy
inos
##pri
虛
tfr
[unused983]
inhalation
flight
are
phenanthrene
trek
射
##ndi
amyl
medull
nl
ഭ
halifax
hundreds
palpable
##opeptides
connectivity
##ie
multichannel
stic
glancing
fugitive
[unused469]
crs
enlargement
##adel
darwin
##iam
decidedly
feared
uk
thrombo
##ec
jessie
sebastian
unavail
babylonian
##█
##ente
monsieur
а
##iodarone
fl
[unused246]
leeds
##aning
kangaroo
autocorrelation
[unused993]
fasci
monos
wwf
##lem
##ucl
slide
dutch
threw
##hun
immigrants
smashwords
era
vane
beg
##yxia
voodoo
[unused405]
resigned
armoured
tits
anca
licenses
thermogenesis
heresy
owen
happen
cory
enables
##wi
bolivar
multich
cgmp
##ln
##ᴅ
hnf
download
##osan
##fe
##ino
privileged
##ʑ
biases
hydroelectric
##ometrium
metaphor
equival
##operable
pamela
nights
sanctioned
biophysical
little
##cnts
gain
120
puppy
melanocytes
membered
pelvis
osm
houston
##奈
न
inadver
##orption
##ark
courtyard
guerrillas
intercontinental
amoeb
ferr
outrageous
cortic
foyer
atop
thiols
calgary
replicate
dwyer
serovar
development
##ovo
glaucoma
exciton
work
anal
gaucher
thiobarb
governs
multiple
duffy
[unused817]
preoccupied
##yles
##hila
neurokinin
labour
##ه
minimizing
cued
unincorporated
[unused253]
strontium
##mise
holland
activation
hinduism
gene
bombardment
##olarization
##parametric
laden
paste
##bens
vf
ʝ
colch
desktop
##一
stabilizes
##hu
endoplasmic
progresses
##holz
traveled
##anib
brandon
##lde
narcotics
##aden
mechanistically
antidepress
presynaptic
challenger
##inarily
##ſ
##behavi
presidency
option
bodyguard
holiday
prescott
exons
descriptors
denitrification
principle
sniper
##free
thalass
adul
overexpression
[unused499]
paisley
pamphlet
olympian
transmembrane
lncrna
that
musculature
nutraceutical
bell
║
spending
lupus
monomethyl
icelandic
coi
homestead
roads
elements
xanthine
supported
microparticles
telomeres
extin
epithelium
marjorie

(<
emotions
vir
microgram
ₘ
troubles
く
hyperc
rc
##‍
##drick
tnfα
mesoc
matern
founding
sheffield
uefa
weston
diplomatic
exercise
rumor
components
curator
##urate
و
##made
fertile
hnscc
メ
bioreactors
nachrs
undersc
perfluoro
cross
ranitidine
confused
##rick
malaw
##icing
##fles
cardiomyopathy
hamart
hsp27
beta2
proponent
xanth
semin
1836
staggered
##gues
##asma
1763
rampage
abcg2
names
yorker
confocal
electrophoretic
transesophageal
nanospheres
belongings
rib
##ᵏ
##ading
##tick
scrutiny
grit
speedy
##ষ
safari
ont
##ophot
attendant
serop
qual
methadone
[unused19]
ranges
dining
##hammer
)°
macbeth
##im
debates
masc
pteryg
##o4
##ounds
##landa
テ
mb
##ariae
juris
telangiect
pcm
ike
breeds
ama
rp
##inant

##ptosis
##ok
fiancee
hydroxyd
faeces
rosemary
mcleod
[unused536]
managed
boon
##nco
doses
boris
propranolol
carotene
##uv
十
##aceus
stabilizer
##ecs
##m3
##ofluor
equestrian
iodine
vegetative
newt
admired
meadows
malvern
40
paving
fossils
duplicate
[unused737]
prolonged
trans
nephrotoxicity
##idate
selected
biv
colours
deployed
intercellular
pleasure
classifier
env
attested
##tain
macron
thalamus
playhouse
##yrinth
grimsby
saetan
##fo
pun
butte
fail
antonia
blessings
[unused954]
##ecal
succeed
##thorpe
abund
cof
anticipation
restrained
sylvie
appleton
forms
rash
nanopl
##do
##iting
##name
comment
pcc
ischaemia
superman
[unused807]
291
somme
dmp
patrons
##ʹ
stepping
##icillin
##ร
july
tug
cscs
concerned
##icles
enhancers
##ogle
misleading
##chuk
##श
rejoined
lo
update
##otherapy
##jima
##eum
proinflammatory
adventi
##etite
##м
##anuclear
mascot
hygiene
photoreceptor
##opor
frey
pharmacists
##nad
tnt
phleb
raw
cryopreserved
frustration
boost
countered
traumatic
conscription
splicing
fluoroquinolone
feldman
convinces
bern
##aginal
##osity
locked
nurs
asct
##androsterone
proliferated
holographic
myers
polgara
##apeptide
[unused153]
##page
282
radioimmun
chains
priori
immigrant
peasants
hela
igfbp
europeans
tainted
ubiquity
variation
breathe
##gold
montana
##eem
overtook
barren
listener
nanostructures
mainline
smartphone
joshi
oncologic
##gy
green
action
pictures
hilda
majestic
harmonies
[unused574]
mutiny
spd
scattered
hyde
##gest
resin
rupert
##amp
1726
baumann
coagulase
funk
hematocrit
canons
psyche
skating
tb
maintenance
unique
guam
guarding
spaniards
parrot
repeti
sub
microarrays
nurses
tammy
˝
##丸
nan
atv
conspicuous
critically
[unused987]
au
italics
anticonvuls
##ර
##acle
る
##ride
sce
laminin
blinking
nont
wrestled
papain
lehman
pseudomonas
##sight
pollut
disproportion
motivational
pollinator
wheat
justices
applied
leonard
namely
caledonian
##benz
fistula
##ᵇ
会
only
algebraic
intriguing
ric
##remia
##plied
analys
sid
⊔
shortcomings
tugs
##iscal
pleural
extinc
##els
neuroanat
mercer
serves
##：
##quilibrium
restric
##
ane
absol
silencing
radiofrequency
ampicillin
##cellulose
literary
unsure
archives
##get
sod
deprot
##tracted
bosch
##ankton
lebanon
exponential
##care
forerunner
bernardino
##artan
pausing
##osis
manuscripts
toast
##ositol
commodity
pertussis
jour
⪖
ewes
blinded
reductase
##olving
amphip
venez
##buck
hyperal
stimulants
##mei
[unused101]
##yler
lately
saus
##idines
[unused292]
[unused648]
advent
勝
indonesian
multidimensional
[unused187]
deg
allyl
immunoreactive
fighting
pesticide
aqua
internship
##dgets
##otrophs
citizenship
##書
p450
))(
barnett
neuropeptides
marquess
percival
collaborators
requiem
meas
deputy
##tology
bj
surrogates
wreck
dna
##gizing
junta
##atching
##ogenesis
generalized
module
##atus
flaw
##√
##ℳ
microcirc
metabolites
thayer
kinematics
##ˢ
publicly
branding
landings
##olysin
responsiveness
ryanodine
##crib
##200
##ulture
symbols
##apore
上
ignore
boiled
sardinia
eve
perth
##hemoglobin
spaced
berry
missions
filling
neutral
slender
insert
asiatic
answ
##lette
crystallized
24
handled
##omyositis
##choline
expose
regimen
superv
silica
hydrogel
criteria
metabolomics
'-(
carmichael
##cephaly
sped
##oryl
◽
##flower
enfor
chaotic
##oked
%.
examines
glucuron
steroidogenesis
echocardiogram
str
picks
##th
gown
hemangioma
cephalosporins
shoulders
retrieval
[unused966]
paroxys
1772
東
amni
phytase
##sonic
predisposition
##icio

recurrent
rabies
uncanny
dominican
1956
unkn
moaning
watering
bismuth
gis
anomaly
##anthus
##
heroism
─
##ᆴ
##iness
1788
lidocaine
1867
##a
cedric
sportsman
microw
spaw
hunt
illuminated
[unused309]
1899
##lich
requir
privile
##inetic
invites
standardize
##ɵ
ethanolic
vital
eisenhower
tobin
arachnoid
peyton
mmt
≤
##atri
malarial
21st
##vation
directs
owes
ferm
edited
quickly
perform
##ease
flared
chilly
clerk
burs
sponsor
myoblast
stoichiometry
mythology
##cus
madeira
flanks
nellie
templ
caliber
delighted
devices
colorful
mcdonnell
posture
unic
sac
ribonucle
metis
intran
fibroblast
stably
dext
thermoreg
separating
pulsing
##link
petrole
octyl
##sitor
1697
supposedly
totally
[unused925]
commitments
evidence
£5
##achlor
foe
greer
murmurs
unexpected
sculptors
isot
ா
consort
##etz
spelled
prohibit
cut
monument
pointedly
assured
belarus
maureen
alsace
echocardiography
bim
violin
invasive
##cytes
developmental
judd
alve
##odys
[unused391]
##gling
omn
##130
1972
fang
##ging
void
miami
curling
##urai
590
gase
b7
⁻¹
establishment
##lick
##imolar
##scan
miller
saf
##entes
surpass
##麦
lenalidomide
extensions
adequacy
dentists
isoforms
≡
##tled
##名
dimethoxy
wavegu
induc
nonunion
manfred
northamptonshire
cervical
mein
objected
##lements
##tilled
callus
glycaemic
specific
democracy
superintendent
[unused764]
fixed
volkswagen
goldfish
optimism
##ア
dest
##fh
1810
cd25
riboflavin
friendships
##ostal
glucopyranoside
impaired
lactamase
household
nph
##icia
050
texas
head
electromagnetic
trait
figurative
adhd
noon
blinding
soaked
taf
bbc
##afenib
ℽ
##ذ
kine
octave
terat
throbbed
##arge
##aturation
八
feb
molecular
197
##dled
hepatotoxicity
[unused182]
dixie
amyotrophic
fiat
##ulum
##amino
acclimation
burkitt
tfi
##jured
cd11
adjuvants
[unused570]
##odeoxyuridine
sweater
##kim
lorraine
75th
[unused6]
macroc
wall
##ytomas
##birds
biochar
##esp
methanol
coils
stimul
pseudoaneurysm
scholars
soloist
##olism
swiftly
sabotage
phenotypically
saber
marches
educator
distal
pten
labelled
leaps
consultation
armor
##ints
fragilis
mused
arkansas
##nell
arithm
programmes
terra
hep
gallo
neurodegen
aquino
vow
[unused240]
##⌀
strip
overwhelmed
stirred
enthusiastic
coarse
revolutions
##walker
tailoring
ralph
pornography
##bang
᾿
redesignated
##ologist
conjunctiv
##yramidal
politicians
engravings
dihydro
##ipe
orientations
interpreter
centralized
brake
ᆲ
orally
climates
##⧧
discontin
featherweight
gynaec
##uation
##lift
synaptic
urbanization
impurity
observing
rnf
phyloge
commissioned
autom
##bner
baptism
nog
1897
presently
##worm
tace
scenario
##le
##neer
##≤
reefs
futile
##adiol
71
biofil
dk
altitudes
##ophiles
protamine
[unused704]
prasad
resolve
##pac
107
substan
uncon
possessed
acidification
org
##igr
overview
restricts
空
vargas
exhausted
maltese
##rini
shunt
##amellar
phosphorylated
mj
strengthened
##lese
irres
##ntial
pigs
cruelty
cyp1a1
##illar
schooling
exosomes
antifung
emerge
malacca
redes
tata
extens
##tic
isbn
1791
justine
##в
##sf
pedestr
##enti
morality
endovascular
meningococcal
relative
##reval
##ke
mesoth
balthazar
kitchen
adrenaline
bio
achalasia
##osacchar
gould
cmax
quincy
disor
renin
##piper
meat
##avir
towers
##test
biodegradation
potentiates
止
bk
decreed
lun
prs
alarmed
tormented
##nosis
solubil
molec
[unused688]
blackberry
superstructure
classics
##bright
judge
##ban
homework
commensal
decrees
##½
heartbeat
embolization
circumferential
originate
ikk
ket
comfortable
apolip
##clim
gw
beng
mst
glasgow
##plicating
[unused443]
dissolve
symbol
╪
endophytic
malnutrition
determines
radioactive
chess
##croft
voyager
##acillin
pals
##othorax
herbivore
iron
##oper
principality
stenotic
robotic
rr
disadvantages
manure
isol
visibility
##ߝ
cambridgeshire
jump
dyspepsia
southern
##acheal
##evelop
fundraising
##uce
anesthesia
attractive
transpar
warrants
leap
##sman
conductive
lbp
##uits
##ை
##atosis
coa
torsional
forcibly
loyal
idf
pillar
recession
zeus
##ʷ
##ℵ
diversified
dexmed
##arginine
spectrophotometry
##copl
reflects
##osensitive
circa
##43
dce
fbx
佐
biopharmaceutical
detoxification
##ophenol
coating
[unused49]
chemotherapy
clearer
precip
noradrenaline
##itte
contenders
##oc
utter
##icate
vaguely
joey
refining
orthologs
swirled
entrepreneurship
newcastle
degraded
##ocycline
1770
sh
trier
##aglutide
##words
damned
chalk
circumscribed
פ
##cm
connacht
inhabiting
fibrill
tachy
##ometallic
mac
adjutant
disrupted
rum
pnd
[unused367]
gardener
##uh
[unused249]
i2
measure
campylobacter
tito
outcomes
analyzer
contemplated
missionaries
##ynes
psychoactive
ｃ
##usia
connecting
##oxygen
microenvironment
proto
##kt
##urus
tanzania
##tebral
efficacy
stromal
heal
killed
##≾
fingers
##liptin
quenched
divertic
##oom
strength
partial
##tives
##68
reca
##antly
hour
massacre
genres
cdna
jungle
comune
##rie
eleven
computers
antimalarial
lactation
##othromb
teasing
semantics
目
cbz
##lary
m2
uruguayan
##oresist
##atids
hawkins
pay
shy
masjid
hawthorne
##ocampal
oat
ig
seeker
™
feather
seam
centennial
noncomp
fate
buying
norse
verdi
slick
unfractionated
##9
splendid
botanic
amtrak
##ismus
spindle
hydrolase
true
lectin
ductal
[unused411]
##hope
tko
avir
##rexate
[unused42]
antiinflammatory
confluence
##rangle
neut
hyperuric
‿
defeat
##uterol
procoagulant
enjoyable
##⁷
dumped
trapping
##utable
setting
glycolytic
##aten
glyceraldehyde
##azepam
investigator
wilms
chromatography
tetrod
ҝ
additions
fresh
kota
katharine
rogue
advertis
alu
##ozygous
supervis
feline
izzy
berkshire
##pala
ambul
impairment
aldo
##atinum
tesla
260
working
thyrotropin
##mac
choking
topic
1875
heavily
##nsen
cellulose
arr
lily
##⁻
peroxidation
1869
reckon
[unused506]
hospitality
managing
⁗
##gina
maximum
bobo
electrified
##ophosphamide
ж
##ofer
pemphigus
offers
skilled
intercal
##atis
justif
birefring
bhutan
neared
administer
##ddle
[unused71]
northeastern
catholics
か
##heads
questionna
pil
##rief
vinc
##［
methodology
towering
explodes
sirna
##wled
doorway
perce
##ams
##etrically
##otoler
##attern
[unused952]
serving
league
hydroxyapatite
コ
##լ
sullivan
yelled
##asurable
colored
##neil
##ය
⬛
##bach
genuine
chilling
intrap
311
##
teratoma
##oelectric
hunter
undernutrition
hutchinson
caretaker
##angement
substit
345
astonished
[unused342]
donated
parentheses
ultimately
##orax
bulb
##_c
##thalm
intussus
furn
adm
synaptophysin
mdm
thrusting
bioaccum
vicious
ᆼ
blackness
##ウ
ϒ
utilizes
##bble
nematic
dysregulated
peerage
tips
mumbled
tele
##ductive
netting
colonial
##53
venezuela
archdeacon
breathing
##車
communal
multicentre
##fly
##ifor
##ached
ultrasonographic
##dini
nowadays
raiding
##ocarbon
##thane
neuroendocrine
將
˙
bikes
##dra
shelton
prosthetic
something
nanoshe
cili
breakdown
##azid
##te
##grate
##alloc
beginning
prop
sophistic
defiance
manning
##bbed
##athic
prescription
##strel
myogenesis
##rand
##rier
spins
constr
351
3c
implications
confess
involunt
crows
mendelian
##vat
⋮
##spr
boone
sorrow
seedling
fielded
##2
##oneu
##भ
examinations
bahadur
##囊
spotted
cereal
hazy
##
[unused665]
prosecuted
##ラ
##try
lmwh
bradford
buddy
mrc
ensures
##onstr
repetitive
navigable
fielder
sacc
tear
featuring
##tto
##nt
underway
dexmedetomidine
sonication
antibi
##व
concerted
sincerely
glistening
isle
optically
succinyl
##meo
dynamin
ན
##ll
gaius
##ister
captained
prodrugs
recip
ョ
##nched
nasa
##nnis
consider
marko
[unused581]
linoleic
examiner
bastards
chevy
ƙ
absor
##aemic
foundry
##ek
r3
##arious
reigns
##ito
##uple
microcephaly
##opyridine
##二
ride
banging
waste
##rodesis
##acer
pains
genera
creatinine
b1
miscellaneous
sphere
##icon
อ
denti
vb

age
##guanosine
atrioventricular
vincristine
fischer
loves
gingiv
pork
summon
practic
registry
shooter
sacramento
##ⅵ
##osa
prem
rod
##opril
##imi
parliamentary
kneeling
transcriptomics
atari
magnetization
percept
predominant
##軍
simplest
insem
departure
somerset
##ences
##iev
identif
1682
slacks
clock
legislature
born
seo
[unused786]
dus
manner
##tion
1991
glenohumeral
sri
resign
administrations
statins
##olaryng
persians
1945
sergio
bilaterally
westminster
dislike
[unused516]
##tidae
##
##崎
##ɒ
neutropenic
repair
mask
bafta
summary
##vos
mesa
spider
jail
mined
##ern
ラ
##oids
275
ᴧ
sensitizing
chargers
spliced
##α
advisers
assortment
##onography
wee
##erc
##ж
dengue
cn
##180
babu
cing
##ucker
filler
pem
dawned
##us
gatherings
ru
imrt
1817
necessity
rhabd
legitimacy
postures
##iatr
donetsk
hornets
mucin
lombardy
##tc
banana
segmentation
fest
irinotecan
cirrh
spect
tully
nichols
economists
secreting
compound
rarely
restriction
alcoholics
##ബ
ministry
##rown
##gical
peptidase
australian
##vier
policy
timescales
jay
inspiratory
##body
coupled
ithaca
reset
lia
durban
geographically
mall
imports
tfe
##hv
iris
kaempfer
perchlorate
cholerae
papill
cooh
].
公
leaf
ш
𝐷
##epith
governor
lest
effective
pur
electrophysiological
kyle
thrombocytopenic
wave
ˑ
modify
mesenchyme
##agin
sw
kate
carpets
##itid
sucking
unmask
##eedback
##81
layers
##werk
lima
188
toulon
介
loosening
##lidae
piers
tlr
##cium
##than
##ence
trajectory
##blood
byrne
introduces
##注
asserting
nevi
anionic
transpl
ly29
##apt
##idase
metrop
cyclic
##able
phylogeny
abscesses
##▾
⋘
##hita
##otri
##oreceptors
##cess
##nir
cava
falsely
strateg
##セ
ciliated

subcommittee
octagonal
hpr
##s1
antith
interactions
##ometrically
[unused384]
grew
renamed
gaming
##〜
remixes
impressive
previous
colts
erebidae
binder
dwi
##ᆨ
clarithromycin
rhabdomyolysis
conan
po
1902
[unused56]
spurs
##600
zimmerman
js
irene
##vita
childbearing
[unused614]
##acter
bristol
##amel
##k3
functioned
grandmaster
robert
##ship
acetyls
[unused220]
spoiled
‡
##co
pedigree
paralyzed
commercial
lobular
sca
postinf
trap
##omatis
caesar
riton
ல
hardcore
nightclub
newfound
barns
any
soldiers
slit
reasoning
kenneth
pectin
mci
czechoslovakia
p73
celaena
constituted
##ulsion
maybe
drummer
leads
reminiscent
##出
externalizing
upon
##iosity
##arrhythmic
##bba
carcinogenicity
##վ
shbg
amplify
devotees
automobiles
cps
retr
##cana
angled
##craft
gpa
vagin
sprung
##eff
-->
implemented
court
(+/-
tails
syk
clawed
insensitive
hepg2
##ffie
neurophys
clicking
ergonomic
animated
reorganization
presentations
##isen
##cchi
jurassic
##59
##orectal
##gins
##ʲ
▶
##nob
succ
airing
##യ
vicar
mostly
silva
##inge
sinonasal
catching
following
##rophot
seated
tours
centromeric
##ampl
##hole
anxiously
bacteriophages
aggr
ambient
causeway
inflammation
[unused361]
herbicide
baclofen
mammal
captain
wherever
##asome
asphalt
dept
##rize
este
##activ
crashes
ion
diner
##fir
tl
congressman
##founded
momentarily
translit
ｵ
labelling
craniofacial
##ovalent
noncovalent
founder
information
differentiation
satellite
spots
﴿
[unused483]
shooting
fluency
##پ
biosensors
caud
metabolically
eimer
stu
[unused855]
solids
petersburg
flaws
110
##pora
##tidal
cms
)·
coagulation
leiomyoma
designations
##geny
clermont
checkpoints
altar
bond
stereois
trpv
styx
calvin
##bedo
trader
slapped
chlorophyll
oryz
##othoracic
gymnastics
##ulitis
##iptyline
ist
toward
critical
creeping
rhythms
daniels
forgetting
onions
∛
##esti
classed
odont
subth
##⋘
appealing
##ale
##и
formerly
thence
timed
yell
ectopic
officinal
preservation
geelong
homeostasis
##trib
save
##romatosis
formally
dba
##549
pair
monocular
unchar
place
cimetidine
##ware
126
spectral
affectionately
survive
financing
genocide
replac
♯
shorten
##urity
tests
reissued
##osing
spawn
src
##tigm
obstructed
respect
##bat
screenings
##iltration
##isely
##abular
##anto
doyle
igd
##amphetamine
##
awarding
bmw
dracula
nitros
protagonists
isop
showed
##monic
philippe
##rrick
empire
calabria
##eric
defence
icao
phenomena
musica
marianne
##osteron
heard
amendment
##lder
bronch
halo
backdrop
compositional
cumulative
blinked
ortho
guerrero
proteases
diffusivity
leban
##lat
##東
adhered
##east
evie
hear
1653
ය
[unused566]
[unused303]
tfs
##atiss
soaring
uniting
murray
dense
mutant
runners
physiologically
apparent
thiophene
turbidity
##rco
vanadium
##ofibrate
##ropic
16s
homogenate
or
450
music
communicated
carry
heirs
serotonin
euc
euthan
oblivion
neolithic
enthal
blocked
truce
lipophilic
squamous
spilled
wnba
streptococcus
among
##organic
underm
##istatin
immunop
84
##anoyl
gabap
tuscany
##ive
enzo
mixtures
spectrometry
standard
androgen
observes
cyp3a4
radha
balb
eif2
presidential
μg
disrepair
neutrality
1825
isopropyl
##nbc
##wl
##tyle
[unused18]
christine
tudor
##oluminescent
mica
‶
azerbaijan
participated
course
ഹ
angel
##acrimal
gabon
##oflavin
cookies
regenerative
accountant
##zzi
##oblastic
loaded
lizards
genomics
##izz
rabbit
##arc
[unused589]
triacylglycerol
demons
[unused865]
##hwa
finalists
間
mms
impulses
##mani
respective
sla
hair
##rrie
fauna
bruised
midwif
pharmacokinetics
##diagnostic
hangs
##nka
##glut
##த
drink
disgusted
##chai
know
##oxazole
dissem
##win
fishes
arabidopsis
202
prefers
cheerleading
##atech
rosenthal
parasites
multist
##river
wolves
##ipr
cell
##eed
lester
##ario
visas
fel
popularity
heme
subdivid
psalms
uncontrolled
asthma
520
##nd
##igen
נ
barrage
embarrassment
mustang
lysosomal
exogenous
troops
constituency
charges
gly
myself
##ball
sentimental
antennas
becker
stephens
encourage
fluorodeoxyglucose
##roids
metal
appreciable
tamara
unavailable
𝖱
differentially
##cale
##otted
operates
brid
里
prefer
##ulas
##puts
sarcomere
transmit
monocl
need
stud
germans
femur
proponents
##umination
##drich
sprang
[unused774]
pseudo
reliably
##b3
plex
slash
etiology
accelerator
harlan
fingerprinting
stamford
francoise
royal
tracking
mortal
##ole
##esh
p14
ف
q
ग
waltz
©
pines
##nch
chron
cardiometabolic
sulfonate
transatlantic
##kos
भ
entertaining
stalks
versa
assists
≒
socs
summarizes
twenties
carrage
cocon
barrier
jung
loudly
coefficients
buses
##ե
divided
lind
stranger
##ige
hypotheses
##rim
##quitable
discus
beliefs
hack
elsewhere
euk
##atemia
micronutrient
expeditions
##chis
browne
udp
1734
gran
##estinal
theresa
₳
transferring
rop
ivo
fibrosis
##omorphic
beit
rebellious
gastroenter
[unused43]
##nitros
convent
##ight
##agglutination
bernard
##arring
yukon
rendition
strain
reductive
babesia
cave
[unused706]
lik
tennessee
cylinder
d5
crazy
wembley
##հ
appendic
areas
[unused879]
mammalian
kin
nina
1868
benthic
corrected
racers
##英
africa
glucocortic
serov
##thrombin
sony
##ogeneic
replay
capitalist
abolishes
cheshire
##mb
linger
##twined
remained
,"
vinblastine
installed
お
psoriasis
asteroids
##ycholate
seoul
strom
##9a
1827
resid
perovskite
##ethylene
##cls
##ila
##imburs
butyric
scorp
actin
cd38
berman
bace
packaged
villages
##ｉ
##ature
forbade
neutroph
cpg
##urs
mafia
supra
##extr
adventist
erosion
pomc
protecting
##asions
opponent
plaintiffs
tailor
pepsin
eb
intraf
1690
▓
##opter
##erie
contempt
oxford
prizes
##◽
cosmic
commonplace
cpap
dsb
##ining
prednisolone
labels
arranging
puget
demonstr
promoted
dihydrop
##lymph
solemnly
benth
dad
##istin
##hopper
imagining
paddington
cent
##oglycans
##ك
girlfriend
gilts
sawyer
##oese
qol
coincidence
conversely
gastrop
varic
ո
142
##ilibrium
initiates
##ರ
proposal
spill
##roscopically
##mount
ectodermal
electrospray
enthalpy
kegg
horne
undef
##alasia
hl
somali
cortisol
majority
understood
##agonal
##gano
##թ
randomization
dermatologic
fa
scoop
inex
mouthed
##6
fisher
whatsoever
intermediates
percentages
abundant
imminent
boycott
##elihood
cold
##fies
appointment
##ℜ
functionalization
intellectuals
churchyard
harder
aura
veloc
chocolate
betsy
proph
homeobox
bont
ᅪ
[unused972]
reflect
nutrients
defective
kelvin
１
##tract
##uba
##mmel
undert
ashley
##idal
fingerprints
waals
##arney
parents
morphological
lipof
akt
leung
lyrical
glyphos
##ordinate
##hat
inevitably
》
[unused156]
µm
##istribution
crept
[unused115]
[unused962]
##bre
vessels
[unused680]
toxicants
ъ
##drum
tolkien
behavioral
nonoperative
##│
moan
irritating
bul
prosthesis
latch
1820
produc
##aling
suprachiasmatic
caliphate
##
barbecue
##oto
##gus
314
positively
astronaut
##wide
##ffen
who
ptc
elucidation
darts
dated
metaph
##ospheres
patients
diaries
##ensive
phd
##omb
ovid
intervention
fragmentation
##ulph
clover
illuminate
##rwood
investigational
##erad
##₦
oxidation
levels
continuation
♥
shane
diffusion
doris
donate
[unused165]
assembl
lending
##ula
##deh
##ler
mitochondr
claire
abilities
teenagers
parane
bacteremia
roanoke
##ylv
upgrad
breed
respecting
scleroderma
##fact
trach
larv
mondays
##zymes
topography
##othiazide
ϫ
nicaragua
ﬃ
##itability
dimers
cholangitis
monooxygenase
##erto
mlb
sweeney
##fol
sediment
philips
louisiana
热
satisfactorily
starting
acetaldehyde
chile
conditional
differ
overs
uvr
##8th
inoculum
##eger
dihydroxyphenyl
ま
##utely
##ker
marge
皇
##s
german
##イ
restrain
proposals
provocation
violently
gaza
##zzling
humiliated
17beta
standards
[unused818]
mo
##acted
suns
synth
multinational
four
divert
cga
##henko
[unused164]
issues
dfb
eutroph
spectrum
##lists
counterpart
office
sunni
drowning
bronchoalveolar
unsafe
mandarin
##rou
〜
orthogonal
hypoplasia
defaulted
predictions
##nus
referring
##ity
varies
cancelled
overexpress
summer
sess
folded
##linical
##oplasty
mechanism
pony
##estin
archers
ignatius
##domain
metastable
boat
[unused159]
##rok
allograft
livingston
##thritis
banks
contraindicated
##③
##anthin
asphyxia
harbor
chapel
renee
##ds
roadside
sighting
lever
colloquially
actuator
##ouses
endorsed
##tructure
dose
oocysts
democrats
fiber
##shaft
heading
banners
smile
stole
antioxidants
brandy
anisotropic
recurrences
430
##eted
adriatic
##69
latency
thyroiditis
◦
cystitis
ancestral
##cci
##adily
昭
tatum
beech
kinet
otc
necess
homogeneity
ar
hang
##line
hyp
##osable
##plen
404
ville
magistrates
##‚
benzodiazepines
##cave
##eving
symposium
gypsy
ppm
##stadt
neurof
rack
owning
rel
gloves
corrupted
##iso
agm
peritoneal
triple
jensen
minh
broiler
topographical
##okeratin
recycl
leaders
vm
nut
1954
biochemistry
bavarian
##bial
##omized
arrange
flea
moderating
eureka
pitcher
ballot
roller
diaz
cade
bioaccumulation
biosensing
participant
##aceu
ravaged
bug
amman
fim
##lace
rulers
hibern
cheryl
##dies
frequ
nigerian
leased
methylpred
##見
forefront
gingerly
modules
prestige
statistics
pe
##”
nonsyn
contention
closer
`
sorafenib
flavour
victim
hurry
##atible
infan
##ead
##ᅭ
contour
ノ
traded
stimulator
##frame
adrenocortic
doi
recanalization
1793
proline
##osites
claud
anchors
[unused923]
costimulatory
reapp
disapp
coastal
occupations
chalmers
syndecan
kaitlyn
##kko
korean
injuring
##פ
ᵦ
clements
##balanced
##ute
##ם
bimetallic
harbour
pickup
integration
continual
oncogenesis
capacity
unite
##apa
tensed
implies
spermine
##orestation
ophthalmic
probands
apologize
1630
aneuploid
pretended
helminth
loki
eosinophils
virulence
##ain
constrained
impossible
505
accumbens
semester
awkwardly
things
##lithic
tongue
h9
nitroprusside
##idinyl
energetics
1753
rabb
⇔
##elled
##ochrome
twenty20
table
ipa
##ectin
piglets
##yr
":
##ack
verses
craters
門
transparent
pharmaceutical
kinesin
emperor
bingo
[unused532]
investor
trigem
ehr
staphyl
glance
##tide
daylight
[unused410]
##ffed
##ocytic
bragg
ms
##е
1755
iteration
pge2
unsup
gill
canterbury
hyponatremia
propria
2016
cotyled
chemotaxis
brilliant
extremities
syndicate
austro
adopting
revelation
larg
increase
healed
indium
soon
##tek
venue
seamen
masonic
##ள
ϭ
blank
microc
malignancy
vocalizations
##rchy
metalloprotein
ߚ
erythemat
vascular
内
laryngeal
##oreactive
kissp
disneyland
downtown
70s
blind
hana
-,
##nzo
dictionary
foss
porter
exce
department
ranging
larsen
cycload
##mph
##egan
##plasm
##lling
cloac
##xa
◯
monroe
disasters
mov
robb
dang
##ament
guilt
cytochromes
##edge
##wal
miserable
##icidal
⇇
licked
ß
tessa
syndication
urging
comm
nutritional
clary
##famide
estates
explains
collectively
forte
plus
pyl
bowel
sliced
cred
ht1a
shotgun
panthers
rush
specials
##patient
detrusor
[unused203]
##minate
##ος
mirna
enucle
##vir
seventh
示
##iki
abundance
seamus
oc
##olipin
twinned
##ultured
rosary
diagnosed
preec
shaft
tonsillectomy
ʔ
logo
hydrocortisone
asymmetr
flank
kidding
barge
hilt
driving
vip
rental
having
lith
assaulted
marina
rhinitis
dirk
successively
reiterated
reared
trent
soils
##dna
4a
rearranged
tme
[unused960]
fastened
reinn
##72
end
darting
marie
kan
##ophilicity
alcl
attachments
cast
⬨
(+
##dc
##ablative
ℤ

permissive
章
gogh
##hunter
stairwell
naphth
trough
##onymous
multivariate
motors
occupational
##lying
##ales
prescribing
potentiating
##ก
##rable
twice
##western
##oad
oscillations
deleterious
tann
##oreductase
skyla
reactivity
##ensitivity
blunt
windy
##ি
enum
midday
cannabinoids
khmer
quarries
e1a
parties
c16
1965
chimneys
##x1
thi
shares
##bane
preserve
schemes
banning
coinage
inoculation
virological
stro
##rox
##therm
##mp
undergoes
torment
recovering
510
underscores
ferguson
letter
##wad
respondents
₱
juventus
unarmed
##baldi
characterizes
nystagmus
##rta
enhancements
clergy
ada
nonline
[unused643]
percent
spectrom
literal
##=
##atheter
weber
baghdad
rock
##atology
##ucher
miniseries
е
glycerol
adviser
##opulation
academics
microin
interchange
##⁢
viscer
cleveland
cpa
##x10
arose
model
##mins
skeleton
##afish
1913
ტ
celtics
##orb
alba
locom
pauline
བ
norte
##eme
bse
##oton
creatin
charlie
rams
flying
##ph
chondrosarcoma
convers
transrectal
triangle
coupl
eurasian
##deck
edouard
dharma
ging
surge
augusto
schwartz
wicket
##omer
1831
naphthyl
##olation
hastily
switzer
kinetoch
##cb
blamed
verlag
furan
compassionate
tasmania
unicellular
refurbishment
##iol
neuroleptic
wei
##ually
become
individualized
##ъ
alumina
chicago
pyrene
oocytes
##fu
dominion
mirnas
##ecrosis
##ctors
##odemographic
2015
⊂
explorer
firearm
recom
nephrectomy
typhi
solution
mosqu
intraoperative
##₇
ir
pust
գ
##‫
arrondissement
farming
i
##‖
comedian
esterified
professionally
thee
membership
berkeley
disqualification
tuberculin
if
##tu
daddy
lesson
imprisonment
collagenase
##lwyn
morse
[unused344]
##operation
launch
##anium
ferroelectric
withstand
##organ
dinosaurs
forsk
predictor
presley
handwriting
plumbing
naples
overgrowth
longest
ting
micro
contiguous
traditionally
##upp
ald
compensatory
intelligent
ワ

competing
mortimer
peanuts
widened
##minated
acryl
##vasive
infliximab
sign
programmable
epiph
deciding
solvents
##rogenesis
mint
##anol
waving
cellular
hit
believers
##bridge
##ा
flights
rif
##wari
##opes
scorer
containing
dotted
bangalore
6r
◻
p2x7
diphther
1974
engineers
durations
monastery
deliberate
estrone
blend
counteract
orb
##cule
##ב
assassinated
##nostic
50th
##lellan
##abine
1907
##itia
##ᄅ
capd
temperament
wallet
periventricular
saph
gamm
semantic
patrick
reeves
##itating
toxicological
オ
##tail
sermons
1828
secretariat
##econd
bracing
##jejun
##coe
##vira
1762
##忄
##imethyl
manchu
superf
specializing
antivir
itp
therapeutics
[unused381]
swinging
basis
##cko
##98
##aver
##⟶
dele
ȶ
ble
kingston
maxilla
hippocampal
lobby
zeta
runaway
cracked
melted
##iously
99mtc
kif
##
approximately
eas
serbia
pathophysiology
镇
tavern
elite
##letion
laboratory
ज
##kha
rat
mining
##κb
cuisine
ac
##ointers
valued
kapoor
[unused781]
5h
concuss
estate
therapeutic
attracts
##idine
ingrid
serge
[unused13]
everyday
##ɔ
ware
counterparts
wean
aldehyde
selection
tens
windsor
imino
gustave
##entia
##ten
vasodilator
clo
চ
mess
gunshot
bicycle
mort

dutp
tricuspid
⪆
##enal
wavelet
toolkit
##iesis
ⅻ
revue
##jar
concurrency
phytohorm
##zione
##ometal
hypothyroid
specificity
𝛂
▯
ࢧ
fgf23
basque
##tails
colchester
superliga
##海
platforms
putatively
##ivariate
stents
mites
erase
陳
bos
ⅴ
gt
##rologists
sfr
those
characterizing
estrus
dione
##uling
##ᵍ
pcdd
immunosorbent
cardiff
##tia
##ued
wins
fundraiser
handsome
entity
##ested
increment
##zo
##azepine
desatur
peck

settlement
quail
##ɪ
jumps
convection
adolescence
institutes
conversion
hemif
gui
mastectomy
fireplace
kidnap
subdistrict
g
##བ
podocytes
##aglobulin
arf
playoff
citizen
pussy
activators
blue
conflict
ahmedabad
nur
##erve
size
##film
mep
nitrog
eagle
sundays
elastin
ssi
rushing
##hos
sided
[unused238]
lisa
hippocampus
soph
co2
habitat
ionomer
##oct
calderon
incis
binary
##axin
rep
[unused337]
living
gregory
neighborhood
വ
##lli
##ablish
mann
##ready
tanner
journal
cdc
##ष
##ided
grabbed
staring
chain
4s
agnes
orches
evolve
vegfr
nanomolar
##rophies
catalysts
ס
##ि
osteogenic
etiological
removes
##uns
##enstein
classic
friends
dumont
fulm
##vix
lazy
own
liturgical
remodeled
naltrexone
##nous
infin
affects
guards
3
check
##45
freshly
leaching
hispan
texted
permeability
benefits
##ostom
nurse
flag
divergent
##amivir
martinique
surrounding
unveiled
goran
neon
accumulate
fairfax
­
raman
##jee
turns
sectional
granulosa
centred
bra
purposely
dex
horrific
mz
coloring
⋝
annie
unemploy
wings
ryan
sniff
##י
##you
##aminase
altered
1841
glances
loyalist
mi
portray
anguish
paterson
glucone
aspart
##romal
bacillus
##bury
bladed
liang
agencies
goldberg
twinkle
it
##omics
oocyte
cromwell
##ympathetic
[unused428]
##街
cephalosporin
##pment
caress
punct
[unused325]
ecstasy
precondition
prescriptions
officers
persuaded
deacetyl
##lini
willie
schools
dysb
dickson
news
##rath
ས
lmw
fewer
jedi
##born
insula
distinctions
mara
joint
inaugural
buddha
##kd
longevity
commence
equi
sentai
##ш
begin
##、
##bley
choline
biofilms
frescoes
desperation
igf2
##junction
へ
⊕
biologic
phosphorylates
fusarium
shap
oes
weekday
incline
synergy
pea
access
##gent
mineral
pacing
myrtle
magdalena
##ard
debuting
180
glycated
sulfon
pyre
##𝜀
regulatory
melodies
linden
intentionally
vase
pulmonary
programmer
neuroprotection
##etized
##oderma
cct
fanny
rad51
antiquities
diphosph
adhering
argus
inadvertently
legionella
psychotropic
ʟ
protests
nond
pemphig
marek
clinicians
hyperp
spa
##ances
##amph
##dai
depends
torres
illustrating
∫
hobart
firstly
rosette
credit
handling
sabha
lipocal
##ensively
precision
harmless
resentment
leftist
ജ
mitogen
##lez
[unused707]
##თ
schwann
serp
anarchy
tonic
chaired
totaled
bioluminescence
oss
##eeding
reception
unpredictable
##อ
neuroradi
marsup
disin
##rius
##ensory
ष
##₄
stunning
validated
nif
devotion
##imeter
##ifers
easton
+]
##illes
neurotrophic
[unused339]
gst
sims
carr
wholly
holl
statin
incub
revolving
coulter
motorway
gad
##د
##zzy
villous
il
##ton
##asting
/(
cyclopent
reb
chariot
##arche
putnam
governed
intracerebrov
brs
##新
##antel
sealed
##500
chalc
ascertained
everything
occip
contacted
presumed
remnant
schumacher
∴
a
##roz
maxillofacial
œ
friedman
𝜇
sphing
depolarizing
eclam
grammar
lear
##hy
ლ
zachary
wagons
##mament
modestly
amy
trifluoromethyl
sourced
email
correction
soared
denoted
talking
##khar
convenient
##evic
##mund
lens
cyclospor
monasteries
same
quieter
keystone
dd
aif
closet
##erg
autograft
##aps
embryonic
silkworm
##quel
publicity
##arg
dramatic
napoleonic
gestapo
##osin
sh3
universally
oppressive
energetic
toxin
culturally
##€
families
##oparietal
accordion
glory
aeronautical
ceremonies
doncaster
##achi
needs
paucity
[unused907]
##ˮ
ceylon
widowed
##rva
quartermaster
##phia
morrison
immunobl
laborers
cervic
tango
aflatoxin
[unused719]
carboxamide
procedure
##idin
observed
tearing
enzymes
trombone
rnap
unaw
1911
incubations
stret
flags
occurrences
lank
ternary
latit
poisoning
##aner
1850
wnt
alkaline
av
cxcl
##ropl
wear
##houses
headquarters
irritated
axle
ent
amen
212
scriptures
aeros
cock
destin
pune
[unused985]
creep
##pressed
dialysis
##othal
vans
jericho
copied
delgado
acquaintance
glycosylation
christensen
ligase
incompletely
iss
nigeria
regardless
strand
##cis
amper
##ivers
procession
[unused39]
tell
code
porphyrin
##iximab
kent
clancy
applies
##che
cultivated
pumping
baseman
breath
##ffy
##thoracic
copyright
grandpa
alternate
gazing
visco
the
##lized
[unused233]
inject
pyrophosph
downed
petroleum
##ȥ
##oulos
##olog
239
ben
street
##雄
distinguishing
basolateral
allosteric
hue
selen
##thest
capability
pv
##仁
⇋
eliot
quarantine
digital
journeys
##kshi
scut
constraint
##þ
##hp
sucrose
bedrock
##ca1
##print
##cable
##ɂ
##bing
##अ
aliphatic
circular
dyn
##oints
fumarate
jolted
##島
arcadia
ͳ
##⁶
˂
uncont
bloody
##eto
##omatosis
##⅓
##oed
[unused951]
resource
##კ
trouble
hk
burgundy
##ete
neurophysiological
thicknesses
radii
commuted
##note
trainees
##borough
##hedral
161
ovariectomy
##rization
shooters
##uminal
znf
lacey
dis
instillation
herg
animation
snf
corpses
periph
##oti
outgrowth
capillary
astonishing
tph
purified
continues
thyl
mated
##66
synergism
##blastic
dps
glen
02
unpro
opportunities
thoughts
everywhere
##aco
senses
kynur
tungsten
myb
##enous
hector
armenians
anterogr
lars
howling
tiberius
##icide
sulfoxide
fukuoka
##kc
reward
partisan
香
kall
english
mell
caught
##rnet
hockey
optimizing
yacht
pma
scid
spi
cylind
zw
morphometry
jas
segmental
gan
adapting
##nail
vogel
occ
gleason
criminal
##rane
recruit
educational
discharges
1835
planners
cd1
inflation
vows
wills
##olium
caravan
##isti
centers
ding
talmud
spik
sporadic
opacity
##oste
venues
colonists
transarterial
[unused736]
cisplatin
pudding
transmural
iaaf
diva
##imension
ulcerative
clint
ao
glazed
andersen
dominant
##dened
teg
ensure
##sling
t1d
plans
sedan
anglia
funded
enantiomer
aix
achilles
pulitzer
##incter
[...]
