[UNK]
[CLS]
[SEP]
[PAD]
[MASK]
!
"
#
$
%
&
'
(
)
*
+
,
-
.
/
0
1
2
3
4
5
6
7
8
9
:
;
<
=
>
?
@
[
\
]
^
_
`
a
b
c
d
e
f
g
h
i
j
k
l
m
n
o
p
q
r
s
t
u
v
w
x
y
z
{
|
}
~






















¡
¢
£
¤
¥
§
¨
©
ª
«
¬
­
®
¯
°
±
²
³
´
µ
¶
·
¸
¹
º
»
¼
½
¾
¿
×
ß
æ
ð
÷
ø
þ
đ
ħ
ı
ĸ
ł
ŋ
œ
ſ
ƍ
ƒ
ƙ
ƛ
ƞ
ƥ
ƭ
ƴ
ƶ
ƹ
ƺ
ǀ
ǁ
ǂ
ǝ
ȥ
ȶ
ȼ
ɀ
ɂ
ɐ
ɑ
ɒ
ɔ
ɕ
ɖ
ə
ɚ
ɛ
ɜ
ɝ
ɡ
ɣ
ɤ
ɦ
ɨ
ɩ
ɪ
ɬ
ɭ
ɮ
ɯ
ɲ
ɳ
ɵ
ɶ
ɷ
ɸ
ɹ
ɻ
ɾ
ɿ
ʀ
ʁ
ʂ
ʃ
ʅ
ʈ
ʉ
ʊ
ʋ
ʌ
ʎ
ʐ
ʒ
ʔ
ʝ
ʟ
ʤ
ʦ
ʧ
ʰ
ʹ
ʼ
ʾ
ˁ
˂
˃
ˆ
ˇ
ˉ
ː
ˑ
˖
˘
˙
˚
˜
˝
˞
˟
ˣ
ˤ
˧
˪
˫
˭
ˮ
ͳ
΁
΄
α
β
γ
δ
ε
ζ
η
θ
ι
κ
λ
μ
ν
ξ
ο
π
ρ
ς
σ
τ
υ
φ
χ
ψ
ω
ϐ
ϑ
ϒ
ϕ
ϖ
ϫ
ϭ
ϰ
ϱ
ϵ
ϻ
а
б
в
г
д
е
з
и
к
л
м
н
о
п
р
с
т
у
ф
х
ц
ч
ш
ы
ь
э
ю
я
є
ѕ
і
ј
ћ
ѱ
ѳ
ґ
қ
ҝ
ҟ
ҡ
ҫ
ү
ұ
һ
ӏ
ӕ
ӡ
ө
ԏ
ԑ
՚
փ
օ
־
׀
ד
י
ץ
ק
׳
״
،
ا
ب
ة
ت
ث
ج
ح
خ
د
ذ
ر
ز
س
ش
ص
ض
ط
ظ
ع
غ
ـ
ف
ق
ل
م
ن
ه
و
ي
٭
چ
ݣ
ߚ
ߝ
ߞ
ࢧ
അ
ഇ
ഈ
ഉ
എ
ക
ഖ
ഗ
ഘ
ങ
ച
ജ
ഞ
ട
ഠ
ണ
ത
ദ
ധ
ന
പ
ഫ
ബ
ഭ
മ
യ
ര
റ
ല
ള
ഴ
വ
ശ
ഷ
സ
ഹ
ก
ข
ง
ธ
น
ผ
ฝ
พ
ฟ
ว
ศ
ห
อ
า
แ
๥
༌
།
ཁ
བ
མ
ᄀ
ᄂ
ᄑ
ᄒ
ᅟ
ᅡ
ᅬ
ᅭ
ᅯ
ᅰ
ᆪ
ᆬ
ᆰ
ᆲ
ᆴ
ᐰ
ᗡ
᛫
ᴀ
ᴅ
ᴇ
ᴋ
ᴏ
ᴐ
ᴓ
ᴘ
ᴧ
ᴪ
ᴳ
ᴹ
ᵀ
ᵄ
ᵒ
ᵦ
ᵧ
ᵪ
ᵷ
ẟ
᾽
᾿
῾
​
‌
‍
‎
‏
‐
‑
‒
–
—
―
‖
‗
‘
’
‚
‛
“
”
„
‟
†
‡
•
‥
…
‧
‪
‫
‬
‭
‰
‱
′
″
‴
‶
‹
›
‾
⁁
⁄
⁎
⁓
⁗
⁠
⁡
⁢
⁰
ⁱ
⁴
⁵
⁶
⁷
⁸
⁹
⁺
⁻
ⁿ
₀
₁
₂
₃
₄
₅
₆
₇
₈
₉
₋
ₓ
ₘ
ₙ
₦
₩
€
₳
₹
ℂ
℃
℅
ℇ
℉
ℋ
ℍ
ℎ
ℏ
ℑ
ℒ
ℓ
№
℗
ℙ
ℚ
ℛ
ℜ
ℝ
℠
™
ℤ
℧
ℬ
℮
ℱ
ℳ
ℴ
ℵ
ℷ
ℼ
ℽ
⅓
⅔
⅙
⅚
⅛
⅜
⅝
ⅰ
ⅱ
ⅲ
ⅳ
ⅴ
ⅵ
ⅶ
ⅷ
ⅸ
ⅹ
ⅺ
ⅻ
←
↑
→
↓
↔
↕
↗
↙
↝
↦
↵
↼
⇀
⇄
⇆
⇇
⇋
⇌
⇐
⇑
⇒
⇓
⇔
⇝
⇨
∀
∂
∃
∅
∆
∇
∈
∊
∎
∏
∑
−
∓
∕
∖
∗
∘
∙
√
∛
∝
∞
∠
∡
∢
∣
∥
∧
∨
∩
∪
∫
∱
∴
∶
∷
∸
∼
∽
∾
≃
≅
≈
≊
≌
≍
≐
≒
≔
≙
≡
≣
≤
≥
≦
≧
≪
≫
≲
≳
≶
≷
≺
≻
≾
≿
⊂
⊃
⊆
⊇
⊔
⊕
⊖
⊗
⊘
⊙
⊚
⊛
⊞
⊠
⊣
⊥
⊿
⋅
⋆
⋊
⋍
⋘
⋙
⋜
⋝
⋮
⋯
⌀
⌈
⌉
⌊
⌋
⌖
⌜
⌝
⍦
⍴
⍺
⎔
⎺
⎼
␣
①
②
③
④
⑤
⑥
⑦
⑧
⑨
⑩
ⓒ
ⓕ
ⓝ
ⓡ
─
━
│
┅
├
┤
┬
┴
═
║
╪
█
░
▒
▓
■
□
▪
▬
▯
▲
△
▴
▵
▶
▸
►
▼
▽
▾
▿
◆
◊
○
●
◗
◦
◯
◻
◽
★
☆
☐
☓
☺
☼
♀
♂
♠
♡
♢
♦
♭
♯
⚫
✓
✕
✰
✶
➀
➁
➔
➙
➝
➢
➤
⟂
⟨
⟩
⟪
⟫
⟶
⟷
⠙
⦁
⧧
⧫
⧸
⧹
⨯
⩒
⩽
⩾
⩿
⪅
⪆
⪍
⪖
⪝
⪡
⪢
⬄
⬛
⬜
⬢
⬧
⬨
ⱪ
⸱
⸳
⿿
、
。
〈
〉
《
》
「
」
〔
〕
〖
〗
〜
〝
〞
〟
あ
い
き
こ
な
ひ
ふ
も
り
ア
イ
コ
リ
ル
・
ー
㎍
㎖
㎝
㯌
丸
丹
二
倫
化
参
囊
地
大
子
射
府
承
方
气
汤
注
液
清
温
湯
湿
热
熊
生
瘀
白
益
祛
粉
粒
红
肝
肾
胆
胶
脉
脾
至
艾
芎
虎
虛
血
补
迪
逐
附
陽
颗
麦
黃
ꞌ
ꞵ
ꭃ
ꭓ




























































































ﬀ
ﬁ
ﬂ
ﬃ
ﬄ
ﬅ
﴾
﴿
︰
﹑
﹛
﹢
﹤
﹥
﻿
＂
＄
％
＆
（
）
＊
＋
，
－
．
１
：
；
＜
＝
＞
？
［
］
＿
ｃ
ｉ
ｎ
ｏ
ｓ
ｖ
ｘ
｜
～
･
ｱ
ｵ
ｾ
ﾀ
ﾓ
￢
￼
�
𝐤
𝐷
𝑀
𝑃
𝑆
𝑎
𝑏
𝑛
𝑝
𝑥
𝒞
𝒟
𝒪
𝒫
𝒮
𝒯
𝒱
𝓁
𝔇
𝔉
𝕀
𝕊
𝖱
𝚫
𝚿
𝛂
𝛄
𝛆
𝛇
𝛹
𝛼
𝛽
𝛾
𝜀
𝜃
𝜇
𝜋
𝜖
𝝁
񥌈
􀀀
􀂡
􀂢
􀂣
􀍗
􀏐
􀏔
##e
##l
##a
##n
##o
##c
##t
##h
##m
##s
##i
##g
##1
##9
##7
##d
##0
##2
##y
##f
##4
##r
##b
##5
##8
##v
##u
##p
##3
##q
##6
##k
##x
##z
##w
##ŋ
##/
##=
##>
##_
##{
##j
##β
##м
##π
##)
##⊂
##?
##•
##-
##,
##³
##+
##(
##.
##∞
##'
##"
##∙
##<
##$
##δ
##⁶
##α
##}
##ı
##μ
##ł
##;
##ø
##н
##о
##*
##€
##≈
##－
##₇
##₁
##т
##½
##]
##с
##µ
##⋯
##㎖
##₃
##ω
##₀
##γ
##√
##[
##⁺
##º
##¹
##²
##`
##⁴
##%
##⁹
##₅
##®
##а
##ℏ
##!
##…
##ː
##■
##ε
##ß
##ο
##‌
##₋
##±
##κ
##∗
##ﬀ
##\
##ﬁ
##−
##─
##§
##‑
##气
##补
##肾
##颗
##粒
##ʃ
##≡
##˙
##₆
##₂
##↕
###
##⁻
##&
##ⅰ
##ɑ
##ᵒ
##ϕ
##θ
##≪
##₈
##·
##τ
##λ
##₄
##~
##⅓
##⁸
##ζ
##⟂
##¼
##η
##:
##ˆ
##ˇ
##⁵
##^
##♂
##⁷
##∓
##’
##═
##φ
##⁰
##→
##χ
##∑
##|
##
##ξ
##ι
##υ
##←
##ς
##ﬃ
##യ
##ക
##ത
##മ
##ന
##æ
##†
##ν
##ɪ
##ɣ
##і
##¿
##​
##°
##∆
##≒
##×
##⊥
##х
##○
##е
##≥
##σ
##∂
##∇
##、
##。
##≤
##﹥
##ⓒ
##ð
##з
##р
##║
##
##ψ
##⩾
##
##ⅱ
##–
##♀
##ϒ
##∝
##¬
##¾
##′
##ρ
##ﬂ
##⟩
##﻿
##＿
##″
##»
##▪
##ϵ
##⩽
##⋅
##ϰ
##↓
##↑
##⁎
##ф
##∼
##●
##ˉ
##ª
##∕
##
##ⅲ
##@
##‘
##∠
##
##₉
##★
##ə
##‡
##ɛ
##
##⇔
##₦
##⋆
##≳
##™
##↔
##˚
##ﬄ
##
##⊙
##ʁ
##≫
##，
##∩
##∘
##♦
##đ
##б
##£
##
##¯
##ʼ
##ഠ
##þ
##＊
##≅
##˃
##
##ഖ
##ല
##ട
##¶
##∫
##➢
##ℓ
##∈
##ʈ
##ǀ
##‎
##¢
##к
##ⓡ
##＋
##ℇ
##ࢧ
##〉
##◻
##”
##▽
##©
##△
##‏
##⊕
##÷
##≧
##ℵ
##≲
##�
##һ
##□
##②
##⇌
##‾
##ſ
##ħ
##⩒
##▼
##１
##①
##
##¥
##█
##ƙ
##≔
##迪
##注
##射
##液
##▾
##ɷ
##ҫ
##ɩ
##ɸ
##‖
##
##˜
##〈
##ⅳ
##
##␣
##ｘ
##‰
##≙
##∥
##ϱ
##‒
##⋜
##⌜
##（
##у
##
##‬
##∧
##׳
##в
##ꭃ
##օ
##ҡ
##ｾ
##
##
##⇓
##ﾓ
##∅
##∣
##ᅟ
##ʾ
##œ
##ʀ
##⇑
##ل
##ت
##ر
##ف
##ي
##ع
##ĸ
##⊔
##）
##
##п
##∏
##ഭ
##ഷ
##ണ
##∃
##ˣ
##ϖ
##വ
##ꞵ
##ш
##▲
##⟨
##
##
##⌀
##⊖
##ഹ
##♯
##
##⊃
##ߞ
##ɔ
##«
##＜
##
##〖
##ᅰ
##ᆰ
##ｎ
##˂
##∊
##‧
##и
##◦
##ശ
##ɹ
##ᐰ
##د
##م
##ة
##
##ϐ
##≃
##ബ
##ങ
##ള
##
##⋝
##；
##‴
##▵
##⁄
##ⅴ
##‍
##л
##⿿
##ד
##ק
##＄
##ര
##ച
##ⅶ
##ɳ
##ɭ
##虎
##汤
##ʹ
##
##ʰ
##ʒ
##ｓ
##✓
##—
##ⁿ
##⇝
##ᴪ
##
##׀
##
##ц
##ƒ
##˪
##
##
##ɾ
##麦
##☆
##⇒
##
##ⅻ
##⊣
##⅔
##⪆
##﹑
##𝛾
##℃
##≦
##
##­
##ɐ
##〟
##ഴ
##സ
##‐
##𝜋
##？
##⪅
##￼
##
##ധ
##ꞌ
##อ
##ง
##ᅯ
##ᆬ
##ˮ
##∶
##ⁱ
##
##ߚ
##↦
##◯
##⧧
##⊗
##⍺
##ᆲ
##ƴ
##▴
##‹
##¡
##府
##逐
##瘀
##胶
##囊
##⁢
##ƹ
##ɤ
##റ
##പ
##´
##و
##№
##ⅵ
##胆
##г
##➀
##≺
##ℜ
##热
##祛
##∱
##
##⊿
##ｵ
##
##ℳ
##◽
##ـ
##⇆
##ɂ
##ⅷ
##я
##༌
##э
##
##ȥ
##⇄
##╪
##𝒯
##％
##ɵ
##ʧ
##ɯ
##．
##ഗ
##𝑎
##𝑏
##ℎ
##ߝ
##𝜀
##
##ᅬ
##ᆪ
##ѳ
##𝒞
##ℒ
##
##ӡ
##“
##▓
##ⱪ
##＞
##
##
##ƞ
##⋍
##‭
##［
##承
##《
##
##
##⇐
##≻
##▯
##ѱ
##ₙ
##
##⅜
##
##
##∎
##粉
##∾
##ɚ
##ᴐ
##ч
##✶
##ふ
##ه
##ɬ
##
##➤
##⌊
##
##〗
##④
##⌋
##ฟ
##น
##☼
##қ
##ᅭ
##ー
##ル
##㯌
##ɕ
##›
##≾
##》
##･
##＝
##⇀
##ഘ
##ˁ
##∖
##│
##③
##ʌ
##∢
##
##ӏ
##：
##𝚿
##
##⊠
##
##湿
##化
##方
##┬
##
##ᴓ
##˟
##ɮ
##►
##］
##∀
##ᆴ
##
##ദ
##∸
##
##┅
##
##⋘
##⍴
##า
##ก
##～
##
##≍
##„
##
##⪝
##∷
##ₘ
##┴
##⁡
##ز
##ᵧ
##芎
##ₓ
##⁓
##
##至
##丸
##ᴀ
##ᴅ
##ᴇ
##ᴘ
##ᴏ
##脉
##ҟ
##⅝
##
##
##
##
##མ
##བ
##ʊ
##ʟ
##ˑ
##・
##⊘
##ว
##ⅹ
##
##ش
##ا
##ᅡ
##ẟ
##΄
##ʂ
##ɒ
##⟶
##
##ͳ
##¸
##↙
##
##⁠
##ɶ
##ǝ
##
##ｱ
##黃
##附
##子
##湯
##ⅺ
##
##⅚
##ˤ
##¤
##᾿
##
##𝐷
##陽
##虛
##き
##こ
##も
##り
##ы
##д
##‫
##
##ﬅ
##∽
##ᵀ
##ᴹ
##ɦ
##ｉ
##ｖ
##ｏ
##ⅸ
##ь
##ℤ
##▬
##红
##ti
##on
##er
th
##en
##es
##in
##ed
the
##al
in
of
##or
an
##at
##tion
##an
##ro
##ic
and
##ar
##it
##as
##is
##ec
##ent
##el
##re
##ing
##ation
to
##ol
##om
##ul
##et
##ac
##os
##ur
##id
##us
##ve
##ith
##le
st
##ly
pro
##ati
with
##th
##ter
##em
for
con
##uc
##ig
re
##il
##ts
as
is
##am
##ess
##un
##od
##tic
##tr
##oc
##ere
##ated
ex
##um
##op
##ce
##if
##im
##ir
##ow
##ity
##ut
ac
on
##og
res
ch
##ell
##ate
##ys
com
##ot
##ab
that
##ion
##ag
##ap
was
##ev
##ment
be
##ud
al
##ain
by
##ical
##rom
##ad
##ect
##ib
##ers
pr
wh
tr
im
##pl
##ff
##ase
##ep
were
##ine
dis
##ant
##tin
su
or
##iv
##ents
cell
we
en
ad
sp
##ph
this
##igh
are
##iz
us
##te
##tiv
comp
##qu
at
stud
##ure
ne
##ial
##ence
from
##ies
inc
##ay
##ch
un
##ress
##ans
ind
##tive
##ations
pati
eff
##ous
exp
ph
sh
##ip
##yp
##ort
##ens
gen
rec
##fer
ass
##ign
##ia
##orm
##enti
##ons
##evel
##ular
met
##act
inf
can
##ific
##ting
per
##olog
co
ap
cl
patients
##ition
##ore
##ary
##erm
##ear
##ge
##yl
##st
trans
##ug
rel
inter
imp
##est
dif
##oth
ev
par
##ors
##ased
car
pl
study
##ath
##ely
ha
##ese
str
##and
pre
de
##ym
tre
##ance
high
##ich
##oun
mod
cont
##bs
sign
bet
##ist
cells
gro
##enc
##ver
these
reg
##ost
am
##ative
##ection
##der
resp
rep
activ
di
differ
).
##ast
##duc
##yn
not
spec
mic
##vi
have
##tein
##ong
##ual
anal
inv
##iti
##ding
##up
##ory
resul
incre
##ide
det
sur
),
##all
ar
##atin
which
##yst
##ose
pres
se
##able
##ression
cons
##ied
##oci
##unc
##ech
##age
##ects
he
anti
##end
sc
##ros
protein
ab
##we
treat
##ates
me
show
int
bi
cor
##ach
##ari
##unction
##ally
##ue
##ever
##cr
af
treatment
##one
##ox
##per
##ound
has
##ween
between
ag
##rol
##ater
##cer
##ulation
##ome
##na
##ility
been
##erv
associ
##evelop
all
##mun
app
dise
meth
develop
##oll
no
med
##ther
##ive
##ating
##acter
le
##tim
signific
##ases
##ight
##ected
##ak
el
##form
using
##ugh
tw
##hib
##osis
it
##ism
after
##ystem
compar
##anc
##cl
##ob
##ized
level
##ogen
function
sub
significant
analys
ca
results
##cess
system
##yt
des
##erap
pos
bl
induc
##ri
##ang
##ood
##action
##ological
dur
##lu
but
##our
##entr
##ass
dr
their
##dition
group
clin
##etic
man
##atic
##ill
##uct
dep
##ard
how
##gen
two
##alu
##ub
syn
respons
fact
than
id
##br
##ective
red
##ew
##so
em
##00
dec
may
control
##ution
##iss
##plic
##ures
model
vari
hum
gl
disease
hyp
##ole
also
during
inhib
pol
##ization
dat
heal
##ree
##gg
suc
##agn
both
low
##ential
more
es
##ted
clinical
##ium
form
expression
path
##ond
associated
analysis
##yd
##gr
used
produc
immun
method
mon
effects
health
cancer
tim
typ
##pp
activity
##av
pot
##pt
br
there
##urr
based
present
##aph
its
##ult
non
##ined
sim
acc
out
##uld
##inding
##entif
reduc
##eth
end
##esti
effect
##out
data
##ane
human
therap
use
##ite
##esis
##ace
##atory
ins
char
under
##ici
ser
ris
##oid
sugg
fr
##echan
##ays
##amm
prov
incl
over
exper
##ild
ob
##estig
cr
however
identif
investig
evalu
studies
mechan
obs
appro
different
meas
sam
tum
##oph
10
##ork
##ail
ep
##ish
gr
qu
##ile
##mon
##erg
mul
dem
one
includ
##ogr
##tain
year
##ants
up
##ept
##itive
mol
##ectiv
report
risk
other
##ology
conc
induced
##tical
increased
acid
determ
##ities
##ery
sel
op
oc
struct
##lex
character
##ability
rem
micro
##ov
specific
new
levels
##tern
##etr
##ention
##ency
##als
sm
supp
##arg
foll
our
##oma
found
##iqu
development
def
##adi
##ination
time
contr
##onstr
perform
corr
##ural
inhibit
most
##ature
##ions
ma
indic
such
##onic
neu
ox
##ences
intr
##ement
gene
import
exam
##af
observ
##ently
process
##own
gener
molec
role
##ple
well
kn
##tid
into
assess
##ren
diagn
follow
##inal
fl
##rop
grow
##til
caus
##ders
partic
pred
20
##osph
concentr
col
##ik
mem
##ograph
##ute
##rough
##och
sens
showed
##view
compared
recept
##ydro
had
mal
fe
##asm
mechanism
##ible
related
##idence
##ark
rat
vir
aff
loc
##ments
min
when
##ack
impro
potential
##ucle
response
chang
tiss
##olv
drug
term
sec
##cop
##ines
##echn
through
demonstr
##tit
child
type
significantly
##ange
##ormal
##tal
three
19
##di
techn
##ains
##ok
##ental
only
prev
fir
decre
disc
my
num
mut
##ber
so
##usion
cyt
fur
multi
test
peri
##asc
condition
del
##gan
inj
##ds
factors
##ix
occ
review
##ize
##roph
##ha
pop
##eng
long
##osed
##les
##cin
##over
patient
##ational
first
ps
##ulated
among
blood
##arly
important
experim
changes
infection
addition
depend
prom
surg
cal
subs
complex
suggest
growth
##ene
##earch
care
po
mus
prim
ol
prog
observed
##abol
##ited
##its
post
sequ
##cle
phys
##por
##aining
##ough
stim
##ric
##air
val
hydro
##ful
dna
##ectively
medi
sol
##omy
##omes
##ior
chem
tumor
predic
prob
##tics
descr
therapy
il
%)
approach
extr
##ock
higher
comb
12
cd
fib
##vers
##ether
aim
synth
cap
##eter
metabol
##led
##ivid
age
##ten
##ps
lik
vit
factor
##arge
cardi
flu
antib
##ne
main
##urs
##orph
lim
sever
prot
curr
phosph
liv
years
##fore
do
including
##ured
##ody
case
organ
could
##havi
##res
rate
##ues
cy
nucle
tem
##und
ii
fre
behavi
mice
cases
increase
requ
mo
here
##ties
##ages
reve
er
receptor
##ms
brain
pat
binding
##vir
research
within
dir
##atal
gre
work
conf
##lamm
influ
##zym
ext
##iel
bec
proteins
outc
##arget
##xim
bas
##ascular
hist
##ider
hyper
##ung
##otyp
correl
describ
surf
##ital
target
resist
finding
species
##ogn
some
common
poss
bre
while
tissue
##ived
nov
coll
where
molecular
radi
children
sym
##ption
##ould
sing
##ade
##are
enh
##vious
##amic
##ning
interaction
##ically
expl
hem
nan
normal
##ividual
frequ
plasm
prop
##ise
genes
pathw
those
aut
individual
simil
##tained
##ins
isol
##ides
##ness
av
##ex
involv
lip
##omen
##acy
##onal
ir
stress
inflamm
##ily
disor
##otic
##itis
number
due
adm
groups
reveal
##ocyt
##ross
##ink
early
evidence
maj
functional
##plications
unders
reported
previous
##esc
major
phen
single
small
pe
signal
consider
mg
##par
proper
##aging
mat
ec
##oh
chr
##crip
##tivity
##ety
##ication
os
who
hep
lead
##ake
##ativ
##hip
##ples
##equ
##ectr
techniqu
der
##ymph
sk
##vention
they
##pha
underst
total
enzym
##omic
membr
abs
##ateg
##ography
##trib
class
novel
rats
##viron
mark
regul
need
##ites
##use
##ale
##ension
virus
lymph
conditions
similar
pers
15
##iter
##ival
qual
##uss
##lement
lif
dependent
findings
##lish
lower
##roscop
##emia
vis
##eptid
##esting
neur
##int
inform
less
pattern
calc
identified
ret
##/-
cult
##ice
genetic
##istr
##ptom
##ified
bacter
##arm
treated
subj
adv
further
##ian
elect
investigated
##ych
activation
acute
##ty
about
transcrip
primary
respectively
chronic
population
second
structure
each
reduced
##ax
prol
##erc
several
measure
initi
positive
sl
period
##rome
##tions
##ressed
relations
##osp
environ
surface
lab
again
##plication
chrom
pur
##eu
##old
without
##yz
sev
methods
polym
diagnosis
alth
although
est
mechanisms
##ening
fam
##gf
four
prof
##ynamic
line
##ick
##plant
water
##ield
performed
arter
ul
##ft
manag
vol
##aneous
presence
dom
##osure
large
design
surv
following
##az
##med
neg
enhanc
##ek
quan
anim
##asing
##yr
##ind
##eration
improve
liver
##plet
many
electr
11
synd
mr
developed
against
relationship
##ulin
local
##oss
##tis
##ellular
current
##ator
att
vitro
mater
properties
symptom
neuro
whether
known
ang
gu
differences
carb
reaction
##ately
gly
contrib
##opl
revealed
alpha
##ification
##erative
bone
characteris
##ality
##ivers
+/-
beta
)-
women
##ae
admin
hear
gluc
diff
##cs
injur
various
dose
phase
##ests
multiple
##ength
plasma
cir
##emic
serum
mm
life
provide
dim
##ord
production
discuss
requir
fem
##ced
concentration
if
pul
region
##olution
demonstrated
set
sus
##of
concentrations
diab
14
prac
studied
coun
##ained
samples
did
month
strateg
understand
mean
##icient
thus
information
##icity
quality
##reg
formation
obtained
prec
management
environment
##ules
effective
##roduc
##amin
exposure
nec
decreased
##ulations
press
cle
like
hel
mass
carcin
membrane
sch
commun
oxid
compound
##uth
ele
performance
tox
##ials
ren
ref
##ensity
determine
behavior
mit
shown
direct
##ither
lung
fac
syndrome
##ocy
responses
poly
13
pap
##uk
models
##tif
stand
vi
30
improv
ov
##otherap
25
days
will
surgery
##ocytes
ur
##elial
therapeu
free
differenti
body
distrib
alter
psych
rele
18
estim
param
imaging
association
rh
net
phot
##ause
sal
ro
##ann
resistance
##sp
##ogenesis
hosp
201
involved
diseases
##atures
tra
##amine
compon
mediated
##ensive
kin
range
impact
muscle
##iven
support
should
week
examined
day
##ient
viv
link
##ylation
##iciency
identify
analyz
recent
survival
valu
pain
##orb
200
detection
loss
mac
les
##ward
lo
##tric
rap
concl
##tegr
foc
repres
##acc
##ire
##opath
##ission
equ
vivo
fluor
dys
state
temper
pub
##ostic
recom
hypoth
flow
magn
systems
weight
via
exc
##oles
##uted
16
##ablish
fail
peptid
outcomes
therapeutic
immune
increasing
part
establish
conduc
50
diet
##ct
##ometr
cycl
inhibition
circ
##nal
because
ms
##eric
appear
100
measured
therefore
avail
amin
experi
##asis
particular
possible
##ogenic
oper
##aps
standard
##lor
order
breast
evaluate
intervention
pressure
enc
##work
##atis
##astic
integr
##otherapy
injury
##active
sep
##ochem
progr
##osition
ach
##tex
##itor
##elet
##rh
##ergy
##ists
evaluated
muc
##ouse
investigate
heart
nit
deg
negative
same
24
optim
##inant
medical
transcription
nm
proced
##ision
chall
occurr
inflammatory
##eters
strong
##eral
##iological
##tinal
complet
##ateral
either
(-
morph
resid
ml
##ude
particip
sex
rati
sin
determined
eth
##ocial
##aw
proble
pathway
highly
regulation
##iat
##app
##atively
self
network
##ie
synthesis
evaluation
signaling
success
add
scre
##opt
size
kg
derived
dynamic
distribution
pharm
##etes
active
symptoms
rapid
experimental
##ule
stat
##ler
##ey
cent
general
##bl
centr
stimul
biom
rna
super
effic
rates
hospital
cere
contin
##odies
influence
##amp
##itivity
subjects
mort
change
##cept
##acellular
##gn
hom
##pr
prolif
17
her
allow
characteristics
short
practic
reduction
cellular
isolated
##ances
severe
enzyme
values
##ust
site
death
cri
##ison
##andom
##ces
gas
block
whereas
##ulf
ultr
rece
months
biological
spect
##els
detected
##ams
##ands
renal
focus
##omp
energy
fil
wor
being
confir
hiv
accur
surgical
family
random
old
heter
dev
field
understanding
cross
mir
##istration
provid
mortality
cause
emerg
00
##ns
electro
efficacy
caused
previously
##ologic
##ode
##arc
apopt
sequence
##her
fat
sw
##orts
saf
exhib
##ids
assessment
preval
containing
lig
nat
contrast
greater
##ancy
##inc
tub
##roscopy
##ner
.,
##enz
bene
features
##izing
##ygen
before
light
cardiac
##icular
very
metast
prepar
frequency
artic
types
##ices
##epend
technique
oste
##inary
consist
result
pd
obj
amino
presented
liter
release
benef
parameters
dam
##otype
any
secre
disorders
##itation
temperature
ve
available
##ull
recogn
glyc
ct
interactions
##ised
##ols
##ters
area
cat
independ
ability
##ytic
processes
social
epid
##otox
impair
##monary
##therm
##operative
indicate
drugs
deliv
carcinoma
know
play
stage
paper
adul
characterized
described
often
administration
pregn
compounds
##eding
##ising
##ially
cov
sour
##ators
food
##abil
coron
##ressive
diabetes
adult
cogn
glucose
mouse
##ably
util
##ually
poor
##tor
05
assay
ess
##tle
##itu
nor
##ondr
individuals
male
solution
##yth
##ysis
##ibility
expressed
enhanced
spectr
vers
##lic
##omal
kinase
##ographic
##ask
hypert
%,
combination
##ocard
monitor
medic
##ones
animals
value
receptors
key
##row
##ld
required
##ron
adj
##ecting
valid
tumors
demonstrate
mar
five
comparison
##igr
stem
##oses
tested
transplant
acet
sites
quantit
disorder
central
literature
##ochondr
##line
##ops
##istic
insulin
considered
##uble
subst
pharmac
neurons
skin
transfer
volum
##lying
left
##rogen
transm
##romb
##pec
##ording
chemical
physical
patterns
ratio
application
##oy
orig
healthy
vascular
elev
sensitivity
ver
catal
te
##vement
cop
serv
angi
hy
tissues
##ustr
aden
##ended
mrna
limited
##tine
##plied
##cep
cm
activities
##tered
##tial
critical
down
##verse
##grad
21
controls
decrease
then
sil
##yro
progn
proposed
ill
structural
mitochondr
status
##orption
visual
##iatric
##olic
oral
40
produced
better
##ledge
six
content
overall
pc
##utr
##ount
bel
off
##erve
epith
represent
95
##ference
microb
lear
vacc
mix
improved
phosphor
knowledge
bio
##ling
##thermore
stimulation
furthermore
density
fin
prevalence
recover
##otor
purp
mel
##truc
##ocyte
##ochemical
##ars
adults
##de
invas
outcome
prote
asp
divers
adap
regions
methyl
larg
techniques
##uture
oxygen
pulmonary
diss
##go
##escence
assessed
##ont
cre
##ores
failure
##enting
##nas
lesions
promo
##estion
pathways
accum
dist
##art
experiments
##truct
##ectomy
##terior
##eness
across
inhibitor
perc
plant
functions
maxim
##till
transp
agg
continu
##rotein
metabolic
ventr
##roc
analyzed
horm
##oung
young
essential
structures
relative
separ
ax
proliferation
##iev
##ovascular
da
air
pa
apoptosis
##ture
mutations
hc
lack
applied
##ma
even
surve
incidence
them
strains
recently
##eph
combined
correlation
tak
altern
indicated
##ogene
##enous
diagnostic
hydrox
remains
abn
analyses
metabolism
##acts
endoth
malign
guid
##io
##ered
leuk
transl
men
mes
damage
since
sample
eng
step
antigen
##ining
weeks
strategies
glob
useful
antibody
approxim
substr
##ta
might
thromb
respir
plat
differentiation
kid
action
therm
few
vs
60
##estinal
future
chann
rare
sensitive
##encing
natural
given
prost
length
bar
##irus
kidne
##ke
##oxid
controlled
antibodies
lipid
cognitive
abnormal
##ored
lay
polymer
scale
pow
cs
##ections
toward
##rosis
identification
##olar
##verage
domain
still
agents
strain
host
##emb
successful
22
subsequ
distin
##da
areas
minim
fraction
fer
##medi
repe
hip
culture
position
go
##omas
index
inhibitors
independent
screening
promot
activated
artery
followed
describe
isch
##bry
molecules
article
##ethyl
##ying
carbon
mid
provides
##ets
chin
##occ
##ious
task
##oplasm
affected
real
##bral
practice
carr
##ancre
world
peptide
included
increases
##round
environmental
established
discussed
lit
ed
made
female
periph
aimed
migr
electron
capac
genome
##coh
ultras
statis
chlor
initial
evolution
difference
##function
cur
##ier
##ours
cer
bacterial
complications
volume
conducted
challeng
chain
recurr
ion
##me
embry
suggested
##tib
01
glut
sle
desp
cryst
displ
rad
remov
##ii
would
components
##iting
##bers
despite
relev
sum
suggesting
affect
community
coronary
transport
ic
arr
events
bur
acids
magnetic
##upl
##red
progression
espec
colon
##ave
especially
seg
pancre
facil
populations
top
hand
##read
consum
##ophil
nutr
transform
infections
inflammation
##enced
dop
prior
back
##trans
spati
##ulate
inhibited
trial
moder
purpose
labor
training
sci
##ploy
##nf
likely
chromos
##ople
ant
##oding
exerc
##aff
sulf
alcoh
suggests
##ibr
good
kidney
infected
pig
states
right
##esp
##okine
nuclear
resistant
##oids
secondary
trials
delivery
##yroid
##agen
does
et
predict
intra
000
##otid
moreover
##agon
lat
products
##atitis
head
degrad
introduc
calcium
23
##ergic
safety
respiratory
experience
##50
mamm
learning
##etry
load
diffic
peripheral
access
according
nurs
##ales
approaches
##isting
##arb
##thr
##entially
great
recomm
hal
cardiovascular
confirmed
lines
systematic
help
reproduc
approximately
resulted
prevent
importance
auth
correlated
people
underlying
##pa
##omer
alg
reduce
perce
dig
bro
ge
##isms
invol
measurements
tur
detect
bir
basis
##kn
resulting
viral
##ering
pcr
conn
##ights
##ics
tests
consequ
cycle
situ
applications
tempor
##oint
adh
nerve
concer
quantitative
achiev
199
##ulating
advanc
educ
##ables
procedure
testing
sem
##put
animal
##mit
##oscop
coupl
##ogenous
##onding
##orbid
neural
iii
distinct
participants
clear
bil
don
##itional
--
versus
measures
##etal
(+
##10
##ydr
dimension
##oster
complete
ped
cost
##iving
##tically
selective
necess
##umin
##rix
wide
dynamics
public
times
coh
##utaneous
##set
tog
##anol
clus
dysfunction
thir
capacity
frag
induction
linked
##ortic
wid
physiological
mitochondrial
myocard
suff
composition
require
together
liqu
processing
ampl
sod
iss
nanop
adol
##rees
exercise
##uv
hepat
series
##obl
least
motor
strategy
fram
memory
bacteria
additional
plac
sn
home
repair
##ococc
hybr
macroph
refl
attention
average
mak
##uter
##aft
reson
endothelial
las
##he
pregnancy
upon
little
markers
examine
##icial
particularly
corresp
monitoring
##ca
countr
power
experiment
##utes
origin
fract
employ
##rup
##hydro
toler
##ef
na
component
hr
wild
generation
stability
ci
side
##pective
soil
tom
cours
oxidative
fluid
##onomic
contex
##amma
color
bu
degrees
leading
lact
systemic
sleep
##ense
matrix
##artic
))
history
sequences
recomb
##osa
depression
characterization
variation
##esized
##oz
28
##ench
##fusion
##obacter
##arding
prevention
##12
##odes
open
##inity
whole
myel
##activ
mutation
smok
convention
exposed
transition
##ogl
epithelial
polymorph
metal
##ressing
##ceptib
causes
traum
objective
injection
recovery
efficiency
summ
##val
implant
bm
problem
##esth
##atives
cys
defined
onset
developing
fold
stre
collected
radiation
iv
quantif
act
stro
setting
susceptib
##eti
percent
acqu
##asts
##iotic
selected
##rine
point
upt
alk
label
elevated
doc
plants
##uring
source
question
##iology
older
ra
uniqu
regulated
consistent
extract
##reat
conserv
##ape
antagon
strength
unkn
intracellular
along
##otypes
uptake
modified
unknown
toxicity
terminal
absence
irr
alternative
35
##idine
problems
##roscopic
simple
provided
##ayed
seen
por
ey
profil
##eline
neurop
yet
protoc
##mic
treatments
facilit
##uit
##terol
deriv
trig
reli
##dom
spe
include
##rot
nanopartic
chemotherapy
conventional
80
hybrid
bound
atp
cerebral
26
liquid
001
regarding
stable
##gl
medium
regulatory
contribute
internal
mental
opp
##rin
tool
##hood
##activity
##anning
fibro
implement
global
alcohol
transplantation
received
##rolog
##ella
examination
mutant
chromat
gamma
##inated
efficient
bal
special
90
program
hypertension
ster
##arr
spatial
%.
peak
##acch
selection
gran
accumulation
adolesc
linear
designed
highl
##fact
advanced
wall
##bp
prosp
incor
lys
cand
hormone
arg
resolution
occurred
stroke
##istry
##ror
star
microscopy
restric
ear
##ocl
##pri
materials
##ank
resonance
complexes
compare
##ument
ventricular
pair
##ather
mechanical
unique
##ectiveness
double
coli
dimensional
pp
##ove
course
appropri
roles
##neum
context
##titution
much
##ector
27
##opathy
famil
effectiveness
##izes
32
pt
relevant
##oprotein
material
mil
##anes
marked
measurement
imm
candid
difficult
enzymes
##amide
gastric
ter
accuracy
place
##inf
##plicated
tetr
##istered
##que
(+)
pyr
undergo
biomark
##alian
extracellular
##uration
alone
atten
repl
directly
##cc
chol
enter
mainly
improvement
organic
late
secretion
soci
degradation
fatty
hypothesis
rang
bor
ta
transmission
criter
forms
daily
melan
hs
##oxy
shif
myocardial
continuous
interp
limit
degree
##etric
cortex
diabetic
revers
subsequent
spinal
subun
investigation
duration
laboratory
##olesterol
##rob
kine
occur
atr
nerv
fix
best
though
##other
eu
yield
adverse
randomized
##ints
she
detail
exhibited
gast
able
platelet
implications
##ectal
discover
'-
covid
##ession
##encies
##ope
hepatic
currently
survey
humans
achieved
relatively
cho
his
substrate
simult
medicine
incorpor
##oral
neuronal
record
sodium
simultaneous
fluorescence
eryth
generated
iron
inhibitory
fish
conclusion
reconstr
70
##ophag
microm
##acr
unc
##olip
variety
olig
trad
rob
29
##ea
var
##enic
specif
adhes
differential
phosphorylation
##11
invasive
48
procedures
temporal
intrav
interventions
##yg
cas
antic
indicating
##ometric
pneum
disp
led
##illary
auto
conj
##den
widely
malignant
pm
slow
##fs
necessary
persist
##osyn
americ
##dr
paras
germ
obes
solid
##land
propor
comm
numer
##mediate
const
##ots
45
fas
appar
cohort
terms
view
intestinal
##otide
doses
finally
involvement
rab
%),
induce
##oglob
obesity
##ired
national
ht
##ometry
rib
call
##phal
taken
pathogenesis
36
-(
profile
gel
eight
biops
cu
algor
##argeting
mc
##ending
cp
prostate
algorith
aer
ns
inn
##53
countries
bp
33
substan
##icians
shows
+)
##urb
arterial
reactions
extre
highest
needed
##ologies
##aces
commonly
##ively
adren
migration
cytotox
targeting
targets
analog
##onucle
agent
##ings
sperm
##ectivity
image
intensity
mob
diagnosed
interest
##ool
optimal
##onia
##oxide
##ges
remain
##itude
##orrh
frequently
reports
##cers
now
##enge
appropriate
aggreg
##iety
##erex
maximum
##uls
micros
amount
##icle
removal
oxide
##otrop
molecule
aged
pse
myc
promising
adip
anterior
##imens
regression
##ee
responsible
barri
carried
layer
##itary
hemat
broad
stimulated
##eletal
37
assist
specifically
mt
bond
fung
##sh
genomic
##tral
##orbidity
plays
mri
attenu
##elling
nanoparticles
extent
##ched
toxic
##bor
resour
princ
##obic
proj
interf
images
pseud
eas
##imer
determination
optical
seem
##ret
pi
antioxid
susp
specificity
postoperative
##arian
onc
assemb
constit
laser
maternal
iso
tnf
means
puls
read
##asia
intake
become
assays
severity
##lation
isolates
dietary
hipp
challenge
prognosis
stages
feed
recognition
sequencing
poll
spont
core
cos
potentially
##ared
birth
cholesterol
exist
phenotype
haem
channel
ste
corresponding
must
spontaneous
clos
tri
##truction
gastro
##osynth
##ico
heterogene
tomography
##ished
reach
soft
deep
alterations
explore
anx
affinity
full
thyroid
reactive
squ
31
##erexp
pancreatic
targeted
replac
nature
behavioral
administered
seven
##arily
##20
contribution
last
criteria
ful
##ogenetic
spectrum
rs
%).
supplement
students
ligand
neon
conform
produce
estimated
overexp
ty
prepared
respond
dog
vaccine
education
hb
score
##ga
34
product
lateral
tract
cerv
##acchar
198
infants
alb
section
##eff
##fl
benz
lum
##otion
residues
##ves
tel
chromatography
##orting
what
div
##mentation
pediatric
advant
altered
hypox
later
asym
ray
force
cann
##ame
acetyl
##ula
##olved
way
authors
##ened
bo
pass
near
map
orth
##ocamp
anat
cruc
predicted
##reh
white
oil
publish
reducing
##ophys
##ving
##onin
thick
occurs
##ermal
hydrogen
regard
emb
rather
certain
uncle
strongly
peptides
##osomal
deficiency
theory
##ytes
prefer
nf
cd4
intern
relationships
hepatitis
leads
technology
##ework
abund
aspects
rot
promoter
signals
##apping
##odynamic
fetal
hp
urinary
##ify
##eal
##tially
fed
unclear
epidem
allel
framework
ads
##itiz
prognostic
underw
##ients
compreh
hd
far
##sis
maintain
complement
half
spectrom
##tively
##man
retros
##tility
##immun
proportion
third
tb
cortical
relation
consumption
contact
past
lesion
##ieve
particles
services
living
partial
polar
##tering
fo
dm
##olytic
requires
hippocamp
excl
disrup
agon
##itr
diversity
sexual
75
reference
reconstruc
heat
extern
recombinant
##aptic
joint
##thritis
##la
od
##lyc
concept
ss
vitamin
spectroscopy
variables
cath
manif
##ching
manner
baseline
making
cervical
collagen
aortic
cultures
##ectin
ng
electroph
##gens
##alk
challenges
prospective
females
pb
space
retin
marker
vas
##ert
weak
formed
event
sa
elements
classification
##ields
##osing
##ocal
published
##tile
europ
##way
##ades
##oper
##itable
networks
variants
ca2
##ucid
##estern
neurolog
fit
##osin
reas
personal
pk
macrophages
unit
##isc
##ends
interfer
##aine
having
flex
elder
males
arch
developmental
den
appears
vess
##iral
##okines
afric
##igen
chromosome
profiles
##uded
ure
##uts
therapies
sr
significance
larger
morbidity
regen
leg
univers
involving
cord
basal
##ortun
meta
##bo
.)
##phen
traditional
clinically
behaviour
base
ultrasound
metastasis
rt
adapt
external
##itone
underwent
cancers
##tration
cereb
associations
impaired
mixed
irradi
sed
radical
vary
europe
attrib
ann
search
wave
##aring
38
potent
elderly
gal
##aves
fibrobl
som
moderate
cultured
rich
ovarian
biochemical
exch
3d
au
around
hydroxy
datab
)(
protective
##osine
usually
engine
thor
predom
towards
##elines
nucleus
42
##arin
hours
abdom
mild
synthetic
subt
##ream
root
incub
ga
absorption
seed
fast
perception
infer
##osite
##ocar
rapidly
accurate
center
generally
impairment
jap
above
asth
##ercul
scores
cad
anxiety
prolong
phosphate
prediction
avoid
rev
ld
##avirus
suppress
##icles
variability
decision
elucid
diam
upper
ak
ds
protocol
rou
##dle
trigg
##aged
##aryn
extraction
membranes
subc
morphology
median
calculated
coord
transcriptional
stabil
##itud
recorded
ifn
endogenous
##ring
susceptibility
pen
recommend
##13
members
solv
growing
rabb
organization
actin
##16
located
fully
autom
western
protection
emotion
convers
##ylated
profession
log
basic
oxidation
allows
fusion
##lo
china
##utive
uv
sources
##adder
ten
##rophy
understood
##ontal
##rophic
##by
##elium
pathological
replication
nervous
propose
synthesized
progress
address
enhance
guidelines
##ologous
##ident
phyl
amyl
##ococcus
##wide
ves
device
marrow
##less
gp
##bal
leukemia
ros
##crim
cf
aud
inst
##eling
fibrosis
##eg
benefit
epile
fav
find
manifest
abnormalities
successfully
grade
##inate
anesth
##osomes
norm
##urine
ana
industr
##ats
extrem
constant
##stream
pan
pal
wound
microbial
ow
domains
##resh
mode
##oring
refer
43
computed
expected
##ata
ble
abdominal
tend
crucial
dil
##rich
sampl
polic
##onch
cis
chinese
adolescents
phenomen
coupled
##itin
another
defic
discrim
resection
posterior
eye
pac
tolerance
##inations
aging
media
##escent
congen
##ema
tun
emph
);
variable
neut
adhesion
antioxidant
purified
stimuli
recr
tumour
elim
transcript
conclude
metastatic
movement
attem
ech
construct
categ
existing
morphological
conver
##cher
accel
nas
tools
##ned
gh
neph
throughout
diverse
defects
promote
##usions
orient
md
majority
occurrence
account
##most
preparation
schiz
##ulatory
##anth
element
##ounts
##eta
##oplasmic
recip
##care
neutral
dele
##ohist
##ils
smoking
thermal
lymphocytes
cc
localization
##enchym
milk
intravenous
fab
confirm
enrich
spl
middle
proxim
##east
pg
make
scler
##esia
induces
channels
tubercul
lap
##ili
##olds
biomarkers
immunohist
trauma
spectrometry
needs
igg
feas
matter
##ogens
##ories
benefits
emergency
issues
##asty
cb
remained
##luor
perf
##gans
conjug
theore
polyp
south
polymerase
infarc
interval
thresh
65
##olysis
obtain
bronch
statistical
az
##organ
##genic
united
ub
recurrent
knock
endoscop
fa
sd
providing
healthcare
##iaz
nam
##ovirus
##ori
derivatives
childhood
carri
ischemia
motion
graft
japan
offer
histological
amb
band
accept
questionna
aw
behaviors
put
diffusion
##phosph
reconstruction
recurrence
biopsy
##lr
lang
excess
modulation
devices
soluble
school
##oked
nucleotide
skeletal
##ophage
donor
programm
##ione
subunit
focused
comprehensive
specimens
observations
colorectal
satis
programs
##ialysis
feeding
longer
tyros
chick
ischemic
##oline
##14
summar
transf
reviewed
##ocation
##rel
##aria
restor
##isation
staining
precurs
99
graph
almost
ens
fund
p53
cyp
document
##iform
illness
##ichia
##tp
##ocrine
nitrogen
metabolites
##anial
39
##activation
##osens
opportun
##tract
##osal
##oration
02
##ls
##azole
extensive
defin
dental
ather
frequent
##olec
employed
affects
##thern
bov
##to
crystal
##itus
##apl
##ament
superior
ker
##ged
nod
comparative
egf
encoding
undergoing
##arv
pla
largely
highlight
##leuk
perme
antimic
##oxyl
lc
##herence
##tenance
##orage
##hyd
subtyp
predictive
shape
antimicrob
grad
improving
families
##atib
mammalian
robust
comput
##ompan
maintenance
sensory
##tious
algorithm
artif
##opic
##nt
gender
cytokines
regulate
asthma
##ycl
55
exchange
instr
advances
waste
oh
##pir
respect
parall
assum
occup
44
accompan
dogs
mutants
american
fiber
segment
ring
mill
presentation
neck
##angl
##tre
coeff
assembly
influenz
emerging
##thal
fm
predominant
vel
tc
break
rhe
modeling
turn
deficient
upreg
nursing
hydroph
characteristic
native
gli
backg
viruses
thym
##ostasis
ethanol
camp
indicates
communication
##try
du
spread
suppression
##let
schizoph
recognized
invasion
retrospective
commerc
##itoneal
computer
zn
antibiotic
##ra
urine
modification
transient
plastic
exhibit
cytos
occl
estimate
##iation
##actic
schizophren
monocl
aims
pf
electronic
##used
##18
np
inser
arth
smo
##back
##ocomp
dual
musc
longitud
lymphoma
conserved
cav
degen
additionally
tryp
##ancies
##eck
##ral
psychological
nine
tuberculosis
repeated
##xt
park
achieve
clon
##ocarcin
prem
explored
units
##cler
integrated
attach
##intestinal
numerous
##ica
##iotics
72
##osterone
##rocytes
completely
##ester
##oblast
##15
insights
##water
pathology
neutroph
choice
tgf
necrosis
46
gastrointestinal
operation
implementation
interleuk
escher
##iver
##usc
poorly
##apse
numbers
escherichia
neonatal
gain
reproductive
retinal
##rs
enti
economic
progressive
variations
murine
ben
replacement
points
green
##17
##oscler
infarction
##uting
analyze
compr
serious
storage
cv
eti
pet
delayed
opi
goal
congenital
consequences
vul
percentage
venous
solutions
descrip
interesting
##idal
regulating
typical
working
suitable
monoclonal
cleav
spin
##eli
##illus
smooth
cytokine
cortic
regional
hab
##19
intermediate
affecting
run
dors
mim
receiving
location
bis
##inking
prolonged
##urg
interleukin
separation
lapa
seas
##crib
gold
crystall
gradi
uter
mn
biosynth
pharmacological
driven
fracture
##urys
caps
parallel
injuries
immunos
infusion
threat
gest
pathogen
##esh
nh
cam
bladder
##ump
dispers
yeast
atrial
adequ
depart
gc
sensor
acquired
worldwide
nons
thi
close
##gm
shock
autoimmun
plus
statistically
##ches
swit
##ectious
antimicrobial
##eless
lps
slight
microbi
antigens
preserv
##atur
bran
contain
primarily
##thers
thickness
##otypic
overexpression
dend
la
uns
ast
acceler
presents
##transfer
aug
tit
probe
##ycin
##heimer
strept
expressing
##opo
##ellar
alz
sti
hydroly
tyrosine
counter
catalytic
##ophageal
##ises
dominant
agre
##itted
distal
nitr
veloc
apparent
##rog
rr
extended
intact
simulation
##uff
emission
47
longitudinal
possibility
represents
transpor
egg
##eptide
##imen
mach
alzheimer
vac
##athy
possib
describes
international
reverse
clinic
port
excell
shift
minor
exce
bovine
competi
background
ions
knee
kinetics
princip
transduc
contained
influenza
melanoma
p2
##orter
##enty
disch
balance
67
tm
##be
safe
##atid
inhibits
##aline
immunity
infectious
csf
pneumonia
##itory
bul
hf
isolation
localized
showing
##tition
atom
example
##hc
occurring
##oside
microgr
tex
diameter
particle
distance
ethyl
organisms
hypoxia
producing
colum
##ifications
substrates
asc
date
und
##cles
pros
igf
comparable
fibr
biology
axis
##enchymal
signs
seiz
theoretical
tail
earl
prel
glutam
autophag
##ike
##ythm
until
##elf
arthritis
##ecutive
initiation
##tingu
others
##roup
rod
verte
coding
whose
gab
compl
##arcoma
neurological
##kin
ubiqu
derm
appeared
)]
cul
barrier
##oa
scanning
methylation
noise
epis
##ban
probably
direction
##certain
traits
dc
##letion
reliable
52
##fa
feature
bilateral
##o2
##ows
directed
##ensin
recommended
##ysacchar
transformation
hemorrh
skill
dopamine
surfaces
antagonist
burden
expand
##queous
##icin
graf
fibers
ane
mp
intensive
speed
pv
tax
infr
dl
variant
##atase
56
labeled
face
herein
healing
partially
characterize
caro
##onas
##anine
substit
lam
service
relax
distingu
disturb
enhancement
closely
coupling
bat
irradiation
costs
##cal
presenting
vector
##ss
bin
electrical
##ectives
facilitate
aqueous
excellent
##hal
kill
risks
qualit
modul
##estions
infil
detailed
cluster
##forms
illustr
placebo
fractures
called
schizophrenia
phenyl
gland
circulating
identifying
divid
assisted
py
gut
practices
hex
kda
glycop
##ulum
airway
discovery
beneficial
simulations
49
54
possess
##itively
benign
salt
##gs
zinc
matched
##bre
comparing
aneurys
ip
vag
##ipl
sufficient
##ton
effectively
dehydro
##ements
organs
deletion
64
biof
##1a
newly
regulates
##tum
limb
radio
##urally
##yle
##ochemistry
##estic
03
##reatment
##ota
subject
pil
reh
stimulus
flav
53
database
never
measuring
spectra
fluorescent
termin
##insic
##ict
refr
correct
##acting
observation
##rium
fall
pathophys
final
##aries
clim
##err
expans
granul
langu
amyloid
synaptic
##ancer
elic
pharmacokine
resources
extracts
hla
hair
added
mis
implicated
plan
##electr
ple
proximal
##avy
amounts
dependence
##inson
##rief
sir
thorac
atheroscler
determining
depth
blot
dy
##ozyg
routine
ket
minimal
##ocytic
decreases
amp
85
interpret
workers
psychiatric
unf
##pati
substantial
venti
estrogen
##rec
bc
analy
##b1
contains
nmr
##acet
volt
increasingly
sen
##k1
##cephal
mineral
adsorption
rise
delta
introduced
questionnaire
inher
##acer
scaff
mell
junction
volun
##oglobin
pathogens
##irect
parad
##oin
nr
##lycer
physicians
subsequently
##dehyd
move
##ady
oct
complication
sampling
metall
##ners
homeostasis
hg
recommendations
smaller
emotional
communities
influenced
capable
issue
cn
angle
genotype
ligands
european
assessing
explain
rheum
bleeding
heavy
##isions
urban
embryonic
arab
##otropic
fabric
validation
valve
thought
leaf
shap
manip
##oic
##aphyl
adaptive
##ophosph
ln
retro
##ocarcinoma
rest
radiotherapy
96
error
supported
glycos
##ias
indirect
challenging
node
efforts
actions
##ives
##treated
multiv
reduces
conversion
##ways
every
north
concluded
muscles
##acial
suppressed
beg
##enia
h2
##treatment
ratios
multid
##uvant
##70
simultaneously
fragment
vein
persistent
markedly
adaptation
progen
quant
##ariate
gap
bow
##atus
dex
autoimmune
##oidal
58
contraction
prelim
##ecal
adop
hm
##ivalent
thereby
cover
##usive
parkinson
##ensis
ts
interface
validated
regeneration
##down
fu
gi
bac
scientif
phospholip
experiences
below
promotes
perceived
substance
##ician
integration
involves
##ested
sectional
multic
invers
nk
xen
controlling
##entical
thin
contamin
threshold
gangl
fibroblasts
assign
wt
##opa
nad
41
charge
pregnant
track
##plasia
63
magnitude
fresh
agreement
next
epileps
casp
##iciently
treating
antibiotics
##entia
##get
##sin
##ught
##jection
accompanied
pack
brief
mellitus
##oglyc
display
candidate
cytotoxic
sedim
pathogenic
language
causing
pel
varied
latter
##transferase
##chem
parent
polymorphism
velocity
cannot
strand
investigations
catalyz
nanos
lob
motif
regular
serve
mitochondria
##opol
sinus
##tructive
seems
adjus
##factory
agonist
gon
##lin
decline
cytoch
##exp
57
gover
deposition
##omycin
estimates
phyt
sustained
conv
##osome
limitations
medication
##upp
operative
settings
##38
mapping
##osity
stere
ib
institution
fields
reason
##oman
generate
sars
-,
divided
scat
##usal
preliminary
practical
##avel
nico
quantum
clar
##iveness
considerable
dip
sclerosis
ground
##dm
nitric
##nia
##angi
hcc
##idin
fixed
glycoprotein
62
varying
earlier
estimation
aggregation
remod
coc
maximal
metastases
clearly
68
66
ni
gm
identical
fol
asymm
perspective
lipoprotein
defect
experienced
eb
##ensions
catheter
periods
reactivity
dementia
scientific
interview
austr
mesenchymal
polymorphisms
university
maintained
expansion
04
rar
osc
copper
##udes
pulse
vaccination
delay
wr
vegf
##ush
500
allowed
nurses
availability
black
akt
twenty
epilepsy
aa
arm
rb
incubation
typically
compart
transgenic
##aper
##otomy
blind
displayed
perfusion
##ads
t2
failed
##ocytosis
hypothesized
mand
parents
dehydrogen
computational
##chron
##ry
##ematic
reveals
buil
viability
dos
policy
##amous
##isp
rehabil
sten
interv
contrac
includes
##illin
##oe
utilization
insight
inters
traumatic
ras
##omers
histopath
##oon
phylogenetic
confidence
reflect
neurot
59
##ury
enzymatic
injected
err
##bar
endoscopic
##axis
hcv
retention
interferon
##acin
infant
autophagy
promoting
cardiomy
output
heterogeneity
distr
depending
evaluating
loop
impl
immunore
synthase
qualitative
##group
##rose
deform
gaba
cx
mature
cod
utility
##teine
department
predictors
##illance
ranging
##amental
vessels
##ohydr
functioning
cyclic
interact
overc
correction
3h
supr
hence
##itol
forming
feasibility
check
unl
##omet
cry
satisf
##itect
persons
uncertain
extracted
foot
##ifying
peroxid
##ilities
lep
arom
attit
land
recording
restricted
amplitude
angiot
excre
react
oscill
advantages
suic
influences
cd8
miss
proph
aspir
pigs
positively
phenomenon
biosynthesis
aid
translation
environments
##olecular
except
pand
cytotoxicity
##igm
correlations
feedback
##umab
duct
##itals
belong
putative
noted
maturation
teach
##olin
commercial
##ks
contributes
depends
planning
questions
hearing
##ocellular
angiotensin
##abilities
engineering
##unding
temperatures
tasks
##eds
bowel
intrinsic
demonstrates
surveillance
mixture
art
preoperative
rout
trends
repeat
express
none
strom
steps
embryos
##izations
##path
overl
surge
options
african
residual
analysed
fill
##p1
excit
ect
evoked
micror
evolutionary
attenuated
fing
composed
phenotypes
retur
spectral
moth
##anti
gradient
##geal
determin
auditory
ze
##otr
##omical
glutath
unus
##era
cut
##ontin
glutamate
##edic
technologies
substitution
##dehyde
##omonas
retic
dry
##alpha
composite
epigen
sulfate
attemp
completed
##ritic
trim
artificial
lacking
squamous
##oxin
)/
plate
pitu
rabbit
person
yo
possibly
albumin
predicting
mb
apoptotic
om
bind
trop
##beta
98
trunc
fundamental
cox
max
introduction
##aceu
##pass
analytical
chest
appearance
rehabilitation
spr
locus
##oresis
dorsal
insuff
sph
extremely
abundance
potentials
##itant
remark
scal
hard
78
released
cyst
marg
allele
deficits
nonc
buff
μm
curve
clearance
circum
gs
ba
implantation
taking
cleavage
kinetic
heterogeneous
##yte
##ietic
##break
pert
##aryngeal
proton
ethn
salmon
aberr
ven
hippocampal
downreg
glomer
hsp
##ologists
hybridization
sug
rp
##obil
nutrition
epit
saliv
##amination
glutathione
73
pandemic
opioid
cytochrome
##gal
inoc
words
adequate
macrophage
##lux
##mark
dissoci
nc
hydr
datas
cartil
supplementation
##osystem
pituitary
lv
arteries
##omics
carotid
##np
parameter
tp
##rovers
##40
##ilateral
epithelium
modifications
outbreak
##arrh
##ensus
adherence
##ze
original
##opathic
hpv
2d
fragments
76
item
##gi
sept
splic
dehydrogenase
rural
cdna
decades
eeg
aqu
dram
identi
##aceutical
array
##train
virul
controvers
##ayer
neurode
##emat
cutaneous
advantage
hypothal
toxin
antis
neurodegen
##isition
300
precursor
chromatin
discre
frequencies
##wh
##aster
quantification
86
cns
bd
documented
staphyl
cytoplasmic
height
decomp
51
science
##adian
bey
voltage
clusters
guided
250
ulcer
distributed
bile
fixation
beyond
enab
prophyl
live
compet
facial
anomal
acquisition
cold
##teen
dramatic
viol
##ospor
##opoietic
separate
steroid
##ips
reliability
##cribed
biofil
constructed
mv
laparoscopic
film
loading
vesicles
amph
##dna
methodology
hospitals
pool
pairs
##card
author
##acent
classified
nutritional
inducing
##lets
member
##aemia
column
validity
grown
si
fungal
phases
align
nasal
69
inhibiting
negatively
##dp
##opor
favor
coronavirus
pall
##oag
##isa
bias
pretreatment
chains
aure
(-)
initially
depressive
cultiv
disability
gram
##mental
e2
##ocardi
tob
##inning
slightly
):
adenocarcinoma
##ana
caspase
mmp
architect
zone
susceptible
consecutive
done
penetr
libr
fever
##phenyl
braz
fractions
applic
surviv
92
dp
leaves
##arch
obese
loci
conduct
pic
reper
beam
once
sought
synerg
equal
##chemical
mening
photo
improves
adrenal
skills
input
neither
lymphocyte
##point
serot
sho
draw
sets
upd
platform
virt
##omat
differentiated
ck
aggressive
prosth
sensitiz
films
define
idi
##ophen
fibrin
##ina
##fr
classical
corne
83
##ilib
solvent
##ved
whe
88
##idae
##ords
rheumat
medial
project
considering
77
iod
limits
74
ing
kapp
##ilibrium
deb
layers
##alities
##acco
82
tlr
bypass
newbor
utilized
acting
pelv
overview
veget
carbohydr
downstream
93
restriction
valuable
##oplastic
mostly
##iction
##veolar
sensing
concerning
##onate
blocked
fet
hippocampus
complexity
epidemiological
precise
##ba
immunosupp
orientation
secret
##romy
gall
##ypt
mothers
##ysaccharide
veh
subjected
aureus
##atidyl
impacts
distinguish
hepatocellular
ram
haz
rice
digital
##oming
epigenetic
collection
unusual
relevance
adjust
infrared
lh
##term
walk
ultra
97
tube
trach
micrograms
hor
##ware
attr
anth
vaccines
depletion
##plc
woman
changed
regulator
resource
attributed
socio
quin
protease
##57
prevented
cation
cond
##idase
percutaneous
##ophila
##abs
ce
residue
blue
fc
##vascular
84
correlates
##iae
sustain
##ette
movements
exogenous
femoral
adenosine
##enes
nearly
tobacco
demographic
focal
motiv
histone
recruit
concern
compens
explained
ecological
immunoglob
reperfusion
aids
trip
ester
discharge
lipids
vulner
greatly
pilot
cartilage
##a1
fif
p4
concom
##hydr
brazil
##ensively
mer
pip
optimization
subgroup
responsive
dimin
empir
phenotypic
give
##fe
##odef
##hs
##23
consisting
nuclei
##eting
expect
ranged
immobil
determinants
adjacent
bip
drinking
##elin
extra
phosphatase
##fp
##ylate
adolescent
genus
probability
connectivity
permeability
incorporation
config
bearing
adjuvant
saline
##alling
##ogram
adipose
##ley
env
take
mono
##assium
chloride
intervals
arrest
##zyme
mobility
##atile
researchers
bcl
ent
immediate
87
sea
##ophilic
79
proved
concomitant
society
guide
habit
sple
orb
dihydro
##iologic
immunodef
requirements
197
coefficient
gir
potassium
acetate
antiv
##ipp
leth
substances
inactivation
decl
malaria
degeneration
##agg
sections
##des
analges
entire
encephal
prep
lens
barriers
##ectors
elevation
remaining
fine
thal
stenosis
rig
easily
egfr
subunits
seek
shr
modulate
consensus
##pread
innate
mirnas
hazard
##wise
ammon
enriched
predominantly
similarly
##eses
bot
wides
ace
room
2019
centers
widespread
preventing
users
94
similarity
##patient
independently
errors
89
##iasis
intram
tumours
identity
amplification
cavity
electrophoresis
abundant
vide
insertion
echocardi
breath
##obacterium
sat
acad
brom
interestingly
calculations
##22
intrac
##anged
interc
pent
##oyl
marine
manifestations
occlusion
##issions
elisa
own
climate
supporting
argin
##ato
##sa
##3k
##oded
remodeling
esophageal
dendritic
##inflamm
##ulose
angiogenesis
sup
microg
relaxation
speech
biomarker
always
##ires
lt
coag
demand
outs
##time
##tub
distress
japanese
bodies
changing
electrode
##choline
etiology
##uits
estr
##iph
nano
##ilic
existence
uses
glass
extension
chond
##iosis
simulated
abuse
brid
##atig
removed
surro
##empor
atm
##ash
##uary
precip
epidermal
encoun
125
##ptomatic
sv
minimum
cd3
superf
sepsis
nac
pren
##lam
protocols
symptomatic
har
house
anesthesia
pure
placed
recipients
modern
##icking
finger
##uctase
fatig
pump
equivalent
##ember
constitu
cyan
randomly
classes
contents
##uria
innov
refract
##25
lamin
decreasing
differentially
hemorrhage
professional
inner
##enal
nutrient
translocation
schem
plasmid
disruption
cystic
reached
fibrill
parasite
suspected
ldl
rational
##ocortic
eg
activating
excretion
reporting
400
concerns
##ionic
subcutaneous
signalling
61
##mediately
combining
deaths
thrombosis
mucosal
silic
emerged
150
##ready
embol
staff
parts
segments
minutes
##otides
uterine
tib
already
myeloid
nodes
enhances
##eptive
volunte
##iance
technical
##adiol
spleen
donors
##ime
reviews
plasticity
selectivity
peritoneal
trend
##tures
immediately
vic
obstructive
nt
##aden
surrounding
##oscopy
detecting
clinicians
t1
metals
interference
thoracic
mast
collab
precision
microbiota
##zed
##oplasty
separated
##ibration
list
obstruction
atherosclerosis
traff
##aturated
enhancing
##azol
sera
dro
offers
aneurysm
rup
##oxygen
##enter
##oints
maintaining
exer
emphas
dimethyl
vessel
reversed
atyp
##ote
subtypes
allowing
dialysis
cycles
##rotective
multivariate
interpretation
##tead
displac
##opsis
71
synchron
microgl
absol
##ropl
namely
encoded
instrument
mechanistic
inhal
timing
hydrophobic
##mented
##urance
redox
potenti
reinf
anatomical
##acranial
resting
##nel
mucosa
vertebr
cla
diets
rnas
ablation
enable
##entive
lith
asymptomatic
recovered
sul
##carb
##60
limiting
contamination
dox
conflic
untreated
##areness
adjusted
120
optimized
##embr
rarely
integrity
outer
immunodeficiency
count
##itic
somatic
sf
##iples
ocular
automated
transcripts
capillary
africa
graphene
implemented
hydrog
instead
principles
hydrolysis
definition
accoun
war
db
truncated
##uscular
##azine
dros
tg
labeling
flux
allergic
pharmaceutical
monitored
diffuse
peg
wors
endocrine
neigh
##ifer
hydroxyl
hemodynamic
##draw
uniform
quad
##ani
parental
correspond
hormones
rank
preparations
awareness
monol
rheumatoid
frontal
##ascul
northern
withdraw
carcinomas
isot
genotypes
entry
coated
promoted
mi
##mod
complicated
spine
eosin
steady
neoplasm
stom
microf
##uch
detectable
##otoxin
ages
diverg
symm
ips
immuno
hyd
scan
jun
tau
mos
##rocyte
satisfaction
##rene
##osan
circulation
ultim
larv
fatal
mor
ars
embryo
##titis
##cape
##oxic
shell
fatigue
intell
jud
improvements
recruitment
elucidate
##xin
pu
efficiently
indicators
sound
microc
became
##2a
stimulating
hour
sympath
##tructure
##apped
income
##uous
##opes
ald
combinations
studying
prevalent
hematopoietic
refractory
inclusion
##uron
shared
##uctu
sud
hund
##alc
attachment
exists
pron
consequently
phag
osm
true
undert
syst
ionic
amel
euk
fluctu
attitudes
##inea
reasons
eps
hundred
oxidase
bmi
consists
leuc
cirrh
transporter
##encephal
cig
summary
seizures
throughput
dn
decisions
##rolled
formal
μg
postn
ways
autis
quantify
porc
intes
metabolite
##amycin
hapl
##27
##quin
activator
makes
experimentally
eukary
neuros
concurr
promin
physician
κb
##electric
##ister
##hr
##ofluor
dyst
conformation
##adily
##osyl
forces
pathophysiology
##osus
##itting
overcome
##ozygous
##achy
uncom
binds
reading
youth
indices
phosphatidyl
##eed
spher
casc
positions
##going
aort
tetra
carboxyl
referred
angiography
ly
ecosystem
carrier
##ocys
##inesc
malignancy
itself
##mt
atpase
##vas
heparin
drosophila
galact
german
##ded
govern
immunohistochemical
antagonists
##30
ath
solub
ubiquitin
option
ot
hol
inferior
genetically
serotonin
compression
microscopic
correlate
nar
industrial
sheep
ke
proven
consisted
virulence
selectively
gonad
##90
scales
idiopathic
records
aromatic
lowest
##onuclear
##atibility
wet
antiviral
younger
',
fore
supports
supply
ho
relapse
ank
ventilation
discrimination
##omeric
##ibular
transduction
mov
pn
##oar
anticancer
eating
arginine
powerful
sarc
industry
##bb
colle
tree
epidemic
hors
implants
aspar
##elled
equilibrium
offsp
##oustic
scattering
immunoglobulin
pollution
died
##opro
kore
stromal
software
absolute
epidemiology
sediment
instability
spermat
explo
##platin
probes
creatin
importantly
cattle
##ensities
biomass
ongoing
mediate
##entricular
mutagen
gam
suppressor
dich
subset
bonds
##f2
##ograft
antitum
atypical
attack
sizes
participation
cum
mu
reversible
##p2
bulk
chromosomal
##enari
immunological
critically
hypertensive
formulation
cris
##aken
gd
offspring
mess
occupational
arteri
gn
machine
sou
malignancies
coverage
professionals
##romes
wheat
retri
conformational
involve
2000
##atif
##atum
capture
bic
eyes
##pler
lactate
testosterone
requiring
synergistic
optic
hplc
nps
effort
acts
intracranial
lumbar
propag
81
standardized
elimination
rabbits
ball
southern
cisplatin
modulated
arrh
stiff
reinfor
onto
complementary
homologous
##ulus
##ulties
initiated
loaded
embed
clones
continued
##co
protect
yields
discovered
replic
secreted
careg
chemistry
##ief
pelvic
fear
accom
ones
##rous
india
hz
automatic
##uments
modes
wind
##plex
purification
translational
##embl
abol
fist
alveolar
inducible
##environ
systolic
##flow
abstract
cham
commit
##pes
survivors
##min
sequential
cigar
##ufact
assigned
##rown
reductase
##ephal
recombination
coordination
whom
##rosp
fertil
screen
architecture
pyl
##hg
##vian
anaer
##adic
mobile
providers
enables
##eps
variance
bay
psychos
opportunities
##lip
##estib
diarrh
##26
scenari
nonline
injections
##ocr
kinases
##cn
dyn
mirna
reserv
starting
crop
dimensions
microtub
distributions
wat
uk
catalyzed
agonists
postnatal
consequence
focusing
vital
tn
difficulties
keratin
##uses
law
regimen
##raction
histor
serine
profiling
neuron
object
operating
fruit
manufact
##otoxicity
trp
##tisol
description
##ameth
colony
##au
algorithms
dark
%;
dt
resolved
microenviron
li
panel
##ometrial
##ophyl
c3
knockdown
##isons
coating
roots
shear
##aceae
farm
standards
dic
depos
perturb
carriers
flexible
math
##oblastoma
text
motility
##iness
##ococcal
porcine
##embrane
consistently
##f1
principal
ile
0001
hbv
route
activate
staphylococcus
##atible
##ofl
fals
genomes
wnt
tand
online
##c1
team
cysteine
partners
examples
situation
nonlinear
##ada
locations
agric
created
curves
fgf
##iar
obst
],
exhibits
91
m2
substantially
blockade
##weight
agricult
highlights
accurately
##iol
osteopor
##esterone
neutrophil
harm
investigating
raised
guinea
spor
coch
##hed
volunteers
spp
polyc
##urity
hemoglobin
evident
empirical
progesterone
building
tandem
intestine
wa
##ued
##iplinary
##rought
derivative
##tice
paradigm
templ
trait
##ril
fibrillation
decade
neurom
##titial
anaesth
##erge
electrochemical
##load
salmonella
carbohydrate
practition
hypers
prenatal
microarr
vehicle
demonstrating
##enin
odds
tight
surfact
organism
homogene
educational
tooth
subjective
alleles
isoforms
trich
larvae
lm
preterm
unch
medications
ensure
numerical
elong
##alent
##roplasty
shorter
yielded
##uven
2016
um
##unt
neurodegenerative
delivered
s1
counts
##oor
neverth
shaped
##yster
mhc
nevertheless
indicator
tension
visible
nonin
admission
absorb
version
lp
physiology
million
comprom
hos
rearr
mother
anticoag
dissection
indications
polymers
mom
representative
careful
cows
atomic
tor
##ocin
##omorph
antid
##linical
stratif
##antic
emphasis
noc
##amus
##tes
alkaline
malform
generalized
##assay
##agnetic
elicited
negl
inside
emergence
exact
contributing
##lem
addressed
platelets
immunohistochemistry
receive
glycer
lup
driving
dd
closed
passive
deficit
upregulated
categories
lineage
microorgan
narrow
##agland
##plicit
reflex
vascul
dye
anemia
dissem
soy
##omotor
excessive
superoxide
##avelength
defense
perceptions
dimer
veter
##ws
nanot
##ocular
##ofib
antitumor
crc
persp
corneal
stent
infiltration
bes
androgen
##avail
admitted
nanom
neutrophils
linkage
dh
##80
##opausal
elastic
##angement
depr
retriev
postm
chromosomes
preference
jan
encaps
##for
faster
cortisol
alle
yl
semi
preclinical
##zing
##acerb
suicide
rating
gb
vision
exacerb
weighted
construction
homolog
produces
hu
undertaken
blast
performing
sb
##ounced
tag
see
##ora
excision
subcl
prominent
hall
incorporated
fox
##enol
academic
##acterial
perspectives
##k2
birds
##pan
##otes
plas
candidates
##xy
mammary
teeth
placement
tab
triggered
glucocortic
absent
merc
##vis
comparisons
effector
quantified
pts
##idium
scar
needle
arabid
readily
competitive
wastewater
##viral
plane
immunotherapy
].
library
pref
##eptides
hepatocytes
box
bed
thirty
acidic
##ocon
perman
diast
##phosphate
##cepts
fitness
arabidopsis
prostagland
country
outside
2015
ger
explan
personality
river
utilizing
ls
predictor
papill
harv
remission
trained
lethal
blocking
cues
##ci
mann
kb
modalities
create
subtype
substituted
sympathetic
##eded
false
familial
##rof
episodes
##p3
disapp
linking
gave
silver
portion
##orec
attempt
##oderm
2017
controversial
excitation
##vasive
l1
##lutin
pkc
domes
biofilm
##mc
##iary
unilateral
##clc
incom
regardless
traj
exception
flap
endometrial
cloned
rrna
##apt
tracking
extensively
amelior
circadian
circular
leak
ig
constrain
just
interstitial
start
]-
atmosph
proliferative
ventral
vacu
##ni
cocaine
lac
rc
##3a
##estive
applying
chicken
##ropathy
dissociation
##28
estradiol
plaque
lncr
stimulate
sugar
##inter
pseudomonas
vaginal
##eptor
##nea
fungi
##odon
closure
arrhythm
blocks
conclusions
autism
differed
circuit
beginning
cultural
tf
pronounced
##agic
fd
enrichment
##acycl
co2
##inflammatory
atrophy
nd
contributions
represented
hier
alkal
ham
guidance
wavelength
##actin
domestic
td
##elihood
isolate
premature
vectors
hams
residents
span
somat
video
actual
largest
06
zebr
prolifer
##itig
fibroblast
approved
##lands
mtor
tac
examining
##ositol
lin
lost
compliance
##bi
mathematic
##odal
predictions
sched
recru
1000
##fold
equation
microscop
dw
reag
##24
carrying
alteration
consideration
enanti
dosage
##ptic
##ulative
unexp
electric
incomplet
discussion
##isciplinary
##ging
edema
juven
syndromes
hierarch
rv
accelerated
meaning
representing
mapk
antibacterial
harb
##ala
##ysiological
lungs
nicotine
##odil
cytoplasm
secretory
systematically
aerobic
lands
ever
selen
rejection
##ieved
##operatively
reticulum
ideal
why
-[
vertical
progenitor
##ocor
newborn
scr
lr
pore
##eleton
instit
lifest
grafts
##inosa
nsclc
fewer
digestion
regimens
##inating
##orp
dispar
stret
conservation
preventive
##graph
contaminated
forest
pancreas
gtp
##onography
viable
atoms
property
##isph
dermat
])
##ineph
##arp
observational
##osarcoma
psychosocial
##times
transformed
pharmacokinetic
bud
##ulmonary
herpes
adapted
2010
copd
evid
atl
doppler
biopsies
##agm
transmembrane
pharmacokinetics
diffraction
expressions
austral
anaerobic
##entis
born
construc
nos
##onom
##21
##omb
##orous
gestational
concepts
morphine
##anal
sensors
city
microenvironment
gla
stop
aberrant
teaching
drain
cirrhosis
##epress
structured
twice
immunization
gestation
herb
rf
favorable
mixtures
photosynth
seasonal
meat
##oad
hdl
histopathological
pin
annual
##ighting
withdrawal
situations
qt
citr
mammals
cytometry
regulators
##ochrom
wk
summarize
##related
potency
aml
let
easy
silica
tt
division
##lings
rectal
xyl
resc
naturally
##/-)
reporter
share
##tors
tens
accep
chit
protected
##cious
foods
##t1
infiltr
##osel
reward
obl
preferred
functionally
##keletal
##athyroid
pestic
biliary
pit
hypertrophy
##rontal
lupus
likelihood
front
hl
filter
##edical
bab
deter
urg
##aving
elucidated
ligament
allevi
##icients
##aste
tendon
turnover
monocytes
beh
coefficients
bipolar
predisp
chor
##ocyan
topical
retard
##ynaptic
breeding
osteoar
rotation
suffering
modulating
silencing
filtration
macro
lute
cannab
##pecific
stiffness
encour
km
acoustic
pi3k
catech
upregulation
mitig
##odialysis
logistic
fasc
cro
presum
endomet
pylori
adp
polarization
bacillus
mediators
adsorb
dysreg
ans
raw
priv
interacting
##ai
##gia
phosphorylated
sap
bif
differentiate
chemicals
walking
trace
##asome
canine
quick
oocytes
diastolic
analogues
former
web
##asic
olfactory
focuses
surpr
pup
discusses
##oides
neuropath
assumption
patch
electrodes
##ervation
interpre
##hd
multim
p450
glands
acyl
lobe
cg
##ostatic
portal
gait
##osures
##esize
coagulation
pep
popular
stronger
diminished
opportunity
anthrop
rub
clarify
perm
autologous
responsiveness
horiz
##usively
arthroplasty
distinc
uncommon
##ethylene
##aminergic
inactiv
comorbid
items
burn
##rd
radiological
muscular
smokers
gastr
##otherapeu
adduc
##opyr
salivary
##54
immunofluor
scheme
medull
microorganisms
hot
embedded
screened
vin
static
anatomy
formula
psori
corticoster
competition
##elles
scaffolds
homology
asymmetric
disappear
drop
##rim
neurotrans
exon
engineered
##otal
##iking
envel
duod
articles
perox
ft
aerug
sun
##eres
processed
deterior
snps
operated
##asion
##ians
splicing
bands
##obacteria
peric
##otyping
normally
##ache
kd
sar
unexpected
2014
cats
##oxygenase
cerebellar
sudden
aeruginosa
mrnas
##rod
##okin
swe
glioma
influencing
##afish
lipopol
volumes
season
unlike
##inephrine
##ero
raman
zebrafish
anast
expanded
oa
##bc
rupture
besides
bioavail
ethnic
anch
##n1
opposite
##rox
helix
##irc
leptin
testic
porous
##tidine
catenin
##iod
cognition
biomedical
shifts
##sych
##otoxic
confer
intraoperative
alkyl
assessments
knockout
managed
locally
enl
##aments
urea
permanent
sense
precursors
respective
terti
osteoporosis
07
cyclin
generating
databases
concurrent
##ubicin
genetics
stay
##arum
chloro
##anium
##ping
forward
neuropsych
aorta
##itors
##anted
incubated
antidepress
##key
##rile
cellulose
fertility
threatening
sick
mask
droplet
##ito
considerably
analyzing
exposures
scaffold
rhythm
subm
2018
##ided
asd
##olym
nitrate
abolished
triple
switch
sucrose
triglycer
##atch
lev
##ques
sarcoma
antif
obvious
##cale
market
crypt
aβ
dramatically
operations
buffer
border
representation
conjugated
disturbances
##cap
prophylaxis
mediates
rn
(>
placental
##65
usefulness
neighbor
##asone
lifestyle
ide
ti
anis
astrocytes
##otrophic
histamine
mediating
helic
##grade
canal
mex
establishment
ultimately
ecm
contributed
apical
bt
discontin
##oxacin
tertiary
lysine
aver
opening
van
endothelium
##phthal
2009
peroxidase
je
mycobacterium
##atonin
nurse
o2
##bil
causal
violence
indeed
soils
becomes
parasites
greatest
radial
connected
echocardiography
##inescence
mscs
##agement
glauc
minimally
##ulsion
frame
entit
goals
esophag
chron
virtual
polypeptide
##ectable
eggs
rac
currents
##openia
##29
continue
examinations
08
visc
transfected
mitral
colitis
accepted
hemisph
couns
modality
sib
##igible
##essions
insect
communic
adjustment
enrolled
drive
erk
encountered
doub
##organic
##ilization
geometry
luc
##economic
attractive
objectives
posts
bioactive
stomach
chitosan
configuration
retained
##ellite
compartment
seizure
examines
##apor
giant
perin
requirement
formulations
considerations
severely
##atics
##oblastic
anastom
novo
capability
transfusion
mood
fri
notably
autosomal
pollut
##ivation
##uate
upstream
hif
##odium
january
rhin
##esium
underl
##elect
nerves
feasible
programme
tubular
glial
attempts
2013
p38
##hl
glomerular
surgeons
gsh
stabilization
##t3
##keys
manipulation
remarkable
categor
testicular
endemic
##vs
melatonin
unchanged
difficulty
recruited
oncology
participate
fmri
centre
anc
cardiop
surprising
developments
fasting
##uz
##ked
microarray
2012
##imb
ige
sometimes
##tra
##osites
releasing
##omized
mab
ont
null
##43
##chlor
anion
##hol
persistence
cascade
##omerase
##essive
believed
lymphoid
intraper
##uncture
electroly
##tives
sand
latency
acr
kr
cardiomyopathy
financ
juvenile
pathologic
hosts
retina
##ming
##imetry
##tent
reductions
##roz
look
mononuclear
##oprop
##rotic
asian
##inergic
##ographical
##r1
bonding
fos
extreme
##ayers
apparently
##ometh
warm
nig
c57
hypothalamic
cumulative
objects
deoxy
tip
##akes
##puts
evolved
directions
leukocyte
defective
oligonucle
##tructural
fate
shed
tod
hyperplasia
##ogenes
enabled
sirna
cytosolic
prevents
prescrip
uncertainty
##enger
din
copy
osteoarthritis
inorganic
##ishman
##ortion
##oblasts
##bean
profound
trem
crystals
##axel
provin
transmitted
predicts
##ulder
chim
para
aspect
serial
latent
exclusively
nucleic
pca
##h2
##ionine
##mitted
+,
histologic
waves
sham
##omatous
##eria
##olving
partner
tachy
mathematical
tric
aggregates
hormonal
##idity
igm
behavioural
dair
househ
width
noninvasive
displacement
ru
caud
mmol
race
microrna
##ometer
follows
trigger
optimum
##atosis
##idic
illustrate
ging
##erent
chamber
starch
introduce
##odegrad
fermentation
##pc
imped
ole
practitioners
reproduction
intermit
iga
shoulder
phe
5p
follicular
##enta
college
photon
seeking
##37
##iable
##anned
restoration
ovary
maps
hydrocarb
preservation
##adequ
vaccin
inadequ
##iciencies
##igation
immunoreactivity
##ocatal
insp
drainage
manual
sulph
prefrontal
acetylcholine
##afts
validate
deal
2011
policies
lipopolysaccharide
tumorigen
arising
edge
alignment
##opter
outpatient
trypt
conscious
bs
##apses
transitions
principle
dairy
##uck
jour
tick
##ploid
gyn
chel
cigarette
tro
adrenergic
encodes
ganglion
##off
user
##ophore
brown
charged
##nis
discrete
eukaryotic
segmentation
chiral
hous
clean
recordings
##56
mh
(+)-
unaff
transforming
fig
aryl
sna
##factor
socioeconomic
##mium
australia
kit
becoming
restored
owing
prostaglandin
clustering
promotion
##ogenicity
girls
tk
##onduc
return
unrelated
arc
stained
##rane
##terase
pressures
##ears
##plastic
swelling
##elves
slud
oes
plur
##inting
usage
aph
deviation
apply
additive
pancreatitis
surfactant
##ola
gyr
incident
facilities
hypoxic
sulfur
lag
ionization
implanted
##accha
alumin
partly
modelling
chi
universal
attached
##g2
che
##olate
nmda
capt
inver
recons
expon
periodontal
pseudo
leishman
adhd
cement
integrin
mda
tris
##ocompatibility
fs
##ellow
bund
decay
unaffected
##ulos
wash
.(
##gu
vo
warr
##mal
reflected
##amethasone
segreg
creatinine
nanotub
supplemented
grav
kind
hypot
coa
neuropathy
branch
repeti
extend
bioavailability
zero
exploration
modulates
nav
##ordance
##ulates
##yrin
subp
mosqu
deprivation
##antib
ecg
pigment
massive
nation
dense
equip
##olarization
too
desc
phosphorus
p3
simpl
dispersion
endoplasmic
gradually
a2
1β
##lc
mf
ventricle
datasets
##nat
terminus
east
cerevis
dataset
immunofluorescence
conductance
spectroscopic
meg
##otherapeutic
mimic
neoplasms
heme
interviews
uc
##estis
naive
tcr
constants
##oradi
scav
cerevisiae
##ogeneic
insufficient
16s
exploring
coast
achieving
spontaneously
conditioning
breathing
immunop
hyperg
##iatal
quite
ethylene
employing
powder
kappa
myeloma
started
##oir
homogeneous
append
intim
wear
disulf
##recip
axial
conceptual
conditioned
enlarg
##tia
##jun
conduction
ppm
hemodialysis
lithium
bott
purposes
intermedi
##aking
hospitalization
symb
phenomena
##ino
paired
cochle
fecal
perioperative
crani
aquatic
transc
##omod
anomalies
collectively
##orubicin
(<
##oemb
axons
adopted
strict
sludge
ia
##blast
batter
##yclic
##omyc
accumulated
##rolif
abilities
viscer
##iative
catechol
asper
exert
depressed
d1
alcoholic
arise
finite
earth
mind
promise
therapeutics
snp
##requ
##ectic
proc
efflux
##thood
pneumoniae
lectin
station
##echanical
engagement
##olid
##ception
lign
ptsd
cloning
vibr
##iac
folding
piv
abscess
##d1
ethical
##static
nanoparticle
##odg
rough
ambient
##ygd
neoplastic
adulthood
##avir
##tate
fistula
##anger
radiographic
autonomic
metric
inverse
##rospinal
lowering
scans
visualization
ankle
assumed
c57bl
09
##ulsive
bacterium
acceptable
dysplasia
west
amplified
rhiz
cysts
specialized
coherence
ef
##aterials
mosquito
stranded
square
collabor
##onomy
carcinogenesis
fus
agricultural
conservative
mas
randomised
amygd
catalys
##enopausal
mang
##pin
activates
isoform
##ylamide
##romyces
weights
preserved
##amer
immature
corrected
##orted
##cardia
injured
cadmium
diagnoses
colonic
intense
##itability
rg
##63
tet
thems
superficial
forty
renin
+-
2008
themselves
erythrocytes
cerebrospinal
candida
bacteri
comprising
eosinophil
oriented
cure
##olone
round
##ocking
seeds
senescence
##hn
applicable
verified
ki
t3
inactive
student
##rt
flavon
glaucoma
night
##izumab
details
recognize
transcriptome
##amines
intention
corn
nacl
gives
cool
gol
irre
ppar
##oscopic
##olve
calculation
transfection
calor
dopaminergic
##uity
intermittent
hered
##onium
condens
##ented
fourth
thrombin
streptococcus
sds
solar
historical
assembled
incons
inherited
hospitalized
-)
contral
##anced
coil
cin
polymerization
ccr
##urgical
distant
word
ineff
lifetime
notch
d2
##ensitivity
waters
septic
##aemic
lar
cvd
reservoir
assembl
epiderm
anticip
##ergies
catalyst
highlighted
analogue
meal
##obut
stored
trna
vulnerable
##astatin
innovative
##icul
select
##retro
##herent
retrosp
phage
ventil
##tructures
magnesium
".
cros
alt
responded
##iton
switching
##sk
antiretro
phenolic
##uation
##accharomyces
##iliary
tendency
sy
##letes
##ograms
oss
microglia
myosin
monkeys
arb
[(
emp
palliative
tam
quantitatively
termed
##ete
guan
fabrication
remote
##acing
transferred
moving
headache
consult
claim
losses
percept
dexamethasone
aeros
biodegrad
##osen
##rug
dent
jus
century
pge
calibration
coinc
##fish
orally
cdc
ah
microscope
pari
##monic
##endocrine
intellig
mum
canada
peroxide
outl
mmhg
moment
##ll
nodules
victim
##oms
meet
bronchial
##ura
neonates
##imetric
##nk
arsenic
##otent
incomplete
matching
cess
nb
entity
ophthal
thr
template
flexibility
constitute
2005
glycine
plasmin
propagation
resin
epitopes
wood
##ards
micrornas
mw
category
contralateral
counterpar
##ecs
striat
yellow
aspiration
##ools
enough
##abolic
asperg
diaph
colonization
##34
answ
deliver
vestib
oxidized
estimating
micron
emissions
transporters
peaks
##ius
bf
irradiated
##opia
fluctuations
envelope
kidneys
pay
retrospectively
tropical
indian
osteocl
sessions
##omegal
cef
##ubation
precipitation
picture
foreign
named
orbital
thyro
cessation
sial
fluids
accounted
methanol
ala
a1
similarities
clone
clamp
##ida
surveys
spind
##pro
dioxide
ectopic
prone
##hyp
chip
poli
mitogen
establishing
facilitates
nitro
ckd
coping
##ped
perinatal
institute
equations
hydrogel
##ffe
granules
mitotic
ranges
##olum
unst
observe
lasting
avian
allogeneic
##mut
radicals
articular
axonal
athletes
saturation
immobilized
chosen
fabricated
##ague
penetration
downregulation
avoidance
##ipine
1990
cholinergic
##ophan
motifs
dosing
optimize
plurip
modify
##zation
update
fragmentation
glycol
transgen
hodg
##o3
modif
##arse
america
rain
etc
destruction
renew
vertebral
steroids
##osacchar
grafting
antiretroviral
##ophyll
nucleotides
diarrhea
epitope
flat
silicon
sg
inh
preferences
unres
spot
histology
metalloprotein
##acil
interacts
cot
overweight
eastern
december
curc
##epith
vasodil
arrays
##fort
h1
2007
carp
usa
##orh
##roid
annot
(-/-)
aneurysms
equally
designated
sac
hodgkin
suspension
solubility
600
overlap
belonging
ribosomal
links
helpful
hereditary
attenuation
remarkably
##thromb
phospholipid
ai
varies
##ulant
facilitated
wist
immunosuppressive
sig
hind
paral
##oplasia
balloon
caregivers
##ou
disturbance
rip
staging
filament
respiration
##inform
##ellum
instruments
##aran
liposomes
##hion
glycogen
mouth
inconsist
##opus
big
reaching
rule
describing
arach
##imus
##met
striking
##angements
thorough
wistar
##arboxyl
tumorigenesis
comprised
mism
tap
statistics
rhod
laborator
bol
continuously
##yc
##estim
mandibular
ureter
landscape
##virus
##roliferative
##rozen
trafficking
anthr
electrophysiological
satisfactory
autoantib
carry
##etized
rings
elongation
running
bayes
##etamine
constraints
microbiome
financial
horizontal
doxorubicin
##emporal
2006
rect
peroxidation
otherwise
molar
allo
explicit
physic
biosens
glu
c2
til
##ares
alanine
hearts
typh
discharg
tolerated
##cp
fashion
##inder
radiograph
tone
testis
damaged
180
##viol
hypotheses
ebv
ju
tibial
iran
##benz
insufficiency
migraine
penic
multicenter
##iazep
3p
##ozoa
covered
irrevers
missing
naf
cyclo
##trained
##amily
subgroups
expert
provision
stra
##uing
abc
##ylic
##lit
deline
vp
tyr
g1
affective
tbi
##abd
compatible
microvascular
auc
caffe
lib
sequenced
subpop
##ostatin
equipment
visceral
constructs
cranial
##enteric
reproducibility
frozen
repetitive
partition
manage
cac
postpar
lamb
laboratories
offered
accordingly
##rowth
nmol
neuroendocrine
antigenic
crude
##orbent
stimulates
##erated
##aris
110
nutrients
stream
coex
mini
kappab
mercury
nick
##67
pleural
subsets
grass
1h
anesthetic
ultrasonography
grain
standing
inadequate
##ensitive
flight
tradition
worse
semic
##mg
biologically
routin
fruct
son
##allow
t4
##itous
tio
nephropathy
##pyr
takes
##entists
gad
paed
haemat
accompl
##unting
coordinated
chromatographic
smoke
psoriasis
toc
##oreg
determinant
recall
soybean
postpartum
##violet
boundary
dynam
enabling
##uretic
ultraviolet
volatile
commercially
mutagenesis
connection
cholec
##obac
amn
protects
##abine
integral
tended
##itter
mutated
registry
structurally
functionalized
advance
cadher
adding
productivity
multil
##onine
dg
##lementing
occasion
moun
continues
gained
als
##osidase
ammonia
verbal
thresholds
##unk
yr
##onical
gross
ded
gaps
pregnancies
conven
stresses
endovascular
##eptors
hierarchical
stabilized
ko
poison
multidisciplinary
proinflammatory
ammonium
dilution
surprisingly
meeting
multidrug
##brain
##irable
hyal
nemat
leukocytes
##uvate
drought
labelled
island
lineages
##urnal
anten
1a
multis
##bilical
clonal
indication
periodic
##b2
c1
limitation
habitat
parietal
code
perceptual
##fc
maize
decomposition
geographic
contacts
##aly
fn
cust
reconstruct
analogs
vm
informed
preferentially
complain
##alth
neurotransmit
window
demands
gy
unpr
ingestion
rum
##ift
imid
##ecan
tai
attract
ome
saccharomyces
##imil
fourier
proportional
##oxif
glucocorticoid
pod
impairments
exclusion
conversely
unable
cycling
##ife
nom
excitatory
##ivity
##cardi
participated
retrieval
statin
incorporating
peer
rhyth
densities
reflux
thermodynamic
quantity
summarizes
2004
mediator
##imaging
monocyte
##otropin
interd
suppresses
excluded
glomerul
gem
managing
deplet
##ylase
tea
trees
afford
reversal
boys
subcellular
matric
connections
##adv
microtubule
##olding
today
mcf
##imp
recipient
promoters
xanth
crp
papillary
##ronectin
oscillations
tryptophan
heating
aspartate
defining
resemb
genital
anatomic
moiety
contractile
province
checkpoint
dest
identifies
medicinal
extin
##ble
reflects
##ees
##x1
name
apt
repress
ligation
copolym
jejun
hyster
##cy
erg
nond
fsh
microw
biod
atherosclerotic
swim
microflu
##inates
plex
##oxicity
hsv
distric
##oli
##aldehyde
immunoreactive
inoculated
fertilization
glycerol
##enth
conductivity
erythemat
nal
addressing
##anyl
crystalline
sphing
##ele
disl
english
resusc
opin
##rogr
smart
##onv
spike
##but
)).
##inted
gfp
##ologist
nich
discrep
sole
##lyl
physicochemical
antifung
##rex
codon
striatum
abl
nitros
,"
swed
aspirin
##iers
insurance
##iefs
bdnf
bmd
amygdala
legal
hypothalamus
recycl
ganglia
##adren
##uly
replaced
prescribed
clinicopath
minimize
cationic
ses
hh
helical
titanium
discl
methodological
##tron
ccl
immunomod
neuroprotective
sampled
disulfide
spi
visits
nephr
minute
elast
##inance
overlapping
stat3
##enyl
umbilical
scenarios
lactam
##points
##ocated
%-
rodent
##odic
definitive
##onyl
accessible
##arter
build
gst
2a
pulses
sacr
##rogens
marginal
doped
thromboemb
##eption
session
specimen
##ostics
underg
explor
clock
##enzyme
sized
fibres
proteomic
kinds
df
beliefs
tin
rd
##35
multiplex
oz
trypsin
declined
##arium
bull
src
##olipid
##aryng
m1
trypan
##imid
pivotal
era
interpl
binary
conjunction
weekly
myocardium
resident
-->
##diagn
her2
apprec
hyperp
favour
gnrh
capsule
pals
quanti
##ya
augmented
dcs
dial
prescription
thrombocyt
##otactic
unstable
inputs
analgesia
proteolytic
epileptic
ibd
bw
kl
##lipid
##ifug
##o1
##acyl
naph
sustainable
schools
fused
##ophysical
ubiquitous
entr
conflict
macrom
##usp
cadherin
played
winter
apparatus
axon
sharp
##iffer
endometri
##rosion
desired
##oea
##ounding
lysosomal
learned
erythrocyte
pollen
nicotin
prolactin
cosm
prove
##m1
constituents
##eties
##arct
homozygous
bioinform
wean
glioblastoma
junctions
pollutants
microd
designs
fire
##ozo
devi
separately
ice
incid
soc
australian
allergy
manifestation
14c
government
larval
eventually
serop
modifying
proce
chemically
fifty
fluoride
oce
get
nonp
paediatric
ambulatory
scoring
myelin
chickens
##ocycl
adolescence
atmospheric
bmp
uro
neurologic
macular
##aker
mdr
##uclear
alters
##eces
intermediates
+]
dead
accounts
)),
imbal
icu
##thral
electrocardi
extremity
keep
dysregulation
##keleton
",
##a2
##graphy
phon
transplanted
contempor
built
asia
behind
dismut
downregulated
emt
##itated
seq
inoculation
dissolved
causative
isoth
energies
leaders
biologic
deterioration
vulnerability
cmv
converting
prophylactic
explanation
repeats
contrary
golgi
march
."
##tium
responding
private
##arial
##tir
gv
revision
relaps
relief
regarded
h3
##aching
2003
lesser
bayesian
##icillin
##omyel
prostatic
##extr
##psych
##c2
glycosylation
##ectomized
evaluations
nrf2
wounds
outbreaks
autops
sensitization
##entioned
ultrasonic
##glycer
corp
methionine
##39
##romagnetic
##42
catar
curcumin
ascorb
giving
allograft
##ografts
##hep
players
converg
masses
converted
serves
##68
polymeric
quench
##izer
##anese
##ococci
mot
##otroph
compartments
qol
##epithelial
volunt
classic
hdac
asked
##romycin
##amph
supernat
imag
cohorts
smad
matrices
##advant
malformations
docking
dermal
mesh
cyp2
internet
recessive
uncover
disadvant
##gt
islet
believe
interplay
deng
usual
bios
phant
2001
mk
##x2
##eled
pad
killing
evidenced
slices
held
2002
challenged
##atinum
borne
confocal
electrostatic
circuits
inherent
placenta
nadph
constitutive
kerat
dermatitis
##59
administr
vocal
distances
postmenopausal
##operation
antifungal
##ois
drivers
immunoprecip
lucifer
blotting
##otemporal
pathologies
##osides
##ragm
##ony
2020
ultrastructural
##icidal
expend
idea
surgeon
##omavirus
adenovirus
balb
##onn
transferase
neuromuscular
##atr
sediments
reproducible
dut
faces
signature
bh
##ostomy
san
dengue
parathyroid
+)-
ago
planar
symmetry
detector
vesicle
iodine
porph
##lamyd
isotope
mating
##inery
confined
interpreted
##utable
aur
judg
essentially
fp
ment
agar
joints
briefly
attempted
oncogenic
routinely
heterozygous
weakness
integrating
##illi
vestibular
pathophysiological
mixing
demonstration
noradren
chaper
extrac
turb
cardiopulmonary
intraperitoneal
obtaining
pulp
dust
chemokine
saliva
bench
spindle
taxa
germany
vast
slowly
spring
acceptance
##ophosphate
##elve
##olab
viscosity
005
##73
jak
twelve
brca
nin
theories
##ondyl
dismutase
expendit
served
##48
prosthesis
horses
covalent
italy
organized
salv
creating
bridge
cip
contractions
##opress
leucine
hypersensitivity
remove
##rogenic
deox
apnea
##66
chlamyd
analgesic
extinc
cab
peroxis
##oconstr
moderately
korean
suffer
gyrus
")
render
applicability
rodents
topic
lymphatic
pulsed
handling
##odend
sah
forced
margin
##ah
deformation
institutional
centered
synapses
posit
neutralizing
##fall
slower
organizations
##oselective
wil
echo
intended
anne
140
dup
programmed
##omere
gelatin
hyperglyc
regenerative
##gic
##copl
antipsych
distinguished
phil
transverse
canonical
1α
bases
fibronectin
compan
flag
cerebellum
trajector
priming
daw
trajectories
inhalation
##oney
##tig
splen
respondents
intraocular
##icans
crispr
gray
calves
adjunc
differs
##bow
##role
clo
reinforc
brains
killer
phospholipase
sporadic
forens
batch
sharing
esters
zones
##astin
semantic
fum
gels
traffic
neuroimaging
spatially
##iding
polysaccharide
##ifferenti
gradients
ingr
follicles
multif
##mv
mucin
influx
analyse
prospectively
views
serological
##itance
enhancer
dissolution
antidepressant
irreversible
sent
gynec
##ulator
debate
##amb
##55
polyethylene
urgent
modest
##electro
fibrinogen
fungus
returned
executive
lake
##asting
plasmodium
summer
swine
hydrochlor
catalase
excited
consuming
palsy
schw
##odec
lumen
##n2
##pons
monolayer
foss
questionnaires
particulate
tachycardia
edi
reciproc
lives
synov
cephal
##avi
immunocomp
proteasome
deletions
scin
contemporary
tong
##econd
exhibiting
##ifor
inpatient
##blastoma
reflecting
opt
##lements
conjugate
straight
globally
flank
pdgf
##ilon
adhesive
comorbidities
platinum
falc
##ods
##odontic
##obenz
job
addiction
##enstr
rely
functionality
proof
normalized
crisis
plasminogen
##avage
circumst
cone
lactic
eliminated
ber
designing
took
##inge
ka
hernia
##acrylamide
proteomics
cub
rigid
diagnostics
vertebrate
hydroxylase
disordered
norep
cochlear
anaesthesia
##olecules
##oreal
##bumin
+/
registration
overexpressed
ingred
stoch
psa
erythematosus
oocyte
##yel
selenium
displays
physiologic
nanow
leu
calculate
ecosystems
maxillary
##ielding
unex
p1
omega
norepinephrine
duodenal
##regular
stochastic
##iate
450
hallmark
firing
hydrophilic
##hepatic
consistency
prompt
institutions
road
trif
sor
oxyt
##orated
homogen
##aver
disparities
photosynthetic
attributable
ageing
##develop
trade
blockers
oxal
##uloskeletal
depleted
spir
aerosol
##stem
latin
prescrib
polyphen
traditionally
capabilities
##eries
##ido
##ermia
ejection
magnet
walls
##44
osmotic
130
##ucl
referral
episode
stationary
origins
pah
##umatic
crossl
##uent
pec
califor
irregular
completion
abnormality
competence
histologically
criterion
hemorrhagic
hydrogels
hn
pooled
accid
cyclase
disrupted
infertility
extinction
registered
chloropl
projection
spherical
invent
##esare
'.
##mp
composites
interrup
microsph
accounting
twin
trab
##erate
insects
vc
divergence
relies
undergone
retrograde
connective
representations
##otting
permit
ampk
leakage
aller
thiol
glucagon
musculoskeletal
##coplasm
caffeine
##obacillus
biomechanical
perh
##nary
taste
korea
##oate
colonies
caries
filaments
contexts
splenic
##litaxel
subd
inequ
nanocomp
tsh
ocean
hi
retinopathy
dib
butyl
impuls
lew
clinics
friend
characterised
##enem
##acycline
household
ulcers
palm
familiar
cytoskeleton
delt
##xr
apart
forensic
brach
paclitaxel
##atric
insectic
sexually
incision
schist
microwave
scaling
##oglycan
fetus
##oler
mesenteric
voluntary
##otopic
cyclospor
##esarean
##uric
inserted
repression
apolip
degenerative
interfering
exten
##agglutin
pesticides
nlr
gingival
##yroidism
bim
plaques
##lp
revealing
##va
entrop
collaboration
##69
motivation
impedance
french
luciferase
tuning
oxygenation
succin
resuscitation
lattice
zno
psychiat
arachid
ribonucle
##edema
amine
##asal
##luent
##utrition
terr
##apine
va
##psia
compact
##ussian
septal
perhaps
actively
solvents
rho
rif
qp
##opathies
ew
spermatozoa
altering
arrhythmias
bus
##urons
precon
apolipoprotein
troph
broil
pock
triggers
##opharyngeal
positron
exerts
')
biotin
split
filled
tomato
lengths
nonspecific
presumably
cholecyst
vasopress
gw
jnk
mun
dichlor
colour
##nam
differing
chimeric
##affin
##ka
assayed
##formin
june
##rotection
lncrna
hela
quadr
##erto
##onazole
##iterp
nickel
##ply
taiw
epidural
dysp
##olateral
covari
laryngeal
##while
phospho
##version
##asi
detach
##l1
##onit
behaviours
stain
fibre
endoscopy
diagnose
angles
##panic
##itization
detrim
neurof
microfluidic
##entric
facilitating
d3
rules
immunobl
trunk
stack
facult
corticosteroids
albicans
relate
genera
gf
dendr
##iesis
conjugates
cleft
##functional
bn
follicle
immobilization
##ortive
asymmetry
brady
##amidal
argue
##ysaccharides
exploratory
hygi
microv
wm
unexpl
spreading
reagents
hamster
benzene
plates
cations
burst
p21
rock
##anin
proteases
##dh
resorption
##ofacial
##urable
crohn
##tified
expanding
endocard
##ystic
ea
inactivated
##ovir
concentrated
quickly
striatal
dominated
apo
β1
##nutrition
machinery
geographical
kh
gt
moist
pyruvate
##tituted
##titude
projections
implementing
elusive
ipsilateral
##ibly
##+)
##eced
nir
##oquin
embolism
synthet
meningitis
quantities
lid
courses
##borne
titers
g2
##patients
editing
catalysts
##itating
minority
angiogenic
invari
##osensory
foundation
puber
##omial
dan
racial
##88
acin
##rogate
cfu
lic
carbox
calcification
expectations
ratings
remed
##atation
c4
lipase
attributes
vapor
cit
exec
ends
##agr
##ardial
antioxidants
cue
1999
glutamine
shunt
polys
##asp
##onym
possibilities
fetuses
125i
dihydroxy
##odi
hyperactivity
##m2
cytogenetic
verify
rationale
king
cryop
apoe
denat
primers
attenuates
synovial
lactation
##99
cpg
tof
drawn
locomotor
fel
##amino
##entary
suppressing
ordered
cow
nanotubes
skull
methoxy
scope
elective
curative
restore
fibrous
autoantibodies
##urgery
consumed
ling
medicines
semiconduc
trap
signatures
degraded
proportions
##erin
##osum
metformin
initiate
chd
routes
aware
bones
pluripotent
resili
mtdna
descriptive
perfused
antisense
111
harmful
transpar
meaningful
800
thymus
fractional
f1
retardation
psychosis
granule
sports
emg
csa
bax
evolving
dried
antihyp
##ropo
relatives
lived
guideline
mapped
facility
filling
elicit
toxins
h2o2
plasmids
illustrated
correctly
nocic
##oreceptor
counseling
##anil
surgically
fair
april
##ettes
subtil
inapp
sprague
prosthetic
sox
chemotherapeutic
faecal
tubulin
##after
nox
operational
cerebro
deploy
catalysis
##sc
individually
dawley
electrolyte
endotoxin
##ropri
priority
americans
cdk
ae
robotic
##esophageal
augmentation
bb
prp
##uding
indig
##ional
brainstem
kinematic
polymorphic
plans
##obacterial
keratinocytes
slope
salts
fell
messenger
antip
lymphomas
archae
doctors
##75
autopsy
rated
##plantation
diaphragm
hed
narr
pth
##rem
acceptor
pyrid
aro
undet
mosa
immigr
schwann
##45
##urin
##floxacin
cyl
efficac
differently
proline
tongue
gated
##ompass
##ationally
curric
title
cataract
thous
pine
ances
geometric
hepatocyte
escape
trabec
##amil
##alin
##isin
##phasic
cxcr
##pe
ether
extrap
encode
neuroblastoma
inappropri
encompass
##atinib
freshwater
incontin
##ading
pyro
committe
sector
elegans
saturated
contract
##inesterase
scarce
unfortun
italian
cough
clostr
aspergillus
immunized
##osoma
hmg
scaveng
exha
infarct
##omyelitis
tracheal
b1
scenario
phospholipids
contribut
shifted
trib
interfere
##feeding
##king
counterparts
acup
##ona
conducting
hemisphere
learn
hbs
##istrib
oligosacchar
postoperatively
aeti
##32
ix
##atite
inconsistent
semen
intellect
helper
positioning
toll
microsat
eliminate
polarity
brazilian
##opathology
##cd
##ubin
pell
blocker
highlighting
oils
##zymes
embolization
circumstances
heterologous
revascular
t2dm
lb
stretch
digestive
encephalopathy
##ohex
energe
veins
cooling
parasitic
hope
##worm
retr
##ranean
##oretic
personnel
papillomavirus
foci
reprogr
manufacturing
humoral
orders
immunosorbent
glucuron
falcip
cast
spik
bring
biosynthetic
cardiomyocytes
purs
##ena
fuel
interfaces
inversely
interactive
##obulin
detrimental
experts
photocatal
vig
oligodend
##genesis
aldosterone
##urium
ic50
##itudes
programmes
odor
mds
characterizing
pak
kary
##bone
spain
hypertherm
encapsulated
probable
bilayer
neurodevelop
burs
arrangement
coastal
underlie
propr
stratification
##obi
##tification
1980
immunocyt
passage
pretreated
termination
progressively
##acetic
collaborative
##omed
technological
sag
summarized
rescue
erythropo
##ovenous
coal
cobal
sixty
quadrup
##mission
##h1
extending
##ogeny
adipocytes
alternatives
fly
publ
falciparum
ww
suffered
disabilities
##bred
fructose
rearrangement
chemo
160
rose
intelligence
##oni
##growth
##inical
corpus
immunosuppression
falls
heavi
len
dodec
##azone
##head
##mm
002
##rost
atax
adrenoc
inventory
proteome
ductal
isomer
lowered
deleter
epic
inositol
compromised
regime
intercellular
advers
citrate
triglyceride
natri
timely
jo
deleterious
reflection
supportive
##yrene
centrifug
intracere
herbal
monte
acth
come
silico
branches
match
fdg
perp
metallic
proximity
overload
sacc
anastomosis
##azep
##62
dissemination
##illa
contaminants
newborns
##alanine
mec
tl
utilize
##95
dehydr
breakdown
##ophosphamide
debr
##d2
afferent
##omyces
deposited
##ican
vom
methan
polyacrylamide
cgm
hypoglyc
schedule
micr
1998
##uge
tat
relating
haemorrh
##quine
canadian
cauc
##unds
mediter
superv
aggression
n2
atopic
qpcr
sheet
haplotype
##irection
##oric
##dd
##urane
monomer
choline
granular
bath
poisoning
##unctiv
biot
##uterine
curv
rein
derive
seal
##hex
##ethanol
adjusting
infl
gbm
##ecific
security
unfortunately
resilience
vib
irres
away
intron
methane
bup
bcr
lf
voc
painful
tors
neo
duc
##oti
##urea
attentional
relig
mimicking
phthal
averaged
fruits
updated
sufficiently
##64
mobilization
##berg
progenitors
electroc
metrics
##inositol
subf
exosomes
synthesize
##ifier
mrsa
oncogene
##amel
menstr
helicobacter
##ortical
##aminase
##gd
segregation
flexion
genomics
primer
bub
spite
necro
alp
th1
intellectual
accommod
accumulate
military
thre
lymphocytic
thymidine
##ietin
mosaic
caucas
scc
##inement
prepare
desirable
nafld
##glycerol
dsm
##isely
limbs
##33
hap
mechanics
tpa
typing
veterans
cholangi
dystrophy
##ozyme
works
bruc
cooperative
module
glycoproteins
propensity
electroencephal
frail
e1
investigates
##ximab
sequel
diagnosing
thrombocytopenia
dot
paradox
genotyping
lncrnas
piper
nail
##mann
deacet
("
nitrite
##idone
lambda
travel
##elia
originally
terminals
consumer
##place
endoc
fuc
incontinence
originating
##xual
##plicate
##inase
substitutions
intens
##elle
electros
aq
adenoma
cyclophosphamide
radius
##etrical
##itabine
islets
##irubin
titr
nic
##opr
##ania
##ochemically
prl
generates
carefully
shortening
##ocyst
neuropsychological
lysis
vasopressin
##ishing
deposits
spondyl
syr
endometriosis
##zz
encephalitis
exerted
california
consolid
##opropyl
##ipr
versatile
indirectly
virtually
papers
bv
osteosarcoma
pka
##omethyl
cytosol
distinctive
##obarb
adoption
allergen
carlo
geometr
iq
neuropathic
talk
##ativity
differentiating
analytic
parac
##inyl
amorph
interm
district
cass
meanwhile
poorer
abortion
shapes
confirming
coexist
cup
attend
amongst
ophthalm
##inator
neoplasia
disseminated
integrate
##transl
##igenic
##rep
##estr
oxytocin
hold
imbalance
explores
##mcs
determines
obstac
mag
dextr
mpa
folate
venom
sigma
##ux
spanish
freezing
adsorbed
##ua
##5a
##ky
nanofib
periodon
synthetase
anesthetized
cds
##chol
luminal
mediterranean
droplets
dft
hyperglycemia
ensemb
que
acetylation
))(
discriminate
desorption
imprin
ik
fda
##luoro
personalized
platforms
duplex
trimester
heterod
##oxane
pw
reasonable
deduc
##ersonal
tailored
polarized
loads
pacing
neurodegeneration
habits
distor
attacks
possesses
##arinic
##fo
cd34
july
splice
configur
creation
kept
fb
divergent
1995
##hedral
acceleration
compensation
tightly
##gluc
feel
irrespective
uterus
##ipped
pose
delays
germline
##ibrill
reacted
cannabis
exponential
helps
ultraf
neuroc
duplication
##erver
##lv
dots
happ
mabs
amide
descending
ash
apc
breastfeeding
th2
##rexate
1997
phagocytosis
##yrate
simplex
##ocryst
strengths
stressors
niche
##ophilus
copies
segmental
drink
publication
serotype
cultivation
beads
scientists
epidemiologic
cha
inversion
colloidal
battery
vomiting
benzyl
vasoconstr
##glut
crops
sensitized
indicative
cytology
radiographs
realistic
backbone
esophagus
cerebrovascular
.).
computerized
dpp
publications
ceramic
worm
##77
los
##aid
##2b
empt
osteogenic
##albumin
telomere
germination
postsynaptic
##noid
phantom
prednis
reality
carbonyl
##ipping
complaints
sav
breaks
submitted
erk1
broader
temporary
##yne
taxonomic
polycl
page
icp
iu
hop
france
##osom
chap
##otropy
suicidal
recycling
hypertrophic
##ulas
groundwater
immunost
stimulatory
##ience
##anz
eleven
bank
spent
began
##ersion
##nd
monkey
journal
##optera
cou
vertebrates
hcg
bottom
vill
oxy
tlr4
train
##ographically
inhaled
manganese
##arynx
consumers
##aced
whil
##adium
stock
intramuscular
##ocortical
expensive
gag
initiating
conditional
r2
continuing
fulf
planned
ngf
ineffective
provider
chronically
visit
intersp
histidine
inos
ie
sexes
##traumatic
whilst
mentioned
intensities
neurotrophic
tot
##bir
aggregate
microbes
diphenyl
reagent
employment
balanced
xenopus
detox
biofilms
##ipt
develops
micelles
##etics
ign
retinoic
oligonucleotide
sheath
cytomegal
##imes
thereafter
sweet
clinician
aluminum
##ulsions
msc
##osamine
inappropriate
##ethylation
intrauterine
##v1
µm
lean
##ustion
suggestive
weakly
emphasize
entropy
hydrocarbons
vl
ord
rising
vibration
##piratory
##ivariate
transpl
pten
##otrexate
prey
hybrids
bid
killed
sorting
##orem
ulcerative
dyes
enamel
##58
##31
mismatch
microspheres
hct
mexico
livers
1996
tolerant
caroten
bsa
vanc
hypotension
boundaries
ri
##orin
deformity
salinity
depolarization
postural
occip
triaz
varic
drying
adducts
##gma
##eted
microl
actually
sparse
##umb
choices
2b
##rio
##opyran
endothelin
crosso
accomplished
precisely
##xa
immunoprecipitation
entities
([
eh
##etine
##ober
supram
methotrexate
elab
boy
maca
reprogramm
seedlings
##ritin
accessory
reconstructed
phenol
excitability
aberrations
antihypert
poul
incomp
##ectory
epsilon
##band
polypeptides
habitats
constitutes
##orbol
adequately
unco
perforation
fractionation
coordinate
fh
##ullary
amorphous
iter
trajectory
screw
deterg
covering
reactor
##je
hypothesize
enteric
##orporeal
##inoid
microtubules
expenditure
emo
##51
immunoassay
hydrochloride
##tide
##acrylate
##oflav
gallbl
##ophilia
allocation
adenine
##ball
crow
nif
attain
interfacial
##xia
bioinformatics
vasculature
101
##onitrile
cytomegalovirus
fitting
spray
attending
aggr
ff
glp
hole
##iles
##4a
introducing
##kinin
dielectric
stratified
card
rearrangements
physi
##ita
fingerpr
##juvant
lessons
noct
scinti
interventional
nanoscale
stone
##istribution
revised
absorbed
contextual
potentiation
dysph
notion
polyclonal
interne
cooperation
##orac
fid
resected
ecl
pathogenicity
carbam
trache
electrophoretic
##iella
sciences
rotational
bundle
acs
attracted
palmit
angioplasty
plateau
methodologies
vaccinated
dimers
transcribed
gsk
taiwan
perturbation
cck
ftir
##onomous
plexus
mcp
overexpressing
lept
alloster
hypog
protecting
brought
##thy
topological
seemed
1b
conflicting
##nes
##atectomy
rapamycin
mining
##icip
##ichi
##cranial
indigenous
transcriptase
##lipidemia
thio
ozone
biogenesis
insensitive
pars
tele
pacem
##timal
competing
##utely
broadly
carboxy
##oresist
##cm
trail
solitary
nanocryst
corticosterone
quantifying
suture
pge2
cil
pahs
##andibular
reperto
calmod
beef
committee
##oxifen
1994
hinder
neurotransmitter
rights
femur
##achlor
cleaved
##ulture
cxcl
acuity
participating
driver
inference
abd
presentations
diver
crf
##-)
##iversity
intramolecular
##uling
revascularization
##oking
##ushing
potato
reliably
malformation
terat
experiencing
amput
arms
ldh
metalloproteinase
union
gallbladder
##vive
##49
illumin
natriuretic
##oneph
zik
cuff
thrombus
prescribing
moisture
##rolase
impairs
patches
performances
##oke
##cetin
intrap
veterinary
angular
##restr
##tinib
invest
##itten
angina
ketamine
##anding
##rological
farms
intubation
##47
calmodulin
##g1
vt
##eptidase
pacific
lactobacillus
osteoclast
##ills
loops
assistance
dens
centres
stake
captured
assumptions
convenient
vip
ecology
indometh
penicillin
acetic
pyramidal
##ilis
##abular
neighborhood
##opher
caudal
orthop
zeal
##astric
modeled
arteriovenous
##irectional
discipl
pocket
simply
##itt
hands
breed
##izable
mad
indomethacin
tubes
dextran
granulocyte
##iently
warranted
radioimmun
rsv
##fulness
pharmacologic
indole
quer
##36
combine
##oderma
phosphatidylinositol
##mscs
september
responders
reserve
##iders
neurogenesis
##oadjuvant
amylase
filters
autonomous
integrative
##iated
lymphoblastic
municip
intran
incorporate
##hum
libraries
##otics
zealand
erad
morbid
raise
##echnology
##illing
persisted
##ap1
subtilis
die
neoadjuvant
##jug
##onectin
appl
##odextr
adenomas
mesoth
##enoid
##atization
mutational
1992
##uran
multifunctional
mps
##o4
scd
pubmed
nanostructures
hematological
malnutrition
fent
nationwide
stigma
modules
wider
aki
##omies
##ynchron
morphogenesis
bbb
vegetation
hsa
supplements
105
##clim
calf
hygiene
crossover
avoiding
##ermic
##quis
positivity
unid
antihypertensive
collective
configurations
spots
hat
nodal
modulus
keto
beta1
monolayers
microsatellite
##ova
survived
couples
intravascular
selecting
cea
comprises
gent
##tebr
survive
stents
##ji
##infected
##yric
##atrol
##ouracil
unp
parenteral
rnase
emotions
endocytosis
wrist
fifth
efficacious
myocytes
immunogenicity
bromide
vulg
geriatric
##imidine
##pi
disappeared
intrath
organelles
gradual
rm
jaw
whereby
rhythms
periodontitis
primates
ut
october
cultivars
##arach
gonadotropin
departments
arachidonic
simulate
quantitation
##oidosis
##cein
tracer
underestim
generic
chlorophyll
bolus
##veratrol
##graduate
counting
acl
ethnicity
noncoding
physically
psychometric
hepg2
carc
eif
faculty
preferential
##agia
hsp70
sequelae
1993
agglutin
political
organizational
regurg
vinyl
theta
##ughter
lipoproteins
transcranial
accident
stroma
eligible
freeze
surrogate
biodiversity
subtle
pharmacodynamic
##health
oxidant
initiative
dv
airways
facile
cyclooxygenase
cobalt
heterozyg
internalization
monotherapy
histopathology
preec
soon
promp
ctl
unlik
note
rbc
mutual
solely
alloy
biased
##78
superfamily
constitutively
##hi
##imide
intrad
removing
sickle
frog
ja
intravenously
triggering
##requency
unlikely
optimizing
ee
satellite
negligible
##oactive
neurotoxicity
subpopulations
##romic
extracorporeal
projects
epidermis
vibrational
kil
master
##//
pom
##rely
effusion
hydration
terrestr
ok
entirely
attitude
osa
nn
barr
synchronous
tunnel
simplified
synapt
beds
opinion
muscarinic
reciprocal
suppressive
resveratrol
ovari
confirmation
##umental
##akers
transloc
orf
threonine
chondrocytes
indoor
conformations
##itonin
friendly
sew
malt
salvage
immunomodulatory
##enoic
successive
##ocaine
compositions
poultry
postulated
impacted
##iest
leishmania
##olism
##oxidase
engage
slc
dispersal
##uled
subclinical
://
concerned
isomers
stakehol
dere
##ortem
anticoagulation
posttraumatic
tablets
nap
ran
##iguous
floor
illnesses
investigators
girl
adam
utr
asthm
dislocation
viewed
fen
lavage
constric
clostridium
##aric
vw
benchmark
##r2
##onuclease
spaces
pesticide
sto
hunting
isop
sedation
reinforcement
linker
welf
polysaccharides
vent
rcc
##ece
compensatory
cgmp
comment
metaph
1991
-/-
tolerability
##infection
accelerate
##ilized
conjugation
##01
consent
allelic
welfare
voice
##artan
proposes
##regn
##edicine
roll
participant
swimming
##idi
sided
noradrenaline
##cell
hpa
lifesp
##mo
chemokines
xenograft
von
uncont
cryopres
##thetic
tetrahydro
stressed
accumulating
clinicopathological
aba
##tip
##flex
problematic
orn
##otyped
glycemic
preceding
anticoagulant
polyn
inability
locom
ataxia
pem
pde
style
tamoxifen
anions
pci
tubules
##urt
diffus
infancy
branched
##omatosis
alph
##umination
dispersed
latest
strongest
zo
implies
weaning
haplotypes
hid
hispanic
generations
##98
##pd
##120
vancomycin
pbs
toxoplasm
nause
warf
litter
radioactive
table
ferritin
neurosci
catheters
danger
agency
acupuncture
##omide
islands
somatosensory
appra
yielding
office
accessibility
unn
forear
##amen
adaptations
copolymer
##oreact
carcass
washing
b2
##anic
addresses
rnai
robustness
comorbidity
gains
multimodal
dedic
dodecyl
##oprotective
hazards
deficiencies
##qol
neuroph
resolve
searched
exploited
##ymethyl
nucleoside
bioch
electromy
flavonoids
presynaptic
thalass
clustered
medicare
nausea
##anus
##1b
expir
##rolimus
lymphaden
adiponectin
texture
##idol
quenching
##alg
spatiotemporal
alginate
ca1
bright
decompression
triglycerides
infused
electromagnetic
##yb
tunable
##produc
scalp
trigem
holl
##empl
##amn
desm
##itid
maze
##imension
pon
nude
##alently
morphologic
curriculum
##partic
##ostr
interpersonal
honey
##ucleotide
reorgan
##del
##epsin
occasionally
tons
deaf
dilatation
microglial
steel
abiotic
diethyl
microbiological
##ensable
menstrual
##yan
##aliana
microstructure
microsomal
pater
kingdom
##lat
##uns
sacrific
dilated
##ylene
outline
##iomy
thaliana
neovascular
confirms
##oge
quasi
photosynthesis
typhim
properly
tang
##erum
##unctional
resultant
analytes
reactivation
tensile
unfav
topics
##ositis
##ofol
exons
primate
##aceous
tuber
nigr
##rophot
meningi
##tise
sorption
camera
cave
typhimurium
turkey
##aryl
york
manifested
##ritis
imply
unw
sput
##olys
redund
##orax
##eliac
pharmacology
dha
ligase
##orylation
1beta
ascertain
##549
##incter
hyperm
radioactivity
lifespan
##l2
analogous
mdd
prototype
ascites
##ecess
##wards
telomerase
regulations
foam
dedicated
##irs
microgram
##okinase
coherent
reform
sj
wake
##ofen
##ognitive
drastic
lever
circulatory
modulators
somewh
##ophores
normalization
agn
medullary
biphasic
neurodevelopmental
##dynamic
##oracic
lignin
gar
abrog
##elastic
reprogramming
capacities
overd
thromboembolism
equine
chapter
paid
corticosteroid
ascending
sugars
##41
hcl
biocompatibility
misc
discharged
##osm
##odiazep
##ochlor
##93
##ocysts
attenuate
linearly
anisotropy
replace
phi
eradication
august
bk
hyperch
scavenging
##urf
trust
##ocysteine
e3
accordance
written
aligned
tocopher
chance
dominance
myofib
creatine
131
electrons
##opoiesis
sut
rej
##anolol
cytoskeletal
microsomes
unpreced
transpos
##rotomy
theoretically
galactose
outflow
thinking
##idge
inheritance
terrestrial
##room
engaged
casein
##udi
proliferating
leukaemia
cotton
seques
instrumental
vacuum
orthopa
nasopharyngeal
##ofrequency
##thrombin
ich
cities
nanomaterials
restrain
unprecedented
gond
##acterium
pma
rotavirus
soph
directional
qs
##oflurane
hypothermia
singlet
##rist
infras
cll
deviations
columns
preserving
123
##oal
##000
methicillin
glycolysis
totally
##ulins
mich
rigorous
necessity
perturbations
homes
ws
cooper
neighb
##odom
##umps
methyltransferase
gastroenter
longev
##han
kcal
reass
formulated
cryp
insol
oligonucleotides
refractive
opioids
proteolysis
astroc
##ifferentiated
somatostatin
amy
##therap
frameworks
##aa
leukemic
physiologically
ischaemic
synucle
##phenol
sparing
##olith
##46
radiofrequency
volumetric
heavily
abdomen
consultation
permits
quercetin
)=
multip
conjunctiv
county
##ogaster
##ieties
radiolab
propofol
paf
macroscopic
##ulent
##eptic
tx
##71
##bling
##esus
condensation
##ei
approximation
implicit
effluent
palate
comprise
acquire
anomalous
cong
ancient
lamina
intoler
associate
pcs
dentin
catabol
crystallization
allosteric
##vastatin
##ubs
##agonal
003
longevity
thrombotic
thymic
exceeded
distinguishing
endocarditis
poses
mitosis
claims
synuclein
phorbol
format
swallow
illumination
chitin
prere
pools
spectrophot
realized
##inities
advoc
osteoblast
instances
teams
psychotic
antin
orbit
##aign
c6
neutrop
forearm
pmol
monocyt
desens
##imensional
solve
stabilizing
wing
cw
iliac
prok
biophysical
occipital
##isal
elemental
##actone
oxo
##orum
england
bilirubin
bad
transgene
plots
##ussis
hematoma
propranolol
somewhat
a549
ribosome
branching
hit
##osphere
enlargement
##ortal
hemolytic
vasculitis
combines
gvhd
flood
rhabd
newer
regurgitation
sulfide
bpa
workplace
undes
modular
resembl
mitigate
definitions
borderline
atlantic
##idym
transducer
specialist
combat
##vation
themes
fifteen
unr
1988
orthodontic
campaign
anionic
(-)-
##urc
fibrils
equival
osteoblasts
lysozyme
skeleton
##52
stepwise
music
##eous
hern
hamper
##itate
spiral
phenylalanine
rays
starvation
ethics
immunostaining
solving
radion
##iber
pir
neuropeptide
##nitine
conve
bag
supramolecular
##ievement
##diagnosed
benzodiazep
buc
##omorphic
##opy
subarach
trapping
icd
beet
grating
##oreceptors
stoichi
proteinuria
offic
trigeminal
##eld
rheumatic
visualized
morning
morphologically
mumol
amines
parenting
bcg
perip
labelling
avoided
deduced
##li
phosphodies
hydrocarbon
bending
moral
pas
##lampsia
microp
repertoire
methylene
antipsychotic
108
schemes
navigation
transferrin
tear
continuum
##onephritis
gliomas
preeclampsia
##apatite
mineralization
els
bonded
acidosis
scf
arousal
##oxia
s100
regularly
monomers
cas9
hydroxyp
sedentary
rdna
##izers
npc
##traction
##imotor
achievement
flies
replicate
covalently
lister
anomaly
##ulants
silk
infiltrating
victims
rhesus
epididym
endurance
sphincter
##ker
aven
strip
dq
titer
joh
cyclodextr
artifacts
##atheter
##omnia
##iab
##ilar
digestib
plasmon
prion
kle
polycystic
laminin
addi
edta
##ulic
specified
pharmacy
nicotinic
aiming
oligomer
vitre
glucocorticoids
constrained
encapsulation
echocardiographic
amplitudes
##uan
##afen
programming
nadh
pertussis
horn
deeper
postmortem
106
overt
pyridine
juice
cml
##rofloxacin
##alis
game
basement
##olk
fitted
antiserum
nocturnal
mg2
patterning
leadership
seropos
cbf
inspired
##72
packing
cutting
diameters
salic
guanine
photodynamic
##itinib
illustrates
pmn
##edes
##atil
##erine
unsaturated
##ket
##agl
cultivated
##olation
elbow
uve
##79
emulsion
nu
touch
##oelectric
narrative
receiver
unnecess
capital
ascorbic
subarachnoid
moieties
amniotic
##ulae
nigeria
dependency
axillary
necessarily
h3k
eigh
depended
disab
##vem
parenchym
carboxylic
carbohydrates
custom
102
cholest
trav
vr
erythroid
anter
sma
answer
pdt
myx
parasit
feb
npy
degrading
chromium
tolu
##chool
##ophenyl
efficiencies
fk
retain
calp
melanogaster
mucus
arrhythmia
##inflammation
housing
capill
cadaver
##enders
curvature
brush
osteotomy
parametric
photosens
radionucl
##inia
seminal
zoon
hemodynamics
gate
seventy
menisc
coat
drives
vegetables
triphosphate
##ilum
thalamus
##estock
clade
neutralization
fluorouracil
instance
arises
##tz
gabaergic
##amid
##pray
livestock
algae
facing
locomotion
scann
##onymous
silent
polyd
detachment
superc
motone
clients
parv
board
##cg
##amides
gondii
lewis
stones
ache
##eles
##odyn
harvesting
goats
1989
monocytogenes
duoden
radiology
hematologic
presumed
##atology
transiently
febr
warming
hyperthermia
symmetric
antipl
undergoes
robot
flor
sensorimotor
##adm
ingredients
teachers
topology
pcl
contraceptive
##ittal
hypercholesterol
hox
wire
allerg
extens
legis
##rophin
neutron
vibrio
innervation
cing
safely
liquids
##relin
admissions
atmosphere
eukaryotes
mek
oligomers
thaw
##iaceae
mirror
oblig
paraffin
##amers
acclim
mtt
##life
.),
effectors
endpoints
##axial
.]
cesarean
necrotic
flaps
invertebr
##iii
##vix
gaussian
hypothyroidism
##orn
odont
aav
grafted
amen
ease
sativ
##ariable
commitment
categorized
ahr
##oste
disk
chemot
collateral
trabecular
##enn
suspended
lamp
statins
hv
brca1
##uronic
##roch
harvested
anore
mycoplasm
ky
compromise
immunologic
preschool
missense
ll
comfort
synchronization
collecting
urethral
cathepsin
consciousness
varieties
euth
transported
biosensor
ug
gpcr
dynamical
penetrating
eph
cel
sulphate
huge
##ovsk
lacks
ensemble
##tured
##oprote
##61
medias
expertise
controversy
sarcoidosis
collapse
modulator
chloroplast
##house
infrequ
melting
layered
percentages
biodegradable
##eas
implantable
pax
accidents
erbb
infective
export
multifactor
filtering
paralysis
gaz
f2
fv
vena
##bp1
measles
cofactor
sterile
perfect
cd44
cosmetic
warfarin
pyrrol
plot
##tructured
ami
flows
arbitr
sport
aga
pgf
##istan
episodic
orthopaedic
suggestions
coatings
relapsed
##iff
vesicular
codes
discontinuation
preserve
cruciate
chaperone
metabolomics
lich
pneumococcal
##ama
japonic
mediastinal
horse
accompanying
##eland
hen
aided
vox
##amicin
3t3
suited
mannose
contractility
frailty
##ger
##rotid
bever
##hp
##ault
sla
february
gins
hemangi
peroxisome
ppi
nl
periv
partnership
printing
classify
capsid
htlv
transplants
medulla
##drug
virulent
epinephrine
graded
epstein
employees
printed
##iled
leiomy
delivering
raising
freed
progeny
emphasized
##ionate
##ogether
##insulin
sentin
diseased
competent
##ewise
automatically
##elic
convergence
pacemaker
tensor
##lofen
cage
altogether
transcriptomic
pix
##ogroup
##uistic
decarboxyl
outgrowth
infusions
radioimmuno
snr
aetiology
opportunistic
plaus
ultimate
##oglycans
##riting
##ower
+.
pauc
corresponds
hypo
1987
agriculture
tar
confounding
parenchyma
revolution
formalin
doi
spanning
lutein
nodule
maldi
definite
vd
reticul
psychiatry
affinities
disrupt
humidity
sheets
##oto
deleted
trophic
retroper
##iana
devast
igfbp
brachial
histocompatibility
wir
inexp
##otri
metac
##entic
##itum
104
extremities
explaining
hfd
bod
toxicities
##atelet
irrigation
acceptability
bari
tagged
alternate
faced
supernatant
insoluble
crest
silicone
informative
##yrib
ghrelin
barley
patent
proteinase
twins
chl
naphth
##enium
##imetic
##opolym
##oproliferative
subop
glucan
catheterization
raises
autoimmunity
cuc
explains
repub
##ancing
##vern
µg
failures
aminotransferase
##itamin
inflammasome
grouped
crack
tert
excised
((
##kes
uric
doctor
obstetric
dissip
triplet
siblings
piglets
##aches
##uple
federal
##assays
##e1
##etite
alleviate
sigm
##yles
gating
pyrene
##oct
implication
confers
suitability
##atable
nematode
##itish
emerge
##elioma
cellul
vulgaris
flowering
belongs
##plicating
##eic
##cycl
expectancy
extends
hens
calibr
##elity
unnecessary
monophosphate
dbs
echin
boost
insomnia
##erved
electrospray
firstly
hept
##ptosis
suspensions
icam
##orate
biases
##oker
pai
##oted
originated
divertic
##odem
herbiv
intermolecular
##icide
residential
##oxetine
##cholinesterase
transd
psychology
hollow
dith
interl
1alpha
evs
ecs
telem
playing
straw
evaluates
detergent
aggrav
##olipids
mci
lox
##forward
secreting
innovation
replicated
consor
republic
amphetamine
##yll
disin
normot
alkaloids
neuropsychiatric
pores
cervix
enlarged
nanor
##ishes
afm
exclusive
ovulation
prokary
grading
##aling
##oluminescence
alternatively
sciatic
braf
3a
nether
pcb
suspic
anthropogenic
##aind
nep
methylated
##uinal
##ogonal
destabil
##ilin
tetracycline
ritu
novem
surviving
tonic
stores
ethi
103
carcinogenic
packed
2h
inverted
##aterally
treg
precondition
prerequis
neurob
##udin
predisposition
renewal
closer
surround
hemip
ticks
flanking
nev
##uod
serotypes
advice
acutely
selectin
hypoglycemia
##nic
surveyed
##ocarb
##otocin
##lyca
approximate
olive
##oxication
recognizing
partitioning
nanowires
cet
altitude
epo
grew
eosinophils
scol
diaz
nose
sad
metam
septum
syncy
mca
univariate
chemoradi
eosinophilic
##andial
mimics
bridging
esi
##acaine
periphery
valv
lenses
##ankton
adopt
oest
rituximab
pun
myot
disposition
chicks
##enses
histopathologic
bariatric
##anch
convert
##yday
multifactorial
regimes
transcatheter
november
nih
cryo
rms
endoph
##rology
mtx
1986
##iov
pie
inexpensive
240
calls
translated
begin
intoxication
career
stabilize
speciation
cavern
everyday
purity
donation
pups
mari
mountain
dependently
nested
##aca
responsibility
spores
neighboring
worksh
pcos
tremor
dilation
concentrate
testes
scintigraphy
ken
packaging
##ara
nalox
shoot
##6a
700
qtl
128
##icious
adrenoceptor
setup
atg
##therapy
anticipated
hetero
mechanically
##iltration
netherlands
inferred
postin
##idia
disappearance
appropriately
broiler
##osexual
monomeric
mandatory
grains
valves
assignment
treadm
##hem
ks
cyclosporine
##optic
vap
##ocic
spong
alternating
individualized
suspicion
initiatives
##oviruses
##gestive
bactericidal
corresponded
jump
suboptimal
1985
hsp90
##inous
aux
intrig
129
paste
ej
##param
assemblies
weigh
##inescent
dichro
extrav
##acheal
prime
disadvantages
##..
uroth
leishmaniasis
##grp
preceded
##ago
rpe
encouraging
sweden
unm
semiconductor
cava
maximize
ics
exceeding
characters
##ychlor
##uzumab
caucasian
grades
spirit
##f4
cigarettes
thalamic
devastating
distinction
weaker
roc
operate
##ney
emitting
basin
inhab
uncontrolled
1d
bill
##edullary
##otoxins
##bound
benzo
anaemia
submuc
psychopathology
parox
##ordant
sentinel
##arate
documentation
gg
sounds
##adec
willing
periton
confound
stereotactic
encourage
##orable
tio2
##opharm
qualitatively
grand
##tii
subcortical
fibrotic
extrinsic
undersc
shifting
biomaterials
probing
##dc
polyuns
##olia
fluores
richness
potentiated
flash
granulosa
gath
##uspid
c5
amyloidosis
neuroinflammation
specialists
190
sophistic
transit
clarified
displaying
prostheses
##ris
puberty
spastic
cyp3a
monthly
##3b
##ano
embryogenesis
##aterial
supers
antidepressants
##dv
polyps
forebrain
trout
leaving
compares
minimizing
pecul
distortion
consolidation
ensuring
meiotic
##obarbital
kir
tracts
permeation
enrol
ciprofloxacin
rhinitis
synapse
coff
##amate
stenting
cured
lambs
anapl
naloxone
subl
interconn
protr
nucleation
perfor
kv
advancement
bifurc
escal
holds
operator
##ique
isometric
hydroxyapatite
interneurons
british
undergraduate
ischaemia
expiratory
##cnac
repressor
lg
entered
possessed
dereg
abeta
civ
##amphetamine
homogeneity
thousands
fidelity
discrimin
unexpectedly
##agglutinin
boron
streptoz
judged
disturbed
cohes
concre
string
prodrug
micropartic
cpp
hamsters
febrile
cruz
margins
yolk
bulb
chimer
atlas
##obs
##iling
pha
polyunsaturated
primed
undifferentiated
treadmill
adherent
uncon
intakes
##hydrop
sagittal
alf
funding
intracerebral
comprehension
tal
package
microcirc
##istine
isopro
viii
neurones
bony
peculiar
##etts
conce
##iesc
##plicity
pam
##roportion
defibrill
##operoxidase
lot
detoxification
neglected
emergent
antisera
colocal
zyg
literacy
residence
bicarb
harboring
##acetate
##acs
shedding
ali
##ldl
beams
##athyroidism
elucidation
discrepancy
you
thickening
peritonitis
freedom
dendrites
##itch
outd
oligosaccharides
mcl
intriguing
approval
implying
##97
stably
carnitine
maturity
dehydration
##calc
cholecystectomy
##ailand
##tivities
##timulation
offering
p16
eighty
posture
exud
bioreact
##1r
endometrium
lidocaine
catalyzes
discom
exercises
morphometric
thailand
hbsag
plc
##ander
##oxal
congr
caring
amputation
epi
freely
exempl
erosion
auxin
depolar
annotation
transparent
huv
ivf
genotoxic
tocopherol
centrifugation
ecc
slice
##esthetic
lactamase
notable
##osperm
labour
crt
gata
dopa
tablet
##ourse
recap
hidden
campyl
##ju
harmonic
##iper
saudi
enos
stool
parp
brd
vehicles
gonadal
ptx
velocities
keeping
##itre
radiography
polycyclic
##erents
##acylglycerol
cock
tips
fourteen
wine
##rp
obsc
##uminal
homocysteine
upr
sewage
agencies
controll
vo2
neurocognitive
disrupting
sister
migratory
##icile
lex
pull
##acute
collect
orange
shut
contrasting
ovaries
##son
portable
eat
mur
##enone
disproportion
sides
145
##ypsin
quiesc
##aicin
##oter
231
dealing
guar
##itized
hrv
retrieved
globulin
scored
ileum
ih
m3
115
118
hysterectomy
004
atrop
amphiph
##oresistance
caution
gentamicin
##ypti
nlrp3
crosslink
antiproliferative
ica
bicarbonate
dentate
ionizing
phosphatidylcholine
circumference
enterobacter
phylogeny
photonic
declines
##olor
mesopor
conception
alcohols
metagen
topois
erythropoietin
campylobacter
titration
engr
stakeholders
sert
tactile
toxicological
h2o
graz
##inol
earliest
recre
##trate
fluoro
tether
##lysis
bird
##rops
hydrodynamic
environmentally
##ialdehyde
mosquitoes
win
opposed
hydrolys
assimil
mexican
allergens
missed
decid
350
religious
spacer
nephrectomy
teg
reinforced
##ifies
fec
subsp
antenatal
pfc
avp
landmark
chlamydia
##rect
antagonism
broth
stretching
##tebral
probiotic
brachy
econom
##ulinum
bg
ideas
210
prostatectomy
firm
swedish
b6
discomfort
interdisciplinary
##urate
##odermal
amyotrophic
perovsk
dressing
##zer
109
gemc
lumin
repeatedly
collision
170
ribose
substitute
##nar
##apenem
infectivity
carbonate
doping
adenylate
aldehyde
spectrometer
biop
capsaicin
observer
imper
##imentin
epr
##remia
creb
valence
orthopedic
dichroism
pter
zeta
capillaries
vte
plei
surgeries
recon
topography
computing
paradig
caregiver
##phos
kras
chrys
107
catch
tv
brass
multidimensional
convolution
hydra
photocatalytic
##icate
destro
crash
tomographic
gps
activators
troponin
reorganization
paradigms
blunt
verap
##ophylline
unev
chemop
##azolium
##hes
parotid
vimentin
adduct
h1n1
decarboxylase
hsc
dipole
circr
asthmatic
gastrectomy
elution
isra
managers
cingulate
##burg
micropl
shaping
raf
outper
##electron
infrastructure
##best
verapamil
difficile
gemcitabine
concordance
deph
dutch
refined
likewise
radioimmunoassay
diurnal
puncture
##oxins
vagal
accr
th17
mesoporous
midw
##uents
burns
##aved
##1a1
iop
infan
##ythmic
antagonistic
plain
)](
endpoint
##arity
friction
coenzyme
prospects
##ocol
##ellate
fluxes
dysphagia
ink
rabies
tracing
h7
neuroscience
computation
exacerbation
anthocyan
##using
frames
descriptions
indexes
trimethyl
1r
virg
rl
laparotomy
mandible
rick
cftr
##erating
c18
pelvis
nodular
norms
arthroscopic
bev
streptozotocin
dilem
anorexia
filamentous
hydrocephal
immunocomprom
##iax
##tillation
twist
gangli
facilitation
fluorescein
##at1
calcitonin
##uli
nociceptive
sorb
ubiquitination
portions
seasons
##cript
reconstituted
seconds
han
hub
oscillatory
##alcoh
congestive
ileal
##thermal
compulsive
ciliary
parap
hsct
psychotherapy
procedural
##ocele
lactose
batteries
##att
##orrhiz
normotensive
sensation
contour
corrosion
splitting
radiologic
piez
s2
looking
cotrans
biocomp
displaced
characterisation
##othorax
stems
intrahepatic
cxcr4
fev
lies
##opsin
##force
iodide
##ivacaine
immunogenic
solute
##utation
khz
transportation
evolve
noneth
memories
tow
incremental
postpr
anaphyl
arf
births
vegetable
155
##ima
glycan
nonetheless
damp
solved
actu
electrosp
rescued
deuter
steatosis
torque
incorrect
13c
orthogonal
forests
inguinal
##tera
oryz
haemorrhage
carries
tuned
gravity
##ocytoma
posttrans
corrob
cyclodextrin
xrd
arabin
t2d
##athers
surfactants
searching
##list
strictly
amd
##absorption
gib
narc
nosoc
primitive
subclass
grid
sedimentation
##odia
flo
transformations
acetonitrile
cloud
##transferases
##amol
sixteen
haemoglobin
myo
1970
plga
##asth
116
agree
intercal
progressed
##orphic
bisphosph
antiplatelet
lu
cd11
nephrot
##urn
tubule
worsening
##rofen
hgf
klebs
sophisticated
cocc
hns
coral
##osecond
choroidal
foster
considers
glutamic
coum
thirteen
trypanosoma
##afenib
webs
mep
##imeter
constituent
existed
histories
penile
writing
advancing
126
##viruses
cd40
streptomyces
##ifera
biochemistry
strategic
##okes
ssc
##onge
stressful
fails
hus
scn
teleph
aun
vitr
cpt
instrumentation
gaze
h4
discussions
repetition
##ificant
##aids
chir
hydrophob
##iens
##py
##birth
synt
microin
seaw
ova
solids
neurite
esc
transitional
sputum
coffee
anisotropic
##aminidase
nosocomial
digit
outlined
ebp
##odemographic
gtpase
anthropometric
consequent
macroc
defence
saharan
overlo
##ifers
uniformly
shig
energetic
adiposity
baby
immunocompromised
hydrolase
137
sirt1
palp
laws
##c3
listeria
hrqol
diploid
##know
reconstitution
intolerance
standardization
stap
histi
##transform
wed
##ithromycin
destructive
paternal
ore
##vel
psi
##inone
enk
globin
purine
##tizing
combinator
assuming
multin
feces
harmon
autoradi
governing
adjunct
asa
##opause
prompted
##astr
independence
cruzi
##olol
anhydr
manus
cutoff
##idus
hes
sbp
##minth
+),
##uber
##rogl
##ignificant
adher
scoliosis
iat
laryng
sociodemographic
crown
pfs
##amins
pest
underp
paucity
cm2
grey
triang
##oalveolar
climatic
gases
centrom
recurrences
sit
biochar
klebsiella
operon
pitch
ltp
ye
immunoblotting
shortened
adipocyte
erp
agreed
babies
thiaz
##odys
##izz
dysregulated
##stalk
tibia
##nm
choose
favourable
concrete
squares
adversely
##rna
angiographic
productive
##ovi
phosphoryl
inducer
lytic
utilizes
pher
satur
additives
nonm
oxides
myof
microns
##nac
compressive
##t2
medline
mip
oesophageal
##ocarcinomas
nigra
##berry
addic
dap
bundles
patency
bread
##epile
plasmonic
delir
imposed
historically
herpesvirus
afferents
mycoplasma
wb
chemotaxis
##onergic
octa
##illed
flower
##net
counteract
instruction
xenografts
viet
abstin
phosphodiesterase
localize
ou
vii
crossing
resis
orch
psycho
manipulated
jur
conductive
sonic
associates
drawing
guiding
advent
belief
imagery
mets
perine
acetylcholinesterase
excluding
postprandial
cope
unfavorable
pcp
medically
catecholamine
##bens
parenchymal
##rov
retroperitoneal
h5
uninfected
135
luminescence
participates
gpr
mhz
cylind
hundreds
##etent
ez
maintains
serving
htt
cavi
##ynch
midline
costly
##issive
harvest
glycans
.-
couple
sphere
farmers
l2
corrects
oestr
proposal
ocd
waiting
measurable
##allic
crosstalk
##ectile
coagul
compatibility
conne
indisp
##icked
kinematics
malays
wavegu
nanocrystals
ards
utero
pict
##orhabd
uncoupl
breeds
##osulf
neurogenic
bacteriophage
##oplankton
seawater
tsp
galactosidase
nmd
ethiopia
##bles
pharmaceuticals
viewing
acknow
##anda
##othermal
accumbens
biodegradation
ferro
discriminant
conference
diversification
helped
##157
wearable
##idth
quater
aflat
##omeres
nifed
inward
eds
damaging
dlb
##yx
##tiles
##escens
cgrp
homeostatic
colonoscopy
medicaid
manufactur
goat
##orial
)].
wol
##apopt
combinatorial
##roline
statement
##ij
purch
##ovol
holding
ureteral
concurrently
foraging
sponge
households
hyperv
neutropenia
dyspnea
pipeline
disaster
places
makers
##quilibrium
dwelling
amphib
enorm
##uin
##),
##con
ortholog
epithelia
pineal
hydrocephalus
cca
warning
plausible
afp
doing
ducts
mist
nifedipine
tent
nanoc
positioned
practitioner
porosity
labels
##acia
rifamp
resembling
possessing
explanations
taurine
digestibility
remn
##osting
##vertebral
attained
verification
##width
emphys
polyphenols
##eastern
ultrastructure
sustainability
bpd
##abr
##yelination
recognised
mammography
carbapenem
unfold
prerequisite
##itan
commission
oxygenase
##ocyclic
homo
124
pericardial
purkin
scattered
##anous
augment
serotonergic
##85
lysosomes
overs
##algia
tunn
dal
purkinje
bean
electrophys
business
##ki
##olus
fentanyl
inbred
administrative
tms
necrotizing
bioactivity
unexplained
##imal
enormous
bradykinin
coexistence
##wich
##ez
lethality
tidal
udp
presently
legs
iterative
outpatients
linole
synthes
mutagenic
cannabinoid
porphyrin
cholera
laparoscopy
prevail
temporally
reasoning
micromol
song
##tigm
pherom
##enedi
going
plantar
##icl
hba1
incidental
##aginal
##ken
##test
remodelling
zoonotic
##obium
scot
lentiv
serous
specification
botulinum
112
investment
malond
visually
##iline
##tail
ventilatory
specificities
phagocytic
##ulo
voltamm
delirium
##acea
cornea
bioassay
##md
##roma
chondro
ampa
arsen
##fen
macromolecules
elucidating
aneu
charges
toluene
abor
succinate
gamm
helping
##alcoholic
functionalization
##through
ternary
unfolding
##xine
##iley
wit
##87
mpt
##f3
rcts
discrepancies
rhabdomy
topoisomerase
subpopulation
##itates
dimerization
desensitization
spermatogenesis
##cope
vietnam
connect
epa
undetectable
craniofacial
leave
basolateral
visualize
##entified
celiac
sio
##emias
##phone
kcl
myofibro
pcbs
##rotene
ancestral
##ponsive
este
5h
allocated
##ocks
figure
##glyc
emphasizes
##othiaz
contraind
##si
##atergic
diagr
subspec
##dehydes
impression
ninety
vasoconstriction
##plasm
sonography
semin
ton
unt
phone
continuity
uniquely
gum
duodenum
gaining
shallow
innerv
ori
nont
denitr
strands
pyrimidine
repressed
erup
infantile
specialty
etiological
ecd
ceramide
urothelial
pea
dephosph
mechanistically
mont
cnt
hampered
vegetative
pbmc
ncs
storm
##ammonium
vwf
aps
encounter
gfr
##bt
##uma
ku
homologue
comes
mediation
recommendation
fragile
nsaids
shot
cili
stic
municipal
proliferator
malondialdehyde
##com
atropine
conting
endo
gpi
incis
##erals
client
figures
covariates
##ications
telephone
ewes
fission
audit
classifier
aggregated
morphogenetic
ehr
glycosylated
estrogens
antinocic
aneuploid
hazardous
cag
hrp
oroph
handed
##no
consortium
##ck
##acers
cascades
punc
##atally
feline
swallowing
choles
##acid
##ositi
hairpin
##ume
##west
societies
explos
replacing
zym
##oencephal
sarcomas
predator
##yridine
##ini
advantageous
##ineral
anthrac
##entral
invariant
evap
cytological
gwas
store
arranged
flora
http
durations
##ira
letter
##terone
cytokin
##opril
restraint
amaz
sulfon
hyperal
##ocene
122
glutamatergic
##gran
substituents
rumen
bos
coded
indispensable
swiss
entering
motivated
diarrhoea
##ulous
##duction
intral
calculating
flavonoid
trh
arbitrary
catabolism
calorimetry
##omegaly
relates
wavelengths
sq
eliminating
discharges
kc
eic
instant
deacetylase
##trypt
##pine
glcnac
observers
creates
linguistic
stopped
](
voxel
symptomatology
##osomiasis
eug
sandwich
ups
photoreceptor
demographics
##onder
neurofib
menopausal
seb
hepatoma
pharmacists
multivariable
histochemical
##ocystis
secrete
introduces
##obia
aeg
substantia
friends
forec
straightforward
esteem
rever
exit
hyperpar
saving
unequ
polyst
probabil
iia
intranasal
authentic
naphthal
##terenol
occult
workflow
dol
atrium
autonomy
##vitamin
##retin
spiritual
neglect
wireless
buccal
rew
##ael
choosing
drift
probabilistic
tnbc
osteogenesis
crim
vitamins
##pos
multifocal
nach
prolongation
oat
felt
formaldehyde
phytochemical
remediation
##opent
originate
##emoral
pcv
paracrine
v1
fermented
visu
motions
comprehensively
normative
##acizumab
blindness
##translated
subfamily
imprinted
till
##tina
pc12
##ami
##icides
fishes
nanocomposite
exploit
assume
n1
bap
epist
abrup
ameliorate
notice
lem
ets
intimate
##kb
burnout
p2x
elevations
##inally
##ycle
cavities
algal
glycosyl
airborne
blo
imposs
interviewed
glomerulonephritis
##atized
spasm
covers
##etra
nh2
tears
mev
menopause
templates
##max
resten
##ersed
contrad
crystallographic
##epileptic
siv
amend
##ylyl
cochrane
infect
ferment
##wa
aromatase
corpor
linearity
thyrot
bevacizumab
##--
##obutyric
bleomycin
aptamer
org
breaking
##omandibular
neovascularization
##onad
degrade
agarose
reflectance
exclude
recapit
nanotube
##etaxel
##gus
##ip1
equil
clav
equipped
##dl
chf
glycosamin
##ront
##po
benth
##globulin
##cor
acidification
alpha1
##azo
nowad
pairing
##endous
roughness
docetaxel
##orphin
helices
tym
nowadays
##hog
thigh
##opeptidase
supplied
cps
synergistically
relapsing
nhl
licens
##apoptotic
alive
glia
preoperatively
imatinib
##iring
adenocarcinomas
occupied
ruptured
microparticles
imperative
1st
##otherapies
##orus
mcs
tremendous
speaking
aes
stern
eyel
##romatosis
opens
abr
tried
1984
hoc
##ulators
daytime
wav
coexp
ptc
2c
antidi
isoproterenol
predisposing
shrimp
smear
##atility
documents
mush
simulating
jet
redistribution
##iop
fg
metab
determinations
labile
drawback
unmet
connecting
atcc
hedge
scanner
##itoneally
thalassemia
hung
came
infest
niger
supernatants
bioc
acetyltransferase
##anat
twofold
##s1
carn
##lora
versions
eut
##electronic
preconditioning
pectin
##tt
fossa
beat
wildlife
coarse
gastrin
##ocyanate
apex
mbp
oscillation
cleaning
##riage
jug
probabilities
distraction
atresia
dimeric
lati
caco
gln
##oys
nhs
##phase
coordinates
luteal
economy
inclusions
bilayers
offset
shrink
incompletely
##olinium
affili
114
##apeptide
fad
immortal
eae
penicill
denti
diazep
ophthalmic
erectile
##light
pill
hydroxide
hyperth
dies
permitted
##anum
intract
defer
trapped
radiosens
##azepine
anchored
##).
price
neurotoxic
annually
cred
industries
prematur
)],
##bd
ecules
uncovered
##olis
subacute
untranslated
##hu
lepros
tann
bacteremia
xenob
notic
palladium
gambling
pouch
snail
nanofibers
tilt
pitfall
guarant
otitis
feelings
##ults
nanocomposites
tp53
easier
refers
mgl
lod
chym
avi
justif
##annab
hba1c
diabetics
##ref
latex
##uish
electrocardiogram
ward
cms
##una
dict
linc
220
##ko
##ropin
cargo
edges
wheel
condom
restrictions
flowers
liposome
macromolecular
lakes
nid
physics
granulomatous
peers
##idinium
bidirectional
quar
ferric
orthotopic
obstacles
##encl
iib
##enicol
intrathecal
syph
##opar
##ja
dmso
revis
pector
catast
##unted
centros
##itivities
vitreous
##ml
##tegration
##ocrit
##ermined
diode
neurotransmission
cd14
sialic
##olymph
polystyrene
aesthetic
neighbour
lichen
exceed
epig
evidences
evolutionarily
##oinositi
argen
companies
thrombolysis
hk
secretions
helminth
execution
biomolecules
##accum
turned
gcs
reconstructive
contributor
flour
##tructions
cz
eq
midbrain
convergent
exome
##odeox
comparatively
##adesh
sers
capsular
elite
sett
##thane
##juana
probiotics
visco
exciting
subcutaneously
blinded
haemodynamic
asparag
##bing
seropositive
precl
rim
##ethoxy
##oped
##oves
chemotactic
ameliorated
void
exchang
herd
explants
qds
coming
multile
panic
##idene
anp
pag
##ipa
hedgehog
burk
retroviral
elasticity
##ifiers
epiph
cardiomyocyte
sarcop
caen
hypothetic
##idazole
endonuclease
metalloproteinases
apple
##arby
##b3
alkali
circuitry
b3
prolapse
serov
asbest
absorbance
##iculus
qrt
dyslipidemia
##fly
##idis
abrogated
propyl
nephritis
uncertainties
)°
arres
eluting
##ivirus
isoelectric
restenosis
tinn
apob
karyotype
thoroughly
minerals
photoc
urgently
tu
atriov
intractable
fluctuation
nv
deer
spore
intraperitoneally
##ford
monoamine
##oselectivity
atrioventricular
restoring
synergy
hyperparathyroidism
analyte
nonalcoholic
workshop
conferred
##bu
hepatotoxicity
bioge
##xs
predictable
moll
##ham
hydroxylation
dropp
hydraulic
receptive
bromo
homogenates
##uates
projected
##edict
aaa
##okeratin
##orhabditis
dying
biocompatible
priorities
pertain
maxill
isotopic
delineate
##i2
anova
scene
bz
fusarium
strikingly
spikes
ovariectomized
genotypic
aggress
##abain
epoxy
acetone
resemble
chloroquine
xi
p65
traps
appendic
cores
copolymers
compensate
hyaluron
toxoplasma
tinnitus
mortem
trophoblast
##overty
##ava
##acoustic
increment
regards
vh
##ogluc
##aned
hydrophobicity
biphenyl
muss
macaques
-/
vicinity
ornith
overlooked
##kinase
microarrays
##reval
bear
a3
##thrombotic
freshly
supplemental
deprived
constip
attended
##ronch
bronchoalveolar
pigmented
.].
leprosy
dams
poverty
shares
##istering
cytometric
##ophagy
asn
stacking
113
dorm
##eit
##well
electrically
adjunctive
ouabain
anticonv
bridges
rumin
##align
steroidal
chemopre
theophylline
immunoglobulins
##estin
propri
appetite
eighteen
lym
##rophosph
rfl
monoc
preparing
awake
safer
impossible
residency
reaches
ihc
message
workforce
debris
collections
tack
pharmacotherapy
judgments
##mi
crosslinking
##aki
cpr
bold
interested
obviously
cd45
inpatients
##eller
greenhouse
constraint
seropreval
ngs
shortly
legislation
ibs
mant
unless
torsion
tacrolimus
castration
neurophysiological
sp1
##uce
marijuana
mitigation
pufa
##ytoma
concomitantly
##istries
foxp3
capsules
pdac
reef
heparan
##ofuran
##ethanolamine
norway
uncomplicated
chemilum
begins
nest
scs
gfap
catalyze
vf
huntington
##alo
sterol
teen
mesothelioma
msm
bee
lacked
carotene
extrusion
moved
explicitly
glycation
outlines
metapl
##nals
dysfunctional
##fin
unpredict
vor
unexplored
fractionated
threats
rubber
##orptive
##arctic
unidentified
pictures
reactiv
feat
xl
mycobacterial
recoveries
esrd
lactating
etop
##operiod
##ein
hev
##kd
initio
listen
muller
noticed
flexor
##recogn
rectum
##afil
deoxyrib
indol
extensor
supervised
astrocyte
obsessive
##orrhea
99m
##aec
sumo
waist
##oxazole
hyaluronic
appearing
inspiratory
immersion
occupancy
paroxys
disciplines
(+/-
hypn
footpr
abstinence
glandular
bfgf
gbs
##89
biotic
cyanobacteria
leach
commens
denervation
diazepam
tcm
syring
neuroprotection
dissociated
insecticide
outdoor
folds
herds
journals
brachytherapy
##tructed
genotyped
orches
orientations
deployment
hong
##azolam
rhythmic
spro
reproduce
##blasts
quaternary
reserved
etoposide
exploiting
ameliorates
##lycaemia
##anthin
preinc
assemble
messages
##bach
hur
worker
##len
##rical
##esi
osteomyelitis
intraepithelial
unfolded
133
breakthrough
matern
inspection
caenorhabditis
##een
lipophilic
snake
bronchi
sts
catecholamines
shelf
biol
surrounded
##omogene
register
hydrothermal
dbp
##p4
reared
halogen
permeable
gmp
autoreg
##oxib
ending
ingested
emptying
##gian
cilia
intras
##iva
pedicle
pollutant
commentary
distorted
barc
dysm
cyclohex
pim
##leting
annealing
##ellosis
%);
nets
##ronate
melanin
r1
##entre
rostral
refinement
strengthening
diaster
vasodilation
sequestration
evaporation
passed
owners
pakistan
desire
methamphetamine
bit
293
loos
cec
annexin
pointed
mesang
reconstructions
disparity
ruth
##icially
##eresis
portug
cryopreservation
opac
alarm
##istinguish
folic
citrus
positional
vasoactive
devoid
p300
interpreting
bangl
##atech
sensitivities
photoperiod
haloper
ulnar
bomb
tank
##eve
transmit
motivational
weather
##ospital
philos
install
gan
anticoagulants
##angu
harbor
publicly
pleiotropic
pole
chambers
nematodes
tdp
lock
fret
osteoclasts
autophagic
tetram
cytokeratin
900
allografts
schizophrenic
mcc
hnscc
chief
mib
fairly
overestim
enkephal
pick
##inus
##aked
arthrop
yeasts
aldehydes
transposition
excreted
junctional
chew
assurance
pleth
divalent
integrins
##arine
iner
##odeoxy
lie
006
overdose
dar
manuscript
##iensis
##aventricular
132
diastere
switched
##74
disposal
##glucose
##upt
haloperidol
cytosine
compartmental
acne
valpro
##aminophen
dynamically
begun
seroprevalence
ascorbate
hepatectomy
144
gastroesophageal
##leb
prednisolone
ovine
##sulf
thp
tes
manipulations
constipation
constriction
gil
streams
toxicology
tricuspid
pericard
##akary
albeit
alert
colorimetric
##aded
drastically
engaging
readers
abrupt
dhe
mtb
meiosis
++
isotherm
phosphoinositi
marketing
##lys
mismat
methacrylate
##ugg
thermally
hrs
percenti
pneumon
##onasal
prostaglandins
##ipramine
lobes
cbt
thromboembolic
saw
inequalities
pq
##ovalent
##tanding
nip
amphoter
complementation
disclosed
##df
esterase
##mu
px
kap
liposomal
acetabular
##itoneum
leukotri
thior
jaund
glucosidase
indistinguish
sickness
moss
antiepileptic
associative
pyrophosph
supine
plastid
hemolysis
1982
perovskite
biosensors
hospitalizations
1983
##quinone
##ophy
emphysema
beta2
dystonia
lec
crs
##entistry
clinicopathologic
kj
18f
halluc
iatrogenic
##ario
bark
resonant
reservoirs
##osyltransferase
kernel
##orphine
multilevel
anticonvuls
##prop
as1
synchronized
bite
leptosp
thirds
aza
##olase
mrs
phthalate
refuge
trin
enantiomers
uvb
preventable
##ocutaneous
opinions
##gesia
danish
binge
o157
obstetr
deformities
drg
##osclerosis
multist
cavernous
##opamine
dispersive
tad
##ingual
disinfection
leaching
ultrason
nonr
##alline
##odomain
strips
nicotinamide
ferm
kt
mindfulness
das
viscoelastic
rods
invasiveness
myrist
##lass
sacchar
forsk
p27
unint
radiolabeled
##onates
filtered
glycolytic
grazing
chlorine
ontology
temporomandibular
interacted
icc
etiologies
thymocytes
dangerous
##adone
##insically
supra
denaturation
##imine
exocytosis
artem
exacerbated
sertoli
navig
geometries
monoxide
morphologies
##ropr
unified
##ostat
nephrotic
metabolized
##trated
defines
confinement
afforded
laying
elastase
##ingly
transactivation
stz
asbestos
cassette
hyperinsulin
enantioselective
ban
inev
##oris
groove
mdm2
acetaminophen
debil
destroy
polymorphonuclear
thyroxine
ace2
zirc
limbic
oedema
dentistry
acanth
smc
##epr
electrocatal
temperate
pcna
exacerbations
hots
##i1
protons
nash
supplementary
cirrhotic
neurotransmitters
mitogenic
heritability
popl
quarter
restrictive
olds
lanth
acted
pss
##side
cd25
convolutional
favored
##amphenicol
poland
cryptospor
fi
myogenic
nuclease
##omycosis
terminated
indistinguishable
nanof
worth
6j
##urus
micronucle
##icine
moments
clay
elongated
tends
linoleic
adjustments
citiz
ordering
hypercholesterolemia
southeast
pparγ
##kines
synovi
hindered
##ysts
##oprost
##adine
mif
overcoming
##ocephal
bloodstream
##91
rainfall
hotsp
##plicates
myopathy
##dens
ptp
rotator
scavenger
g6
turk
dnmt
diphosphate
cyanide
sequentially
sic
appraisal
microch
underpinning
amplic
electrop
authorities
hypothetical
##endicular
reductive
insem
##meth
dysfunctions
##itidis
117
damages
radionuclide
anaplastic
##astics
reticular
##ila
spheres
worms
references
manure
therapists
##erae
pharyngeal
autocrine
bovis
##94
smallest
##tus
culturally
think
alleviated
holistic
epidemics
immunocompetent
neb
##ophene
tgfβ
grip
hscs
##ifl
##entation
repeatability
ejac
timp
syphilis
cts
paths
99mt
chorionic
##onation
##uccess
valvular
##clusive
igg1
apl
##nv
influenzae
rhamn
##oping
megakary
paramagnetic
##ieu
##osurgery
confusion
depress
acknowled
exceptional
disclosure
marital
##ilament
ral
kines
factorial
bam
psoriatic
##uctal
ais
mao
belonged
fuzz
incorporates
##rologic
serr
perpendicular
##uccessful
ankyl
##thesis
##atases
mct
pda
demanding
discoveries
molecularly
zeol
opened
empathy
degs
clot
radiologists
##class
mts
handle
feet
##ubstituted
mucinous
methadone
oxidizing
migrate
unsuccessful
paroxysmal
nsp
heroin
##uel
meals
photochemical
enterococcus
cardiology
fis
alloys
##night
oligo
hardware
##tisone
##ado
multicentre
popularity
##cys
##agues
mcr
zoster
emulsions
inhomogene
oxalate
##cl2
008
cooking
enfor
##axin
immunocytochemistry
predators
##562
resembles
##yelin
]).
alex
click
push
infecting
ao
hmgb1
organisation
##ardiac
##ishment
biotransform
contaminant
gluten
scid
cyclization
intrinsically
crust
latencies
germinal
gastritis
bandwidth
pulsatile
cancerous
photosystem
##gut
nervosa
trachea
planes
millions
lexical
csp
folded
b12
witness
##uridine
cd13
forskolin
aminoglyc
##oconjug
4d
resolving
eus
tha
redundant
declining
advancements
superconduc
fvi
##bia
diluted
quinone
bph
constructing
uveitis
sativa
adhesions
##onent
127
mmps
sitting
diamond
impulse
adri
##kii
erythromycin
cyp2c
osmol
sacrificed
beats
##ozapine
ampicillin
wax
motile
iranian
##urized
clonidine
transfers
predation
butyrate
schedules
138
ctx
retarded
intravitre
polluted
##rounds
helicase
immunocytochemical
kel
biob
('
quiescent
spectrometric
gill
caudate
father
row
chondroitin
annotated
##thi
unre
myelodys
budding
lasers
##urition
carpal
chloramphenicol
ancestry
retinol
igg4
chart
generalization
ventilator
dinit
michael
ricketts
checklist
mastectomy
007
pale
b7
bubble
mesangial
spacing
stric
floral
bioreactor
2r
cabg
##aka
chord
e6
fim
androgens
##udine
hemostasis
preh
bedside
121
recognizes
microbe
oncogenes
ready
plug
averaging
contradict
##96
ara
predominance
cylindrical
rflp
wiley
counterpart
galectin
appendicitis
##idomide
##chr
phenanth
economically
fossil
ruthenium
heterochrom
##opeptide
depic
##human
##oned
steric
enhancers
advis
nasc
discer
pathogenetic
smears
##here
2nd
exhaus
opposing
translate
prednisone
##rows
ipv
##olysin
dosages
c3h
cscs
##formed
transfusions
##ellulose
320
##uro
biomimetic
gadolinium
mannitol
dissimil
cheese
russ
complexation
lining
##arring
scatter
##2c
empirically
##romatic
##asions
##ometabolic
##brand
macrol
##osc
cdnas
##algae
mobil
genis
iris
##tryptamine
adc
nhe
sepha
##iatr
anaesthetic
nz
prrs
##uptake
neurosurgical
##itely
interests
kenya
femt
mastitis
carotenoids
perivascular
mycobacteria
barb
flame
gun
organelle
##ogue
##ospecific
intu
suppl
eradic
sepharose
cycloh
fathers
aminobutyric
overproduc
thromboxane
jak2
fuzzy
leader
debated
eta
www
heightened
##yseal
##kle
cognate
##osylation
chori
occlusive
anatom
injectable
pes
unrecogn
laun
pitfalls
maneu
mars
staphylococcal
workload
pedig
enteral
spo
scalable
heated
criminal
shrinkage
willingness
##legia
##uprofen
sirt
clues
antenna
dss
amphotericin
##isson
pis
##noea
anchor
mans
glycosides
modal
aor
adr
trichlor
strengthen
99mtc
pean
diaphragmatic
homozyg
steep
##vinyl
cic
uh
bead
granuloma
clozapine
##lamed
##emide
analyzer
granulocytes
spiked
latit
##tracted
ribosomes
kong
rhoa
reuptake
##avity
jaundice
osteoporotic
wedge
sof
tregs
salient
discs
bifurcation
molars
schistosomiasis
yog
ovx
artifact
impulsivity
fingers
gynecologic
wavelet
egfp
##idation
hypoplasia
justice
##ographs
##yrid
kar
preex
myasth
dosimetry
zikv
bcs
arrested
##oxan
##obronch
##assemb
nations
peaked
expectation
##acl
ccs
walled
uremic
pertin
outstanding
neurobiological
trisomy
repaired
architectures
ellip
pbmcs
empty
##inic
disrupts
##uresis
ambiguous
fistulas
dsc
cortices
heifers
148
socially
1981
##κb
reti
##otin
grap
oestrogen
caloric
xr
cutic
enthal
realize
jugular
ventricul
rigidity
##oretin
rbcs
amenable
luteinizing
hips
##utin
choroid
##une
##100
lpa
motoneurons
shortage
counc
detectors
aper
ibuprofen
durable
nephrotoxicity
##pic
orph
fluoxetine
ancest
transdermal
nitroph
antipsychotics
##atine
##ounder
guanosine
connexin
engraft
##biased
hook
##asin
modulatory
gard
screws
(~
myocarditis
ltd
homod
obstacle
edible
cubic
submucosal
ossification
##capes
##endoth
colleagues
cryptic
israel
civil
concuss
combustion
##thalm
draft
borrel
##faction
transduced
##opancre
sigmoid
##yelinating
##ologr
arctic
mite
ocul
fusions
##arians
arabia
phonological
119
##ulph
bla
##r3
paw
stellate
argued
tags
+)]
zika
bilaterally
judgment
##bf
carcinogen
metron
risky
soleus
opto
unpredictable
##nish
autistic
tetrachlor
indones
##rosarcoma
##oremed
wu
aedes
mong
ctc
##ainees
##ocyanine
neuromod
##b4
immigrants
abnorm
lipoxygenase
chag
migrating
neonate
##etary
thermo
bees
rotating
##ecia
buffered
srs
unip
unbiased
##oreflex
##rolith
descriptors
pixel
##imburs
insecticides
esr
##ecurity
primord
molyb
##omyosin
##ohep
legion
clades
melanomas
elicits
diat
bats
dipl
##inders
virions
alkaloid
microvess
constantly
##arboxylic
gdm
##agging
neiss
scl
##ubiqu
intratum
streptococci
secondly
##oeba
axes
genistein
s6
##tl
##itical
tetanus
ingredient
oncological
lectins
amphiphilic
pls
nanoshe
hematopoiesis
ontario
lamellar
prothrombin
pumps
##acies
calpain
avenues
ascribed
quart
reimburs
ud
incon
scap
infrequent
speeds
omics
camer
sinusoidal
accelerates
acinet
masking
benzodiazepine
graphical
embase
reflexes
lastly
broilers
sibling
gastroenteritis
tnfα
##imethyl
pcd
egcg
whites
codons
bare
##ilance
##inoids
##ofer
myd
proteoglycan
##ocere
lub
acinar
##erh
colch
analysing
interrel
elementary
k562
##dy
cep
gathered
##aneurys
oleic
tka
supposed
senior
symmetrical
elsew
ny
##otency
(≥
heterozygosity
elsewhere
tonsill
recreational
nearby
pcc
azo
hydrolyzed
fundus
hardness
##ocarri
##aturation
##alkyl
rendered
ordinary
leyd
##map
sorafenib
seeded
##omatis
##ogenin
ninete
rop
isoflurane
tdcs
him
informal
outputs
chimpan
intentions
##inis
antim
cd2
hydroper
proceeds
deafness
embedding
aflatoxin
roman
mers
smartphone
falling
##enzymes
rom
##imod
spines
##enoids
book
escc
perceive
parity
encephalomyelitis
pyrolysis
stated
acinetobacter
tender
antimal
hierarchy
survivin
cyn
sct
digested
cyclosporin
dissipation
electrocardiographic
enroll
rheological
##imeric
##otrans
conflicts
intramedullary
microcirculation
bmt
readmission
lying
circumv
##aut
anger
attraction
numerically
wille
governed
##olymer
##oviral
lon
urtic
ideation
##olide
peptidase
debilitating
inflamed
chile
oscc
##arf
##oplatin
fundament
malad
screens
usp
homeless
pige
genotoxicity
occasions
##olated
backgrounds
retaining
##eptin
##fully
fes
-[(
insert
pigments
devised
achieves
metrop
##iphatic
innovations
stratum
nationally
persists
hcmv
lycop
dihedral
nonster
keratinocyte
##being
blastocyst
abnormally
chop
##oreduc
valley
##oem
roughly
cephalospor
##nem
nascent
##epid
trehal
pond
##ille
franc
lyase
hatching
syncytial
hyperalgesia
chemoradiotherapy
intent
sarcopenia
##yryl
##x3
deciph
audi
wellbeing
bottlen
multilayer
tcp
contraception
##cus
fuller
encompassing
##urethral
hypoc
abscesses
closing
prokaryotic
scheduled
##gc
vmax
dermis
pressor
mimicked
bms
irs
euthan
carotenoid
bangladesh
ornithine
##wt
relational
deals
restorations
telemedicine
assimilation
trast
##ospasm
wel
##arrhythmic
)(-)
computationally
inacc
integrates
isothermal
discriminating
implicate
pms
35s
poisson
accidental
##oremediation
kain
nanowire
360
vldl
nonun
fork
##oneg
adsorbent
##inae
chloroplasts
##fas
crossed
##ultural
##lexes
multicellular
saph
rearing
antioxidative
mutans
failing
micronutr
worked
confirmatory
satisfied
##orrhizal
producers
##argin
##omatic
antarctic
cbd
##arone
adaptor
cholerae
pertinent
outward
apoa
introns
intravitreal
leydig
pubertal
##analysis
homologs
trastuzumab
fun
scarc
##olves
tlr2
try
hps
aliphatic
fak
##nc
wise
supervision
ovid
underestimated
pigmentation
##openic
##imab
societal
sca
markov
ulceration
compensated
chemosens
your
arid
objectively
prison
willebrand
insertions
seriously
alop
logic
nile
entail
interior
sevent
##asant
player
trachomatis
rainbow
3rd
pheromone
alcoholism
##emp
rankl
schol
##ispers
amazon
hols
##eb
retraction
##ocus
intervertebral
##400
pointing
##annel
transist
unresolved
cited
locked
dlbcl
histones
jejunum
rivers
chemoat
##onomical
##imidazole
photoelectron
trainees
##nb
grape
143
crystallography
##urface
photod
rash
025
obliter
##mer
correspondence
sonographic
##oo
triterp
colomb
inconclusive
insult
##imers
##achol
##otypically
instructions
pva
imperf
##etis
oropharyngeal
discontinued
misuse
##graphic
searches
ranking
erythema
##okinetic
ripening
kyn
##opulmonary
ketone
retinoblastoma
residing
cucum
infiltrate
##adel
polychlor
xanthine
debrid
##orphyrin
secure
manipulate
placing
lrr
territory
ears
mine
paralleled
mend
patellar
wal
demethyl
##angiogenic
listed
exagg
obscure
kall
tuberculous
sarcoplasm
##omib
holes
relatedness
heads
slowing
xylose
pheochrom
anabolic
ams
134
regi
situated
avers
emuls
meningioma
holstein
snap
oblique
natal
sixth
dab
fluoroquin
heterocyclic
phages
calcine
##ulence
dithi
stature
##130
yag
tunneling
anxi
vacuoles
##elev
nanocarri
ctla
##ochrome
sliding
sustaining
##western
fluc
##cing
vigorous
##oscope
haemophilus
##ponsiveness
accelerating
council
counselling
incen
glucopyran
minus
momentum
slaughter
##itories
phosphoinositide
hexagonal
anoph
biotechnology
188
##airs
transcriptionally
oligomeric
##idate
mof
pbl
anode
bun
g4
nonf
insignificant
demyelinating
reviewing
##wood
calcineurin
##ecrosis
(+),
optically
inotropic
yap
competency
denv
paradoxical
carboplatin
engraftment
bursts
nanotechnology
terp
isopropyl
antimicrobials
ua
##loxacin
violent
electrochem
encouraged
eyelid
graduate
hallmarks
##umann
arrangements
collagenase
biomechan
neisseria
colchicine
drops
dinucleotide
empl
hydatid
##othing
myb
230
machines
permeabil
raph
housed
##opolymer
syngen
##hom
committed
generator
adds
enterocol
vdr
oligodendrocytes
solubilized
assesses
hematocrit
##eor
superiority
posed
condensed
niv
ther
prur
membranous
traction
t1d
##phi
ecmo
cholangiocarcinoma
dural
serogroup
thiored
xylan
trifluor
##bra
banding
entrap
##opid
superimp
substituent
##ympath
##emy
l3
polyvinyl
ipsc
kat
etiologic
wealth
subtraction
ugt
occluded
dropped
gj
adoptive
antagonized
taxonomy
tumorigenic
androst
##inetic
anastomotic
enkephalin
buck
ventilated
##orespiratory
cq
gdp
antine
fle
##implantation
imidazole
swabs
internalized
##abl
ell
electrolytes
##rosine
albino
sows
153
##omon
beverages
hologr
##itants
seph
performs
##ithm
##aea
emitted
manipulating
##whel
educators
nct
bisphenol
grp
##ilton
##access
##icc
##obenzene
alongside
cpb
imaged
<.
##anoid
triad
photosensitiz
triage
acros
nanostructured
discussing
mpo
##olig
marks
lose
##yzed
ost
vb
derivatization
transparency
agnps
oligomerization
caesarean
##2r
graves
erα
##adiaz
occlusal
encl
arrival
lysates
calibrated
eluted
symbiotic
attribute
stoichiometry
ventricles
skew
aerial
reproduced
qrs
carboxylate
waveform
ridge
##oxidation
milieu
##ymm
clotting
##aba
electronics
##ptotic
foetal
syngeneic
##ikre
thoughts
##arenal
clad
haematological
membered
buffalo
homologues
debridement
landf
synthesizing
potently
substanti
##oconversion
concan
powered
ffa
168
observing
fort
biotransformation
overwhel
##orectal
simian
##retory
notes
chemiluminescence
geometrical
3β
##hou
oesophag
reacting
iiia
##olones
dilemma
##d3
lad
mth
emphasizing
biotechn
controllable
protozo
bupivacaine
steat
accessed
nanog
polyamine
##robenz
pemph
##lofenac
##cam
tendons
##book
duck
reads
separating
lov
cardiometabolic
wherein
141
twitch
seventeen
billion
thc
adrenocortical
elastin
lasted
adopting
##abdom
triton
##600
default
142
cd20
pellets
##hai
chloroform
##otecan
139
occupation
epicardial
culturing
demyelination
snow
victimization
mounted
##porter
constituted
mms
jejunal
##ye
##coprotein
##ectomies
dihydrop
lect
nucleosome
aquac
blend
##iximab
...
pemphig
propionate
hamilton
metastas
ultrafast
rendering
savings
pegylated
hindl
sarcoplasmic
hrt
seedling
langerh
##ivir
wky
langerhans
invertebrates
175
detr
lists
compressed
communicate
cole
clath
pei
initiates
nonres
photothermal
unrecognized
pairwise
linkages
laev
jejuni
280
modifiable
cmc
enterica
##anide
##tez
rag
devoted
ncr
catabolic
bout
turning
##aplan
unamb
phosphatases
cream
flavor
interruption
speculate
regenerating
injecting
synch
styles
t7
##tite
##ximide
metabolically
bifid
photoin
acrylic
##translational
herniation
employs
symbion
adriamycin
spiking
##iformis
modifies
chemoresistance
unic
wells
##ofemoral
erythro
pears
crime
story
##adenosine
##ogrel
tic
infertile
heterodimer
splenectomy
expresses
retest
##reek
tig
endors
##pharm
efferent
malaysia
##oca
##enet
technically
unevent
circrnas
dividing
polychlorinated
etching
##othane
chik
##ensory
responds
enterobacteriaceae
b16
alpha2
gauge
anesthetics
arose
mptp
harness
myelodysplastic
##pg
##ott
doubling
##oco
##ecd
endosomal
immunoblot
##hips
unambiguous
##orth
irf
contradictory
##eri
##oda
##erus
games
##essional
1960
carbachol
lor
overnight
absc
pathologists
femtosecond
icr
##atars
unal
offs
isopren
##avirin
reversibly
compete
1c
exo
turkish
##field
organis
analgesics
##avalin
##etization
schiff
##opathological
mediastin
adjuv
zw
establishes
argentina
nts
teacher
##ern
atra
##actyl
prescriptions
kaplan
midazolam
##antigen
##atism
##opharmaceutical
##oreductase
chemoattract
purpura
mug
eco
carbamazepine
##elevant
heritable
inequality
organizing
burdens
osseous
constitution
larynx
opiate
tol
fabricate
precipitated
chondrocyte
fev1
pertaining
digoxin
ch3
mtorc1
proxy
##agens
remember
##olitan
distract
vasodilator
harbour
sjogr
zol
##76
dre
abundances
##oxygenation
##obronchial
butter
admix
ccr5
##osterol
syncope
masked
thousand
pra
##ng
##ospinal
feeling
cid
##anthine
dti
scarring
monolith
restorative
##ivocal
##101
neurovascular
##ostosis
sectors
##aresis
halothane
panc
acclimation
p2y
##iplatin
payment
probed
##acetyl
sv40
dentists
outlet
faecalis
oligosaccharide
##istin
ribavirin
##terolateral
editor
contributors
##sr
spa
gef
coronal
pear
sjogren
aegypti
##electroly
optics
stomatal
compass
cddp
guest
compute
kinet
##adex
mglur
##isy
##ilyl
vice
##iant
gout
##anoic
dissected
acp
aunps
herm
arguments
##like
cadaveric
drawbacks
transv
glomeruli
isotropic
##adow
genesis
haploid
gastroc
covariance
cfs
concanavalin
##ellin
tcdd
impregn
chelating
ghana
slit
attendance
correlating
meningiomas
##iro
bnp
gpa
unaltered
##itrate
quadric
foramen
shh
anchoring
accommodate
graphite
duty
pursuit
lun
accred
patterned
##azepam
wastes
underlies
=.
msi
##astig
knees
epitheli
myotub
165
##erad
mst
##entin
cycload
listening
##osi
##etom
simulator
spatio
kiss
washed
ipscs
blunted
##othione
aphasia
##ubiquitin
nanod
neuropeptides
extracting
prohib
microelectro
lymphangi
##pred
##iferous
msp
intraventricular
decompens
nonsteroidal
##odopa
virion
##84
(%
##timulatory
coma
(∼
apa
136
transmitter
##ympathetic
gpx
neurochemical
##critical
manually
golden
##fv
fron
crh
##oron
odd
uganda
oxaliplatin
dnase
##issible
interconnected
decided
fragmented
interrupted
mole
peanut
alopecia
wasting
narrowing
##icals
voltammetry
inoculum
immunophen
mj
psd
mainst
affordable
dba
conjunctival
nonhuman
profoundly
##otypical
##urp
dmd
exactly
percentile
##utions
aneurysmal
hatch
varicella
thioredoxin
bib
ovalbumin
##mr
ssp
ipf
hither
dibenz
##ikrein
stalk
##oplasts
fx
mics
entrapment
##ellae
marr
##itz
s1p
pgc
depths
hyperpolar
pneumothorax
disabled
burning
sacral
analyzes
hitherto
formulas
dyskines
ppd
csc
occasional
expense
schistosoma
dephosphorylation
pyridyl
lond
1979
exertion
sentence
nanorods
##1p
##rb
quadrupole
##odynam
gallst
adrenaline
crass
##ropyl
##encephalic
nyst
nag
##02
mutually
vpa
##iteal
irritation
proceed
clopid
paramount
thermost
communications
libitum
##yleph
##vd
##methyl
extraord
lacz
##olization
##ethal
photoreceptors
bps
rac1
##the
balancing
gulf
kcn
proteoglycans
ortho
pdms
clopidogrel
pz
purely
carcinogens
lbp
telomeres
##otracheal
quadratic
merg
tcs
##cription
##actam
exploitation
mucous
sclc
pyel
farming
aperture
cathode
nil
joining
deaminase
succe
##isters
cx43
peptic
accumulates
provinces
lymphoproliferative
proliferate
photoluminescence
denmark
bifunctional
##extraction
vn
evac
##eradish
tanz
levodopa
prism
sink
senescent
sre
shoots
gang
shaft
mns
osteop
tca
diclofenac
horseradish
##apillary
bioinformatic
syntheses
zip
brings
artificially
mushroom
##awa
gay
hyperthyroidism
immunohistochemically
##fol
##isch
finland
monod
##rogenesis
##187
exped
gig
manufactured
colloid
pseudoaneurys
##athic
##86
durability
unin
herbicide
##repres
antithrombotic
streptococcal
daughter
infin
porphyr
##n3
ireland
vaccinia
svm
prepro
##igo
vincr
diph
isoflav
aspergill
##parametric
eosinophilia
oligodendrocyte
μl
##breeding
##asma
hyperlipidemia
##gar
principally
aquaculture
broken
ec50
crab
pragm
adequacy
reader
dnas
##92
undesirable
##april
adver
##atia
unresectable
]),
unwanted
waveguide
corners
incidences
practically
adapting
##piration
##oproteins
dav
hypertonic
archaea
texas
resembled
cardiorespiratory
k1
##romed
captopril
bell
##oxon
allyl
cancell
fibromy
fertile
unlab
unve
##ytoin
relapses
phenyleph
bmscs
disequilibrium
sting
imported
sz
rhizosphere
##haem
passing
inqu
sphingosine
meier
subspecies
denture
centrally
##ariae
noradrenergic
exhaustion
endocytic
##elian
lyme
leaflet
gsk3
antiarrhythmic
phenylephrine
controller
##ticism
##tilled
metabolizing
cyano
palmitate
##folate
##urred
msec
##articular
coexisting
metropolitan
##osts
predispose
hemispheric
simplicity
lengthening
developmentally
ca3
fumig
ionophore
(®
maxillofacial
##oeb
landscapes
vulv
msh
spliced
complexed
bronchitis
illic
versa
dialys
asph
hydroxytryptamine
##ophenol
thread
##oxycycl
laevis
classifications
minimized
listeners
ginseng
microalgae
mansoni
magnetization
contig
enum
1990s
bottleneck
##rosthetic
146
vincristine
novelty
marc
264
sutures
trehalose
resections
##abetic
broadband
bridged
proto
##accharide
tunel
##guan
cardiotoxicity
endocrin
##othec
g3
coactiv
cultivar
atrophic
unmod
warrant
aversive
simvastatin
callosum
ltr
anticonvulsant
curing
names
microbiology
##apsules
biomaterial
##ometers
##nps
exchanger
kpa
##aint
economical
spheroids
##82
ebola
meso
tma
##odine
activin
##aggreg
shrna
macaque
transection
preexisting
cd16
arterioles
seeding
deployed
praz
##olytica
neuraminidase
cmr
hirs
##ocent
logar
steadily
imprinting
inert
intima
dorsolateral
approached
histomorph
32p
districts
##otrypsin
unravel
##oflavin
releases
stations
ria
##03
immigrant
tfs
##onat
##rofessional
cryptosporidium
interpretations
kits
extant
spondylitis
iaa
##lich
runs
nonsm
pluripotency
hydroxybut
750
reabsorption
h9
##rote
##vic
stressor
##vin
myopia
nong
##ochondral
runoff
##tices
-.
beij
files
##orphism
resonances
morbidities
inactivating
asynchron
mantle
1500
reapp
windows
##anone
fic
kp
willi
##eximide
aquapor
glutamyl
pearson
##othyr
uranium
parkinsonism
equivalents
lepid
dub
london
zr
aggressiveness
thumb
##iceal
pork
lpl
##k3
funded
extravas
liz
remnant
seldom
hnf
starts
oestradiol
florida
evans
quail
sst
##etron
instantaneous
cycloheximide
bioaccum
uridine
metaplasia
260
irrelevant
##thoracic
##azoline
saphenous
empower
##ymic
microplastics
permissive
rct
company
compelling
synchrony
serologic
unsatis
mate
circumfer
##q11
clp
communicating
barium
270
##83
thanks
192
specially
stir
contrasts
psp
estrous
representatives
##omponent
e7
myeloperoxidase
coiled
##abdominal
##yal
nitrous
statements
locking
dtpa
lymphadenopathy
gastrocnem
pione
pml
##aban
derivation
##erally
digest
ems
slides
24h
eclam
ei
xx
##ubertal
approaching
binocular
yers
solvation
interferes
##teric
##behavi
illicit
v2
##trac
dcm
cholestasis
hemic
uncoupling
sos
termini
quartz
inefficient
amplify
bradycardia
euc
myasthenia
diol
workup
nearest
discipline
##ecies
questioned
##rum
rectus
aspartic
##d6
carbonic
polyelectroly
realization
##ocalization
cystein
meteor
radon
mcm
##125
polymy
dvt
##cv
radiosurgery
hhv
marm
##thra
defenses
naphthalene
virgin
multifacet
pbp
answers
##timulated
fractal
##oceptive
stainless
bioen
##feri
terminally
inducers
doubt
intimal
deem
detects
cardio
autoantibody
bent
stigm
##azin
esbl
lysophosph
deoxyn
diversion
gp120
##cnts
##omyelin
##opathogenic
2s
nab
condyl
##onins
rarity
capturing
spill
fibril
##uccin
sod1
lesioned
stains
adjuvants
toe
enrollment
##acrimal
mmc
multifaceted
hun
cages
fibrinolytic
discriminative
justified
##ype
regenerated
sider
melanocytes
diptera
micelle
malate
agglutination
pace
##eto
cytologic
##oglut
oncologic
pgf2
##tons
speakers
parasympathetic
eros
uf
antimalarial
antinociceptive
eclampsia
polyposis
getting
disabling
##renorphine
eventual
##serine
prematurity
chewing
scaled
##ymb
##rett
rifampicin
##otom
phyto
154
thrombolytic
convenience
##bank
triti
epoxide
##onecrosis
subdural
qualities
restores
##acyclin
capacitance
cycloaddition
##aptive
##ectants
##angitis
calcified
009
dece
cd28
melt
##okinin
##immune
nepal
electroencephalography
congruent
anaphylaxis
carib
phytoh
administering
fisher
##ylaxis
reside
asymmetr
exposing
skilled
sevoflurane
##aro
reimbursement
infiltrates
translocations
##a3
centred
trimeth
##81
##orylated
##avian
prevailing
hir
readiness
prod
gastrocnemius
disadvantage
needles
gpcrs
##anting
facts
##pv
systemically
brit
lett
wetland
##uoden
##rotal
sulfated
##oons
##acillin
calorie
##cessing
hemostatic
lipolysis
haart
decoding
transposon
huvecs
sweat
sgl
##urge
mainstay
##port
drb1
##oxamine
##architect
##ubated
segmented
##uated
epididymal
imperfect
##adol
ctr
phleb
ultrasonographic
hypogonad
##muir
multitude
destin
acquiring
penal
attainment
identities
nf1
electrospun
switzer
rw
pharmacologically
gingivalis
optimally
152
doubled
interspecific
##enne
facet
##oreactive
langmuir
official
##tc
##apore
rgd
hydroxymethyl
##omycetes
brdu
##illes
endocannab
##ao
mmr
auxiliary
piezoelectric
spider
##bryonic
cbs
doxycycl
antiphosph
##ropic
ambig
mildly
##erculosis
neurole
nh4
chalc
##oxides
##isen
correcting
heterosexual
wearing
posttranslational
autum
##eliness
aerosols
hemagglutinin
wc
aluminium
amendment
switzerland
agro
acetylated
mx
suck
police
synchro
##ineural
preca
evening
lignoc
##tening
##omening
cochlea
nanosheets
mitomycin
baumann
traf
chaperones
burgd
progresses
##oide
mission
##apsed
closest
##ocalcin
nucleolar
traces
preb
polyphenol
##onegative
ended
ranked
concentrates
deoxyribonucle
extram
cinnam
endosomes
pumping
burgdor
isomerase
##etitive
applies
captive
whey
urokinase
##ifferentiation
##isco
reactors
##ulline
metronidazole
demethylation
replicates
competencies
##osseous
headaches
aj
unusually
sesqu
cen
interrelations
incentives
maltreatment
viz
##qi
morphometry
defensive
##ectral
globe
suggestion
cct
bacul
lacc
researches
##indole
##certained
sclerosing
defl
fitc
micellar
biomechanics
cpa
burgdorferi
sas
cones
diuretic
##iciting
##utter
##ximal
airflow
curved
heterochromatin
tell
physico
trpv1
singular
4a
equity
vacuolar
advertis
scars
fatality
transs
serovar
electromyography
imping
brack
hypercalc
hypop
##etomidine
##se
##icum
commensal
phenobarbital
thy
restrict
β2
unsup
turns
dystrophin
fiss
irritable
exponentially
##tian
peptidoglycan
exceeds
miniature
##imolar
##exual
estrogenic
doxycycline
mastic
deeply
shel
peru
thermophilic
##torh
pacap
##mn
##odyst
1980s
##wi
annular
extrahepatic
hexane
carcinoid
dext
john
gase
suction
slip
osteoblastic
cach
ascertained
pmma
##ennial
##amoeba
sinuses
qd
monoph
singapore
##appab
thro
categorization
##isia
##elong
dyslex
registries
photons
contracep
dhea
##ophor
fcr
therapeutically
cnts
1978
ppp
##othi
encounters
unmodified
metaphase
hyponat
formyl
microdialysis
immortalized
accomplish
147
##omedial
fasted
##odin
l5
hbe
gravis
hsd
halo
resum
##def
##7a
##weed
entang
replicative
##oquine
##ometrically
baroreflex
vv
##iters
##imumab
##ysm
ignored
persistently
attenuating
wires
##enda
##delta
##uis
endotracheal
anxious
budget
taz
stimulator
familiarity
hypercap
phasic
ikk
neurofibromatosis
cardioprotective
##itative
noxious
dysb
slowed
205
dsrna
operators
blacks
cnv
distinctly
sterilization
miniat
oscillator
renewable
##activated
modifier
##have
fluconazole
##gamma
contraceptives
metabolomic
carol
preced
conduit
benthic
microstructural
##mus
ambly
withdrawn
astrogl
acidity
invading
synchrotron
quadriceps
ontogeny
equilibr
##ynyl
sinensis
staphylococci
floating
ops
avium
chair
appeal
ch2
pragmatic
remainder
##peridone
μmol
lc3
##ohepatitis
bortez
##arabine
eccentric
diminish
eruption
petrole
consultations
want
neuroanat
seeks
bortezomib
thyroidectomy
subclavian
subn
valine
mail
##aters
directing
polyure
thai
disassemb
ensures
rhodamine
sphingomyelin
clathrin
classifying
proteas
soccer
potentiate
nineteen
baumannii
##orthy
tumoral
brucella
beijing
provoked
backward
preincubation
##yline
stemi
cnn
hardly
##agglutination
styrene
returning
incidents
##gly
abo
congeners
?.
1975
phytoplankton
##body
hindlimb
myoblasts
(+/-)
said
terminology
ner
cta
merely
worst
leukotriene
pleu
asymptotic
neurobehavi
##me3
exocrine
ator
complicating
tram
##tilb
##bg
hon
##mas
##ycinfo
sensorineural
framesh
psycinfo
vertebrae
exaggerated
egr
myocl
##acetamol
escalation
thematic
canals
achilles
therapist
wales
mentally
hyperpolarization
cooh
##ocations
##artum
flt3
##arcomas
fits
pieces
)--
reflective
azide
chagas
replicating
appreciable
citizens
##oplast
giard
tpp
hav
cart
/(
advocated
bacilli
##esters
buds
tryptic
myri
census
##e2
##urities
tyrosinase
petroleum
vals
ketones
][
##itives
adrenoceptors
fna
wait
##osylated
##acted
hyperc
homing
prioritiz
exhal
comet
viewpoint
degran
crosslinked
tmj
stringent
149
standardised
ivig
pst
elastography
##ih
concludes
##obiliary
hemophilia
muscul
powders
steatohepatitis
##5b
relieve
allop
titres
ddt
delineation
interch
circle
lactis
gynaec
grouping
carriage
ril
heteros
phenotyping
epilepticus
##othyronine
yb
##oidy
ezh2
##arius
##roscopically
##ateness
##odynamically
prostacyclin
migrants
behave
synonymous
chyl
eliciting
##occl
coils
##holder
subgen
pasteur
wd
fertilizer
vascularized
deterministic
fibromyalgia
descent
antidiabetic
psychomotor
autoradiography
denitrification
ale
instillation
perfluoro
acrylamide
##cysteine
##azide
##oting
reacts
nut
rectif
manufacture
plasmac
##cryst
lifelong
alve
##elt
bcl2
arthroscopy
tough
farnes
reinforcing
insemination
##iabetic
specialization
##eping
quit
semiqu
##olyticus
strugg
infestation
hpr
##tins
placent
gaseous
##oquinone
orphan
##child
colonized
xer
17a
staged
panels
stat1
luminescent
bon
##ictor
mimetic
endang
endarter
##rad
fragility
##otonic
phenytoin
##gener
brassica
fasci
pink
solubilization
naming
polymerases
cem
##phosphatidyl
aberration
dioxin
##board
buprenorphine
immunology
##antigens
fascia
rer
haemodialysis
eia
influential
##ifolia
cyp3a4
##ieving
cholangitis
fingerprint
gonorrh
exchanges
##etus
discern
diterp
imrt
metallothione
hyaluronan
electroporation
endodontic
slide
athle
cushing
d4
fetoprotein
diagram
gonadotroph
atorvastatin
alkylation
##ulosic
##ongr
midgut
fischer
localisation
separations
moderated
news
sleepiness
ryan
cleared
##born
4th
pph
rps
aneuploidy
paracetamol
pepsin
lingual
##iodarone
sentences
nbs
gor
humic
retinoid
pparg
citric
antiphospholipid
guard
barrett
lubric
tanzania
##olem
##endym
pvn
fecund
landmarks
nmdar
lind
reposition
thoracotomy
wbc
herbs
alleviates
intratumoral
preparedness
dilute
tetrap
facets
##kl
kallikrein
vascularization
bronchoscopy
unchar
chromophore
uneventful
sab
privacy
incar
pant
geor
pheochromocytoma
edition
isozymes
complaint
##pfc
##reen
182
compositional
argument
ppv
piece
enantiomer
##rolactone
po2
emergencies
##entanil
(±
aptamers
lobectomy
hay
##ocortex
##ibilities
thinning
myoglobin
nitride
incompatible
tubul
convey
##2o3
##ca1
biotechnological
+).
northeast
autumn
relied
##angeal
controversies
ependym
matters
married
##orf
concussion
deemed
caveolin
intrag
adhere
ecz
scanned
##uodenal
myd88
kaposi
195
##rodesis
emerges
mehg
gtpases
adipogenesis
sharply
##agers
gle
##d4
microcys
##db
pvp
glc
##athin
colored
norwe
ideally
nitroso
rage
intracereb
##orel
antithrombin
parturition
gynecological
subdivid
basilar
observable
seemingly
inferences
spectrophotometric
vitell
mites
lax
ada
benzoyl
academy
switches
manufacturers
##kal
syndromic
glucuronide
isomerization
fts
##angiect
coincided
humeral
dermatology
rubella
invertebrate
sati
spirom
physiotherapy
##iparous
vene
##irr
assemblages
hill
##oglobulin
aband
156
##udied
transthoracic
tan
hydrated
uniformity
chemoattractant
speckle
frontotemporal
yersinia
tune
pupil
interphase
intersection
aspergillosis
##position
itp
epithelioid
fibrinolysis
globular
lactone
estrus
odontogenic
strokes
longest
##a4
washout
nem
looked
micromolar
pend
zh
##l3
##yled
biodistribution
perturbed
unsatisfactory
hydrolytic
markets
crosses
jas
sleeping
formerly
pleomorphic
ay
guarantee
##menting
blank
locate
##ogy
dwarf
vow
periplasm
habitu
statistic
deceased
kan
governance
##har
##americ
scrap
%]
oxidoreductase
cbp
barrel
pressing
sax
deregulation
trough
ankylosing
optoelectronic
##atechin
glucone
sesquiterp
astrocytic
polish
conferring
bilingual
discordant
myristate
randomization
nonsense
cholecystokinin
xp
monos
##itably
carboxylase
neuropathological
pct
##hist
fluctuating
dk
whit
canopy
campaigns
threefold
appreciated
electrophysiology
iodo
##denum
(®)
endos
lux
##inum
club
carboxymethyl
indonesia
##iner
(=
##took
premenopausal
facilitators
thoracoscopic
reasonably
##sil
##lab
tort
matches
##oride
corrections
tracers
truly
##yly
vagus
##ucine
apps
fluorine
##atial
awa
isothi
dx
palmitoyl
phenotypically
pharmacodynamics
dispens
##car
##kat
shigella
phosphates
nonad
fight
quorum
obligate
unload
epilept
niches
##obiology
hyperphosph
ultrafiltration
raphe
photovol
pla2
ruminal
##flu
##icated
fanc
pyre
candidiasis
bcc
##centr
##ethane
maximally
rolling
protonated
undiagnosed
divisions
pna
anopheles
sao
parag
tethered
multisystem
sox2
##imentary
immunoassays
osteocalcin
##diagnosis
electroencephalogram
eur
topographic
undertook
assembling
xa
eo
lactofer
impurities
fra
dsb
nymph
amoxic
##ecoxib
##ocaps
biocatal
##brt
russian
##obility
redundancy
mitophagy
glutar
qsar
multicomponent
amoeb
compromising
##ogon
anoxic
migrated
delineated
impacting
subsc
phylogenetically
caregiving
mount
implied
etoh
##win
xy
causality
mycorrhizal
microinjection
basophil
ricin
anaerob
dac
##fig
fried
opn
##izability
agr
fault
enucle
solutes
stabilizes
borrelia
ligaments
denatured
endow
norwegian
##oagulation
aphid
##elected
timesc
metagenomic
illumina
chymotrypsin
4h
complemented
threatened
forage
intracerebrov
amid
zona
draining
microextraction
polyaden
185
telomeric
commonest
##af1
##mb
bca
cch
##duced
ultrathin
hym
shells
bronchiol
##hard
languages
amiodarone
glucosamine
##ospatial
protozoan
rhodopsin
telangiect
##omn
caspases
schwannoma
silenced
2d3
negativity
deuterium
##elective
blots
stall
##cc1
801
ppb
necrops
##rowing
shielding
hek2
chlorinated
birthweight
confounders
apr
renders
xps
modifiers
intracerebroventricular
polyg
repolarization
extravasation
throat
##etting
phyll
furos
plating
##foot
inertial
overproduction
disag
nw
##oporphyrin
keratitis
##acral
fluency
coordinating
nadp
##aired
transients
elig
vasospasm
phosphorylase
##tida
mpfc
contag
childbirth
practicing
metatars
lysosome
jointly
theme
dissatis
resins
##erule
propos
vsmcs
quadruplex
##trig
##opian
ultrac
callus
relaxed
authority
microsurgical
absorp
orexin
blastocysts
dnp
omn
##oning
tour
c8
5a
carrage
bival
stricture
emit
sephadex
casual
adenylyl
cavitation
##ocereb
juxt
tape
v3
ruminants
humanized
nfat
hek293
elaborate
rid
(+)/
furosemide
sulfoxide
relying
hypotensive
checked
vocs
17beta
##lyp
fulfill
ruled
incarcer
ned
##adecan
appoint
thyroiditis
thermodynamics
ask
interdepend
##116
cryopreserved
hemangioma
##iaxial
##hydryl
maladaptive
merits
158
encompasses
disparate
blends
weighting
adopts
##tles
earthqu
submandibular
pyrophosphate
prrsv
supplies
3000
appropriateness
##erry
##5y
troch
''
transaminase
##ynes
stance
bleaching
shortcom
sant
classroom
sdf
stopping
shortcomings
5000
upright
tung
tnfalpha
scoping
warrants
##ontrol
ags
eliminates
##encephalon
legionella
implicating
pret
##overs
volunteer
meniscus
cort
##ophytes
concerted
identifiable
neutr
##iiod
vad
unem
intelligent
ryr
anatomically
##coming
##eprazole
ethers
pik
frank
infliximab
poc
licensed
capsul
##onide
simpler
##x10
##axanthin
agglutinin
beetle
antitr
decide
##1a2
##ogle
insula
serology
versatility
longitudinally
rug
phosphatidylserine
anhydrase
effusions
fasl
api
yang
retrovirus
exacerbate
dichloro
recalc
neurosurgery
anthocyanin
potentiates
enzymatically
pathologically
##ogastric
nanob
":
diesel
progressing
225
##tigmine
triiod
##pora
uncharacter
qualified
immunoreg
wards
conspecific
##my
utilisation
biceps
byst
##etan
hesc
##rian
##oxylin
ceft
ginsen
uti
xyle
reflections
##hydroxy
##can
##ofibr
mendelian
cholester
diacylglycerol
neocortex
151
excip
desert
hcs
insults
butanol
japonica
stimulant
benzodiazepines
reconc
##aks
handic
polyamines
microflora
cb1
universally
say
functionalities
argon
suite
##ervised
methylpred
offenders
dht
pae
##agal
##s2
perfluor
.;
212
waveforms
molybdenum
angio
lentiviral
marginally
ors
caf
microbub
meningococcal
h5n1
glutaraldehyde
##ostom
certified
sid
egypt
anxiolytic
insecurity
photographs
ppg
unrav
nci
argues
adenosyl
urethra
cpap
##oton
passages
scrutin
tga
things
ira
##odystrophy
originates
cornerst
##ithin
finnish
##aciens
stereoselective
subdivided
dms
##asias
conventionally
bci
characterise
metamorph
spending
##iasm
##olaryng
inhibin
thrombectomy
retire
##oprim
##ampl
inherently
cereal
litterm
bq
##opterin
fulm
ptd
##ho
polyt
glucoside
transesophageal
amoxicillin
homogenous
biogenic
##odynia
methylprednis
##arietal
brca2
charts
##orbital
disproportionately
rounds
hms
##ysteroid
snf
bras
concentric
##omol
##osteal
##tert
polyneu
##unts
##ocortin
vanadium
015
isoc
reliance
expenditures
saccades
bacteroides
5th
gerd
lrp
granulomas
##cast
disorgan
lysate
hypermethylation
bart
##l4
mold
##opoietin
wuhan
caribbean
tlc
psc
##itism
preg
atherogenic
perpetr
fmd
fumigatus
accessing
mz
##arins
##iry
fove
hypocal
----
##factors
nucleophilic
interrog
grained
urticaria
preferable
gabaa
endarterectomy
##high
##onella
marriage
##ocardial
varices
##tigo
hypoxemia
fundamentally
##kinetic
##erme
urs
virological
granulation
watershed
vivax
##ventional
anchorage
##itrite
ancestor
hypercalcemia
incidentally
steers
hydroxyd
coincident
##gh
nephron
wrong
upa
1977
tas
incongr
unhealth
lewy
##earing
gamet
misdiagnosed
neoform
partnerships
p75
##ropical
##cortisone
chow
whenever
hypoglycemic
gastrop
kyoto
##arterial
faeces
mutagenicity
uva
nanomolar
rtms
russia
##oly
priori
##eterm
salicylic
</
geographically
tamp
cbct
##jiang
weighing
##anar
##endazole
##arsh
dfs
disinf
hemispheres
immunosuppress
toxoplasmosis
stn
cystectomy
eligibility
##ophyt
palatal
continuation
putamen
##uretics
discourse
myelopathy
acous
bioaccumulation
ici
##ozoites
3b
vortex
crystallinity
sunlight
convex
##onscious
203
substitutes
vz
eigen
microorganism
##enafil
duch
stemness
alga
capping
sulfonyl
diphther
decont
##amido
ryanodine
c9
174
convinc
electromyographic
##aploid
multiscale
cour
absorbing
##atography
desulf
methylprednisolone
##onitor
sirnas
##idian
##igenin
noncom
laminar
nomencl
##grass
##box
thiamine
court
concordant
mch
retail
fibrillar
densely
mud
evasion
rewards
fecundity
nebul
##ottic
##ecium
clip
nef
informatics
defibrillator
contiguous
s3
cd19
##baric
##omel
sps
parat
copyr
proactive
immunologically
osteonecrosis
enthalpy
1976
healed
slopes
unresponsive
aborig
decorated
refine
loosening
##ospora
##eav
nitropr
##avicular
aas
dyskinesia
##aginous
##observer
latino
pns
viscous
204
##c4
nitropruss
bisphosphate
##hexa
fuels
zwitter
claudin
pathophysiologic
##ocratic
transurethral
operates
tolerate
diuretics
suspicious
janus
2n
bass
copyright
osmolality
##osynthesis
acetylgluc
phenomenological
hypophys
a23
##inately
ovip
arteritis
berg
##gp
splenocytes
completing
erythropoiesis
cystatin
##children
exceptionally
archaeal
unavail
agitation
polyurethane
whee
glycoside
spasticity
efs
bioassays
mounting
tracheostomy
accessions
dmn
##ells
interprofessional
##ineralization
seat
##meas
pseudot
cd11b
urological
converts
reoperation
##azem
juveniles
];
visited
##rals
transducers
arte
##lock
logical
nitroprusside
177
lymphadenectomy
characterizes
stokes
presump
losartan
ene
fouling
##iet
pps
inductively
activations
humerus
##ucleotides
psychiatr
##atids
rio
endorphin
truth
##oprol
pediatr
pp2a
transcutaneous
glasses
operatively
really
nonl
reverses
contracture
photovolta
deactivation
psychotropic
endangered
tailed
222
##dg
##opeptides
157
submerg
hydrocortisone
rech
##ffer
involunt
##uronal
##ortus
efflu
alcoholics
##uximab
##isure
##ospermia
antiangiogenic
leukemias
dexmed
tones
videos
penetrate
mesoderm
orific
frustr
hexa
##atide
tubal
tlrs
explanatory
phenols
appreciation
##105
loose
catastrophic
214
forel
no2
classifiers
pharmacist
letters
nachr
at1
football
furan
myocyte
##balanced
vcam
nystagm
223
phantoms
fviii
usability
localised
##outs
sublethal
antiinflammatory
extensions
promyel
congestion
feedst
dexmedetomidine
enj
upward
##aeus
hyperbaric
pgp
fmol
habitual
dipolar
lactoferrin
unil
depolymer
biobank
##ynchronization
subdiv
beverage
fibrillary
formulate
immunod
myelogenous
##endothelial
positives
acceptors
flocc
pellet
rebound
calv
secretase
pept
multiform
discontinuous
##junction
cucumber
ces
calcane
macron
sy5y
pseudoaneurysm
##mph
##isk
overwhelming
##eno
ssr
colombia
craving
unsupervised
fulminant
categorical
unhealthy
spons
##itazone
agenda
##otoler
tetramer
degranulation
seronegative
crystallin
18s
recruiting
justify
tetramethyl
shuttle
pests
adenoviral
cholinesterase
##esin
##ohydro
fingerprinting
##ilaments
+)](
purple
counties
##space
cofactors
noisy
bulky
pgr
transgender
##oblastomas
liability
triazole
##4b
##esthesia
##beta1
adeno
antral
aca
aforem
aforementioned
sulfhydryl
##quat
msa
hyperoxia
##tiveness
bulls
##oniaz
lhrh
ddr
##afluor
trichloro
got
party
nominal
##amyl
rins
merist
cecal
##erea
hyperplastic
dwi
g0
incap
xylem
casting
externally
sight
equivalence
https
vta
##operfusion
##ogloss
hospice
ubiquitously
monocytic
mitigating
cytokinesis
dioxygenase
forth
cbl
##erts
##ophyte
attempting
thiols
##obr
amil
foodborne
initiator
cyanobacterial
nanocl
underscore
zeolite
musical
remin
##tonic
scleroderma
hapt
intricate
projecting
##tiazem
rgo
acetaldehyde
textile
multiplexed
nanopl
dj
chaotic
replacements
##anolic
ecule
knowing
##aural
chronological
nnos
bacteriological
estu
sorg
adamts
coumarin
##arth
validating
benzoate
no3
pdc
athletic
northeastern
faith
acknowledged
featuring
##tiana
paran
##ortin
dating
##itil
psii
##picuous
dione
gras
phagocytes
vibrations
nystagmus
##iors
lockdown
reca
negoti
cardiogenic
thyrotropin
ssdna
roux
tki
noticeable
##1c
##onus
peroxyn
drinkers
hybridized
sri
comments
retains
cannula
crush
tps
##ighter
##standing
referring
##ulans
dysplastic
flavin
##yi
sulcus
e2f
leisure
jurkat
256
ttp
oldest
##onite
subsurface
recovering
nomenclature
tir
sulfonate
retirement
lacrimal
waals
catalytically
antineoplastic
trimethoprim
diamin
posth
uracil
sleeve
paralog
##osable
macrop
183
330
regenerate
pld
##afted
fap
biomolecular
lyophil
preimplantation
l4
pgs
##feld
collisions
expands
epidermidis
corticotropin
loh
creative
junior
##aya
flip
internalizing
cdi
oncoprotein
bringing
pta
##3t3
qi
berber
rectang
hyperint
beating
inflation
coad
grounded
##omethane
polygenic
hbc
##obox
intraluminal
swab
fellows
greece
persisting
bullying
optogenetic
##itans
microscopically
degenerate
inbreeding
##aphic
urch
mpp
avoids
repos
wanted
humor
myotubes
achievable
neoformans
myelination
neurology
membership
##part
diltiazem
destroyed
dimorphism
heterotopic
biochemically
customized
##nn
##oniazid
hac
prehospital
stands
achievements
fluidity
gavage
p73
hepc
coexpression
belt
##ouses
strictures
unlabeled
reinforce
wish
tuberc
ribonuclease
##ohy
dpph
docosa
infinite
dsdna
cdc42
gdnf
##isexual
kinesin
puer
polyploid
sexuality
zirconia
ductus
classically
institutes
##astine
##agenic
##ender
##ervated
##azoles
localizes
344
assignments
proficiency
poliovirus
intensively
superimposed
street
dispersions
chat
dissecting
restricting
erps
subscales
rbp
chose
circumferential
sorghum
ccn
consume
neurobehavioral
##ylv
azithromycin
intensified
1950
reversing
eczema
tables
duchenne
roent
hairy
amiloride
##epi
##bec
##ground
merit
verm
coryne
orthostatic
effluents
answered
ccc
endeav
anca
fimbr
paraventricular
thalam
extraordinary
yt
kynur
concert
##osh
estimator
vsmc
brucei
cape
disruptions
deliveries
##ipenem
irin
tailoring
dibut
tut
scenes
##cephaly
referrals
manifests
confron
wnv
file
zea
hysteresis
17β
##cement
centroid
riboflavin
pediatrics
baculovirus
vinc
asymmetrical
maxilla
stoichiometric
anteced
=-
chemoprev
##apia
##iaa
grounds
##osinus
sinusitis
gratings
calving
computations
herbicides
kal
capped
periodically
multiplication
bubbles
ivc
##atoxin
town
externalizing
nq
mlc
verb
subreg
weaned
##ifos
##ondral
adenomatous
##ematous
submic
nsc
infrequently
aurora
quoti
metabotropic
confid
186
peroxisomal
furn
transporting
##ouns
carers
##osmotic
##ogel
request
embolic
##lete
retrotrans
##ococcosis
cohesion
pds
brand
ewing
favoring
phosphatidylethanolamine
##xime
propagating
inductive
##romegal
decidual
lithotr
corona
##trex
inhabitants
counted
550
##obase
bisphosphonates
urease
ict
gus
irinotecan
disruptive
ants
rsd
hydroxyethyl
##sm
carrageen
##enesis
221
bimodal
aeromonas
##renic
favorably
a23187
congo
myriad
notew
mercapt
blockage
cfa
coul
prepubertal
maxima
dysbiosis
isoniazid
206
eleph
pruritus
kinetoch
deh
##retion
##lycerid
fixing
hernias
endophytic
##506
door
glyphos
compost
myr
postinf
mmt
##thio
compress
southeastern
landfill
duplications
grows
accommodation
broadening
##ims
##ytoplasmic
ssa
peroxynitrite
##vac
intergenic
##anthus
##180
racemic
fluoresc
vertigo
##isinin
glyphosate
tme
distension
worsened
pseudop
viremia
010
contrasted
##urrent
##omorphine
papilloma
pervasive
modelled
penis
decoc
mirr
northwest
##aled
ror
dystrophic
##olium
postp
vocabular
##rowning
astr
pneumonitis
divide
nog
microglobulin
intentional
##apsular
bend
postulate
##anesulf
chips
progestin
johns
##onitoring
tmp
absorpti
minimization
polyneuropathy
neurotoxin
nanocarriers
##ocyanin
fluorophore
pav
##bos
##h2o
claimed
triangular
bibli
cognitively
learners
ferrous
miscar
##9a
biotinylated
assault
ebs
tails
##ellites
ghz
asparagine
matr
baical
wetlands
updating
czech
spar
##equencing
164
updates
aseptic
##reported
##opically
gm1
ctcs
rnf
bronchodil
saa
##enzym
glur
presumptive
periodicals
hcm
##ergetic
##gap
##ald
irrig
pyreth
tackle
roentgen
segregated
sns
tz
202
royal
retinitis
glycosaminoglycans
crowding
tj
deco
ministry
ictal
tnm
##ason
plank
##ipsy
##oty
bears
##ivial
spars
salience
nondiabetic
beneath
340
##olipin
5s
ship
esophagitis
hallucinations
exciton
freund
urbanization
organophosph
startle
garlic
rises
##orbable
167
protonation
abp
organoids
##odipine
ligated
communicable
dizz
##264
undetermined
cus
##emulsion
mustard
noteworthy
xenobiotic
spear
fenton
##agle
neuralgia
tmd
sprouting
)-(
amphip
phonon
flick
thyl
docosahexa
genbank
framing
smad3
cytoprotective
trying
fru
162
iqr
tracked
governments
asians
intuitive
p50
opa
##electroph
runx2
specialties
compliant
1974
lymphedema
visibility
uncharacterized
ppt
aquaporin
##igan
timed
teratoma
##y1
electrom
##iment
athlete
##engine
dsbs
hyponatremia
maximizing
unbound
##ultured
##ohyd
##icus
inflow
twe
oncolytic
##isic
unsp
aster
cardiover
flagellar
isoenzymes
bronchiolitis
1200
colostr
metallothionein
ramp
recanal
o3
sulfameth
involuntary
##omycete
lowers
olanz
spermine
pdi
precipitate
formate
nsaid
chirality
cooked
adventi
pyridin
hydroxybutyrate
photop
159
deprot
proteobacteria
wakefulness
dissimilar
nitrog
taq
popliteal
ccd
##atidic
drinks
acromegal
vitrectomy
##ofovir
tata
haw
anticipate
n3
transvers
saccade
##utz
alleviating
diffusivity
anthocyanins
huvec
tritic
##apez
pedigree
overgrowth
##exia
migrant
bronchopulmonary
nucleosides
thorax
audio
olanzapine
weaknesses
qa
repurp
vertically
isotopes
inaccurate
##artite
favors
turbulence
obstetrics
commiss
absorptiometry
alfal
ipa
##accept
dsa
graduates
mofs
vigilance
decis
village
##bearing
##retic
font
##anoate
translating
##ocs
ownership
steam
exosome
poster
risperidone
reoxygenation
nscs
victor
homeobox
save
calm
vegfr
crustace
primordial
jew
money
##folded
colostrum
leucocyte
behc
##yer
cime
undef
isolating
vagina
spotted
##acrine
traced
maternity
lan
energetics
hiber
deteriorated
ji
vitil
streptomycin
##fraction
unemploy
responsibilities
166
dicty
bism
denaturing
tungst
cdk4
##ochond
acellular
estimations
##μm
jh
cereus
parkinsonian
alumina
socs
fluorodeoxy
suppressors
myofibroblasts
cyclopent
##arbox
deregulated
disassembly
##eme
automation
alfalfa
##individual
permitting
loneliness
scholars
##usate
20th
amphibian
##rolateral
entom
myelinated
suckling
cocktail
tilapia
anastomoses
fumarate
survivorship
nes
perineal
21st
gefitinib
scant
vacuole
ploidy
amr
canis
##etallic
##merc
012
augments
cholesteryl
og
certainly
fluoroscopy
magnitudes
##iliensis
buffers
").
behcet
chemopreventive
cimetidine
guang
##adate
##otrophs
##idines
##trum
deposit
anthracene
##ervical
oliv
symp
gym
borders
hypertrig
##937
speculated
internationally
southwest
##eum
glycaemic
radioiod
ganglioside
thermoreg
##asculature
##otomies
##apto
shield
advocacy
coagulopathy
aggl
thall
##osap
##urv
metallo
crashes
certification
buried
tetras
acetylcysteine
##ectant
intraspecific
evoke
##yletic
##akis
mdma
carcasses
020
3beta
seaf
laid
pnd
1970s
##adiene
delib
footprint
syll
##fts
unconscious
abscisic
zns
foxo
rpl
diffr
preparative
epididymis
##engers
carolina
ribonucleic
undefined
hil
cystitis
fingerprints
cardioverter
trkb
spaw
buffering
interindividual
isole
qm
##onol
##angli
rafts
homogenate
gist
pthr
##ynchus
empowerment
delaying
##kel
cannabinoids
multiforme
reminisc
impulsive
wi
muc1
##lessness
penicillium
aminoglycoside
##vef
pdz
nanometer
aroma
##f5
caucasians
##cnt
##oneous
blasts
nonsyn
villages
soldi
dynein
##worms
##ystitis
colistin
subma
misle
jack
thrombi
laccase
temperament
recruits
c1q
notch1
311
distilled
##ermectin
172
polysomn
runners
clamping
antich
##amili
orfs
##bian
mra
thrombocytopenic
##h3
valued
tricyclic
enjoy
##oeae
exhaled
impingement
##olon
cytolytic
colliculus
saturable
fulfilled
specify
mbl
tall
##ospheres
duplicated
marketed
psychiatrists
deconv
participatory
taxon
teleost
##itarian
heel
focuss
radix
senile
synech
1973
hts
reduct
eif4
vps
coactivator
aversion
α1
radiolig
renewed
aboriginal
haemorrhagic
halide
accreditation
hepcidin
giardia
glut4
graphs
##nts
inevitable
176
##antit
kup
##h4
##training
heur
ncc
formats
alkylating
hypertriglycerid
##anate
dimensionality
hydroxyvitamin
moves
darkness
c16
agrob
rgs
dehp
polyelectrolyte
increments
163
##kc
cachexia
##fm
##erson
intert
##ohum
hydrogenation
relay
196
dosed
washington
##users
transferring
advocate
vitiligo
oocysts
169
downward
cim
ally
formic
corroborated
arthrodesis
coronaviruses
erroneous
%/
phr
readings
rejected
represses
adrenalectomy
sporulation
##util
##avers
plethora
immunofluorescent
##ems
gills
server
multiplicity
##ternal
photoacoustic
cmt
chlorhex
perforated
ht1a
##ildenafil
filler
apomorphine
reuse
cholecystitis
rotations
chelation
##otherapeutics
dsp
phb
##lm
nitrophenyl
enterotoxin
sorted
ille
revisited
colors
luminance
##oba
stocks
desatur
plp
saponins
alfa
pbc
##osities
mdr1
hnr
desicc
holo
vzv
##enh
oryzae
producer
maneuver
readout
bystander
locoreg
contingent
hematuria
alliance
tie
entrance
cyp2d6
sdh
anterogr
chlorhexidine
##ycholic
mesenchym
tenderness
universities
pasture
##opathogenesis
camb
thylak
agenesis
moderating
2m
inulin
meteorological
oculomotor
biv
marsh
##pb
anaesthetized
cylinder
##obaric
scfv
coryneb
iddm
azath
##entilation
steroidogenesis
queens
displacements
breakage
unfamili
weighed
##etit
apd
occlusions
byproduc
companion
α2
184
phytochemicals
##onvulsive
impairing
css
161
hibern
inactivity
##asaki
galanin
discriminated
avenue
habituation
cornerstone
vasoconstrictor
gonorrhoeae
shark
antiapoptotic
##reshold
gelation
kaw
columbia
endings
##odial
synergism
ptb
robustly
fronti
dialysate
preoptic
ohda
complained
##onated
proposals
##flower
promyelocytic
sildenafil
itch
##arrhythm
rhinosinus
otolaryng
centi
monitors
radionuclides
nis
##etector
hematoxylin
antitrypsin
carrageenan
rts
gravit
ccl2
tailor
meetings
##hibition
bisexual
oxidants
evacuation
##romedial
##acryl
complexities
mammal
densit
cheap
c7
opg
##welling
trimer
pepper
docosahexaenoic
uplc
##aniline
flocks
tkis
necessitates
conclusive
assumes
azathiop
flavivirus
recirc
kinin
doll
##osarcomas
stew
cpe
elaborated
prospect
daph
reentr
recommends
army
##rosterone
ddp
greek
went
indium
diphosph
anf
sln
temporarily
centromere
##akia
taf
benefici
mares
deoxyribonucleic
##aska
dizziness
appendix
launched
metacarp
educated
qtls
lfa
##ractionated
octre
##apheresis
cba
meniscal
dor
phal
bak
oligodeox
##gene
##ovulatory
b4
genic
##ht
dissect
manager
cyp1a1
snails
##oprolol
lk
thf
prun
incentive
odn
##adecyl
rhinosinusitis
htr
##ismus
intuss
mainstream
rud
thz
cof
##othermic
precedes
dormancy
genu
##argeted
##rolithiasis
catfish
pharmacogenetic
erbb2
dentition
##thus
##quinoline
philipp
ferromagnetic
esophagectomy
dihydroxyvitamin
chen
##usor
femin
fw
adl
nicotiana
truncation
disintegr
ctd
##activities
ntr
telangiectasia
redes
genit
understudied
schoolchildren
pallid
destabilization
containment
outperforms
dislocations
p62
ccl4
##horm
transluminal
phac
impressive
tegmental
##tiform
oxygenated
boots
##roke
4000
chimeras
captures
stomatitis
adjustable
nitroglycer
181
##scat
triiodothyronine
##arded
##aval
photolysis
cst
unintended
##otential
ced
contracted
cooperativity
berberine
blu
209
spermidine
meq
hco3
frameshift
mycophen
decel
##ectivities
goss
chimpanze
azathioprine
amelioration
brucellosis
exhaustive
chimpanzees
seroconversion
gallate
imt
##oneu
##tress
##domains
##hel
##unn
##uca
calculi
abundantly
print
paa
raft
mcd
tampon
k2
recalcitr
216
fullerene
pollination
##rag
##uberculosis
stacked
##asters
promises
ethylenedi
wetting
leucocytes
burkholder
valproate
decoction
supercritical
fronto
intussus
##trexone
##rophylaxis
equator
pm2
collim
dissatisfaction
pmns
osse
##nut
smith
rfa
iri
wisc
##ophages
medulloblastoma
##rance
anthel
rhabdomyosarcoma
pnp
##126
##ochromic
##nour
triacylglycerol
gss
neoin
thawing
fenes
##ancerous
##idial
clinico
submaximal
nanoclus
naked
rx
bottle
h19
tard
keratocon
##abric
allergies
sedative
intercourse
backscat
diverticulum
illusion
goes
dosimetric
clarity
sgc
hypoglycaemia
scarcity
innervated
trains
boosting
##iatus
##interp
isoenzyme
##ensives
relieved
4b
stm
narratives
##oconjugates
##ozol
subtropical
##ocholine
dock
##n4
arsenite
016
promptly
nucleocaps
conservatively
metamorphosis
obt
suspect
##ocap
##oxine
interferons
sponges
allodynia
inclusive
anticipation
incisors
pread
mbc
semiquantit
singly
homosexual
transmural
##oven
depolarizing
ventrolateral
vg
##represented
dxa
insular
meter
##cyt
glycosaminoglycan
ercp
humid
racem
hotspots
compaction
hypothermic
##avidin
187
metazo
##actyly
thalidomide
ppargamma
tpo
##oduoden
unrel
dmf
mangro
##hertz
scotland
lpr
subtotal
cu2
##osensitive
b3lyp
harms
cj
plastics
##chair
concise
ctgf
unselected
nematic
##exin
sip
cytostatic
icg
kegg
isogenic
ecologically
glycated
##oparas
cau
sh2
##cb
smoked
chances
query
guides
4e
practiced
camel
##imbic
arcuate
##aer
e4
youths
trifluoromethyl
##centration
cdkn
mycotoxins
actinomycin
distortions
##urans
modulations
eicosan
##ropylene
invited
##xi
##erian
diis
308
hymen
##ucher
##ullin
kainate
##uese
##yltransferase
internally
mediastinum
dates
pfos
':
amalg
lepr
cld
sms
territories
##odone
parane
pentobarbital
##rofacial
entitled
syringe
portuguese
ip3
biphenyls
stripping
ki67
##ibrillar
211
translocated
amended
introg
carin
grasp
mussels
losing
##atri
unstimulated
hypersensitive
amplicon
neocortical
agrobacterium
1s
##mia
haemophilia
spaced
actors
anesthesi
##uters
regressions
phylogen
gk
composting
##enom
011
daf
baclofen
incisor
f3
economics
##uer
rye
##rooms
disconn
symbiosis
mats
##ibrils
##aner
probands
##affinity
dpi
infra
##astigotes
endocannabinoid
hch
valgus
##ometrics
##atiles
vocabulary
exceptions
leachate
ish
##licted
173
##spr
375
embod
nests
##famide
swing
hamart
##rotoxin
ate
estuary
178
endotox
intervening
voiding
instrumented
contracting
camkii
microgravity
couplings
##ropath
entorh
competit
##rogenital
exemplified
##olecule
beetles
abut
columnar
##09
revert
apap
pach
lncap
pristine
disagre
##vhd
ppc
wt1
::
sock
employee
extrapolation
sympos
reversibility
##izo
ducks
dispensable
breadth
imipenem
##idases
blm
embryonal
sugarc
kupffer
potencies
enal
circums
immunosuppressed
electrospinning
u937
volatiles
isozyme
decontamination
##zo
boar
prices
inquiry
##fu
femor
abstr
cryptococcus
perennial
perone
##yps
lift
hypha
seventh
repeating
##rimers
silage
silicate
##ugr
incompatibility
##ostigmine
adversity
fcs
malfunction
matured
sterols
urod
##flies
##344
chemoradiation
pectoris
gq
penins
sugarcane
podocyte
##evolution
roi
##nr
diap
clearing
intraves
##ittance
##ophosphorylation
shadow
##lymph
biog
pyrazol
electrod
##alic
##104
steroidogenic
responder
tetrod
tss
hamstr
aic
deae
snare
cannulation
atrazine
sort
palpable
transistors
gonads
##ozolomide
##fast
colocalization
shortest
215
immersed
mismatched
visiting
fluorinated
sprint
##romal
g6pd
arbor
insulator
recombin
spiroch
carniv
##ibenz
scopol
lca
pufas
mam
putr
spm
##tens
##ethrin
##che
adipogenic
##so4
carcinogenicity
instructed
##odality
dus
trpv
cd133
resectable
grassland
nevus
171
stump
arithm
018
strengthened
triphosph
continental
google
bullous
pneumophila
burkholderia
autogenous
sunflower
biologics
calcifications
cervic
tagging
discovering
##umes
upregulating
autoregulation
##efined
sanitation
ventromedial
hang
antifer
urgency
650
wilms
tos
catalysed
xenobiotics
##ecu
entorhinal
##azolin
##alasin
##eptidyl
##utamide
fractured
fauna
tars
cdk2
ferroc
dipyrid
##azid
ceftr
ire
##yrrh
aminopeptidase
##obutyl
iap
nipple
##c12
enterococci
kyph
wils
colloids
##occlusion
enolase
subling
infarcts
nanostructure
electricity
endocardial
iol
kw
##asy
tsa
intracytoplasmic
craniotomy
##ounting
patell
astrocytoma
##aci
vero
args
thuring
fluorodeoxyglucose
mthfr
afterwards
endosperm
receipt
asymmetries
conspicuous
##oplegia
ceftriax
stories
approx
polypropylene
necropsy
unaccept
haematopoietic
##opram
##amilies
bismuth
##ilia
basket
propagated
impr
immunochemical
nitrobenz
soma
##rostr
gobl
ionized
lighting
##arative
proteinases
knot
ota
cuticle
hyperres
##ocycline
##iclovir
brs
misfolded
mdck
014
sterility
exos
inactivate
shunting
overlying
passively
tropism
bodily
immunotherapies
deformations
harsh
zn2
compiled
##itim
pcm
rearranged
anoxia
##exc
amnesia
entrain
##ollen
predictability
mussel
cetuximab
kre
##enine
##ounted
arithmetic
orifice
antitub
##italopram
dyads
ultrahigh
013
unfamiliar
lentivirus
alloc
pedestr
fbs
diodes
arrestin
jn
illustrating
##oronary
beings
temozolomide
egypti
##oembryonic
asynchronous
wss
keratoplasty
naturalistic
congru
ambiguity
diphtheria
extracranial
tetrodotoxin
oxa
##chis
tbars
##atement
proapoptotic
##nae
##epsy
sorbitol
inject
certif
frogs
mainland
protoplasts
intestin
##ofluorescence
esthetic
oncologists
trnas
epilep
trapez
reinst
shunts
calling
##missions
##olines
triphenyl
virtue
proteasomal
rsa
atria
macroglobulin
propria
vulvar
##ouling
goblet
inhomogeneous
a4
spt
cellulase
urogenital
##exy
intracardiac
##ostal
unidirectional
prolyl
interim
niddm
stear
loud
adenoid
208
tcga
nrs
dimorphic
mineralocortic
polych
ceftriaxone
salicylate
caught
##ollagen
antipar
193
linol
capd
neurotrophin
founder
macrolide
parth
consul
rit
abi
receives
proceeded
233
tach
##bon
pthrp
inlet
##icola
taxol
perchlor
postd
/-
condyle
quadrant
visualizing
nuc
cob
monovalent
lipof
embr
accompany
misleading
methylphen
batches
aggravated
rheumatology
maltose
dyslexia
##rospor
affords
noncon
##etrically
supern
gov
exotic
intussusception
epigenetics
##front
comt
dish
##orbed
neuropathology
lapse
wasp
218
pontine
multisp
##omplex
stereo
std
##bert
cotyled
osteopontin
bitter
rpa
stenoses
paraneoplastic
denervated
nh3
##k4
lanthanide
bom
fabry
invariably
amides
minnes
carcinoembryonic
##ulinic
intradermal
valent
h3k27
scaph
pvc
##olinergic
condylar
##kg
spectrophotometry
splanch
##ymmetric
290
send
naltrexone
##inators
penta
lycopene
disasters
intraoral
odc
stau
##ariasis
hydrate
##1α
##ionyl
isoleucine
conserving
rls
##pectral
pgi2
betaine
reserves
isothiocyanate
##iones
isotype
##astatic
##ourinary
recycled
invade
cd1
tamponade
##ureter
##q1
privile
annotations
neurofilament
chromatid
svr
administer
##ozoite
troub
##uloplasty
trifluoro
palmitic
##enzymatic
hits
additions
cartr
knife
corticospinal
curricula
mre
nms
apnoea
unavailable
orofacial
mineralized
monosacchar
microspor
precautions
rectangular
organochlor
bde
##oxys
evapor
transcriptomics
officinal
morris
rooms
##uries
##fb
electroencephalographic
ovariectomy
breakpoints
thawed
wilson
endogenously
mitigated
theran
##guanosine
dag
pco2
philosophy
octreotide
podocytes
lvef
binder
indeterm
nontoxic
mesenchyme
transmissible
precede
##anuclear
alc
spiro
linkers
nanofiber
prb
intracellularly
microangi
paulo
ns1
heterozygotes
evaluable
pyrim
enterovirus
alignments
hydrostatic
icsi
decisive
repositioning
myeloproliferative
permanently
fibros
15n
squared
taught
##reach
weakened
ksh
##anteric
hib
sorbent
##gium
##agin
minnesota
298
enalapril
fog
expose
s100a
epcs
##liptin
bred
exogenously
##ett
hpc
##f6
##acyclines
lis
cystine
hone
cords
preserves
exudate
##140
nonex
coadmin
rewarding
genitourinary
aii
##oserine
underpin
readmissions
tendencies
ancillary
##oken
hemi
inad
sensitizing
papilla
parvovirus
scopolamine
sce
##legic
explant
254
naoh
hypercapnia
iugr
issued
postex
fe3
##pea
ps1
##ahertz
raw264
oval
experimentation
gallium
depicted
charco
subclasses
mercapto
heavier
##emann
lateralization
##oglycer
diox
hypothesised
isth
bioremediation
##incial
238
arteriosus
##edoch
##arcin
monooxygenase
glucuronidase
radiosensitivity
serp
manufacturer
michaelis
##tilbene
##0000
coculture
dominate
cd38
chelator
##nourished
ensembles
ahead
avascular
professions
decoupl
sio2
coliform
enterpr
foxo1
vp1
submerged
)+
circumvent
consecu
hinge
hippo
anterograde
lia
thicknesses
multipotent
##etium
micronutrient
micrometer
paraquat
gangliosides
littermates
cd36
trisphosphate
resistive
acrosome
urate
hydroxysteroid
repell
helium
##abilis
parvum
milling
spearman
impregnated
##encaps
expansions
catchment
194
##ozin
##ibac
##athion
ethoxy
crystallized
leiomyoma
##quar
hypochlor
##nit
ils
omeprazole
architectural
lacun
enteritidis
##apical
periplasmic
zwitterionic
climbing
##orters
erb
)°.
##oglutarate
gluconeogenesis
occupy
##adin
thymine
parkin
celecoxib
fertilized
##orient
##amellar
shang
phenolics
microvessels
counsel
adhered
##anguine
lithotripsy
##ulitis
##iptyline
indo
osteochondral
cumulus
znf
bivariate
minocycline
anthelmin
unprot
urchin
##waters
##ovaginal
lifting
suffers
enforcement
##opulation
##opolymers
cynomol
antisocial
harbored
reassess
witnessed
streptavidin
monolithic
##men
metabolome
lymphoblast
dimethoxy
castrated
##yrinth
bootstr
masc
##otrich
thuringiensis
##gest
imipramine
emin
synthesised
dad
hypok
succession
horizon
anthracycline
vine
##entang
##opyridine
colp
locoregional
##ipes
earthquake
masks
herbivores
oriental
corynebacterium
instar
putresc
##with
##eca
complicate
malaw
posttreatment
affir
##ui
##ytomas
##aphase
017
420
integrase
immunoregulatory
p70
photophysical
partum
5d
outreach
questionable
supras
lecithin
accelerometer
itrac
ons
chondrogenic
nitroglycerin
p63
yearly
perfring
noncomp
chromaffin
##opurine
(-),
consecutively
##bed
foliar
hyperinsulinemia
continent
swollen
organize
pso
prs
##crystalline
gather
preventative
rfs
nonsurgical
##brom
centrosome
ceramics
portugal
pga
##occus
wett
trpm
jord
##hand
##plate
impede
oviposition
tumorigenicity
unconventional
jm
226
splanchnic
arthropod
sublingual
##ipin
hca
octyl
foref
adne
heights
ild
yoga
##agenous
pdl
azt
cyto
##ofrontal
cued
orbitals
charcoal
contours
cancellous
"-
beck
gamb
dendrimers
conval
associating
scrotal
##qs
##ador
quiet
neurophys
peel
##benzene
profit
osteoarth
##pyruvate
intensification
accent
pomc
##androsterone
hematology
mn2
##rice
trus
ipr
disks
psychophys
pfge
pigeons
cant
tadp
##ostin
tace
metalloprote
linc00
itraconazole
tect
##attern
parallels
lir
nect
##pps
polyke
transwell
radiologist
trep
planktonic
##ophilin
sirolimus
centuries
179
##umenting
refrig
##lt
isotherms
microcapsules
fow
antit
##acological
oncogenesis
oryza
igh
fluorophores
207
milest
tce
refugees
sis
tbp
##lotinib
cci
fms
10th
disintegration
hydride
lettuce
ppe
osseoin
solanum
annulus
infiltrated
sons
asm
profess
1972
hypogonadism
carbons
coincidence
centrifugal
##lear
##ums
suv
heterotrophic
glue
##opharynx
laterally
##idics
puzz
motors
detrusor
endoderm
##domain
requested
rad51
norovirus
##oi
plantarum
stillbirth
nanopore
aac
##ocerc
fontan
correspondingly
tams
macul
microdiss
corrective
myositis
phylum
visuospatial
hek
claud
sonication
melanocytic
phagocyt
flooding
##atrial
dz
quotient
investigational
oesophagus
periodicity
lass
multivalent
attrition
pursued
##acental
ttr
supervis
prokaryotes
macros
skelet
affairs
mta
cxcl12
310
aplastic
##aphy
fucose
converge
spinach
aeration
nucleosomes
demonstrable
necessitating
penetrance
isotonic
##isperse
cdh
disposable
twisted
shocks
##annels
##igel
neurodevelopment
proceeding
##aluable
bloom
##obiological
posttranscription
tentatively
och
advised
milder
convincing
acycl
psychoactive
entrapped
abortions
ceftazid
rater
pi3
satisfy
mosaicism
iav
##din
pbdes
dipeptide
marmos
bmc
transformants
neighbouring
ccrcc
analytically
documenting
tcf
dma
nkt
neurites
guill
##ymia
taut
symposium
prosocial
cine
##otyl
contraindications
diatom
competitively
##rolases
ivermectin
##urd
##bachia
confluent
nociception
neuropathies
brightness
spark
mullerian
perfringens
amh
multilocus
fermi
fastest
distinguishable
##regnant
drag
beer
motives
kshv
cerc
intercon
phrenic
cyber
nonselective
packaged
pemphigus
suppur
violet
telehealth
equivocal
feeds
oct4
resonator
midwives
isc
biogas
egyptian
disciplinary
fk506
resides
##ivudine
genders
dipeptidyl
3c
##inarily
##omys
guil
##athesis
##otetr
perfusate
##wr
hydroxypropyl
##oduodenectomy
##ries
amf
sh3
micropor
dobut
volv
hydroxyphenyl
ceftazidime
##b6
sensations
hispan
addictive
preload
mononucle
irid
choledoch
##ophiles
anticipatory
##ophile
belgium
protracted
immobility
eradicate
cytoreduc
wellness
alpine
##romazine
microstructures
ogd
burned
##ar1
metap
lactide
prazosin
intriguingly
multinucle
##alact
b5
osteoclastogenesis
##olyl
##riol
##relation
koh
homic
aniline
covariate
photovoltaic
bug
##opard
gdf
fors
constituting
ubiquity
gossyp
dobutamine
avr
sulfamethoxazole
peo
dapt
policym
southwestern
##uta
mcao
edent
ed50
##osaminidase
opson
abstraction
tcc
painless
##imed
anorectal
##entrifug
htert
dide
ptt
ck2
lav
wp
transcriptomes
smad2
hyperglycemic
wolbachia
hapten
urology
misf
artemisinin
putrescine
##echlor
indica
sga
forecasting
endosymb
disentang
underpinnings
semiconductors
revolutionized
metastable
cbz
quinoline
microvasculature
nirs
imidazol
fishing
lignocell
weap
##odiagn
desmin
scaffolding
fgfr
intratr
terahertz
235
oscillators
nitrification
##ylon
cynomolgus
robots
pab
mll
gilts
##ituric
achr
##ofloxacin
omp
wg
eoc
childbearing
tribut
spur
##arche
seasonality
370
retroviruses
amni
haemolytic
cd56
macrocyclic
qtc
entails
palliation
vign
inte
chlamydial
##orhynchus
cotransporter
catastroph
##ohumeral
kif
##orea
diminishes
acyltransferase
gust
iκb
ema
remitting
recanalization
affiliated
lifetimes
diffusive
engineer
'-(
bpy
biosensing
invaluable
pneumocystis
191
ers
cooperate
kawasaki
##ytical
##phia
##achus
optimisation
224
editorial
admixture
flowing
hbeag
ferr
##iflozin
dependencies
##pa1
ttx
tle
adrenocortic
##identate
intestines
turbidity
corneum
methox
electrophysiologic
prodrugs
glute
valproic
##inin
spectrin
programmable
paragangli
s4
##terp
##ophth
##loem
##k9
insensitivity
fats
hgh
coeliac
rape
chlorophenyl
macaca
hyphae
##olimus
##robacter
bisphosphonate
balf
mcg
pyogenes
lobular
packages
paget
disadvantaged
##asties
##otho
lactamases
##rey
indolent
interobserver
peripherally
##damycin
phosphoprotein
spoken
c12
restrained
histochemistry
380
cements
##ql
unim
escs
haplo
##osensor
cpc
pho
technetium
##gesterone
meningeal
dum
ted
occurrences
mdct
promisc
##ograv
il6
goiter
mollus
##lot
legisl
sarcolem
nord
reportedly
mpn
bace
deriving
retinoids
tracks
courts
reminiscent
yes
pave
##itidine
189
pombe
methylphenidate
##pert
##cls
##anul
geo
conceived
##efaciens
hepatobiliary
undescribed
uneven
vagotomy
recalcitrant
appearances
antivir
##wl
jordan
untrained
##ocarpine
##yclo
nanomedicine
executed
autograft
swarm
jam
chemoprevention
latitude
##junctiv
##ilicity
crick
fourfold
inspiration
recapitulate
##omus
ggt
##ibacter
biologists
tungsten
linolenic
inception
heterocy
##ofibrate
##udinal
thyroglobulin
exhaust
dressings
lipogenesis
##omalacia
bicycle
gramm
fura
##opyranosyl
overlapped
aspart
cens
esterification
abstracts
##urization
enantiomeric
serially
transepithelial
dce
hemagglutination
electroconvulsive
syrian
pharmacophore
removes
rotary
perpet
##iden
eralpha
213
mucositis
mrd
psychophysical
inr
patella
amalgam
excitations
avidity
hfs
clindamycin
convulsions
tropomyosin
hydroxyproline
##type
glabr
emboli
depot
satiety
amps
longus
orienting
##onsin
magnification
clarithromycin
website
mori
endop
##ethylated
transglut
strab
albuminuria
philadel
diary
abbre
organophosphate
22q11
##ographies
cleave
lvad
indeterminate
preformed
hcy
upregulate
rxr
gibber
pedunc
srp
semis
purinergic
bouts
unprotected
vhl
exercised
seminiferous
rumination
##ophora
amphibians
supplying
480
neighbourhood
vasodilatation
##antes
##thalamic
breakpoint
##103
##osteron
operant
masticatory
phloem
facs
protozoa
##operable
forelimb
bites
spc
scorp
dentine
bacteriophages
fip
deciding
snack
hpt
smcs
tendin
minorities
##opropane
spindles
ntp
propylene
metach
pericytes
##asure
verr
microcephaly
##neumonia
euro
ameliorating
utilised
recurring
hypoperfusion
adaptability
bronchoconstr
elaboration
cpl
##lers
striated
philadelphia
##oconazole
gonadotrophin
starved
immigration
nevi
cephalosporins
ats
##ayered
##acetam
abbrevi
michigan
##ultures
officers
coi
magna
ghrh
periprosthetic
enters
titre
##izine
analogy
quartile
photosensitizer
philosoph
##iances
inadver
unreported
##omatoid
##icon
quantitated
oyster
##bm
##145
mineralocorticoid
conformal
burkitt
bioluminescence
##cellulose
occupying
overcomes
antigenicity
parasitism
hash
sunitinib
hne
solubil
industrialized
pbr
°,
##cot
hyperresponsiveness
duplicate
clarification
everolimus
adsorbents
34a
lumbos
lhc
ppr
slurr
n2o
punishment
biodies
agonistic
declared
cooled
##agliptin
polypharm
tween
##ondin
synthases
fatalities
##epiandrosterone
lank
dls
[...]
